<unk>	0
<s>	0
</s>	0
<pad>	0
<0x00>	0
<0x01>	0
<0x02>	0
<0x03>	0
<0x04>	0
<0x05>	0
<0x06>	0
<0x07>	0
<0x08>	0
<0x09>	0
<0x0A>	0
<0x0B>	0
<0x0C>	0
<0x0D>	0
<0x0E>	0
<0x0F>	0
<0x10>	0
<0x11>	0
<0x12>	0
<0x13>	0
<0x14>	0
<0x15>	0
<0x16>	0
<0x17>	0
<0x18>	0
<0x19>	0
<0x1A>	0
<0x1B>	0
<0x1C>	0
<0x1D>	0
<0x1E>	0
<0x1F>	0
<0x20>	0
<0x21>	0
<0x22>	0
<0x23>	0
<0x24>	0
<0x25>	0
<0x26>	0
<0x27>	0
<0x28>	0
<0x29>	0
<0x2A>	0
<0x2B>	0
<0x2C>	0
<0x2D>	0
<0x2E>	0
<0x2F>	0
<0x30>	0
<0x31>	0
<0x32>	0
<0x33>	0
<0x34>	0
<0x35>	0
<0x36>	0
<0x37>	0
<0x38>	0
<0x39>	0
<0x3A>	0
<0x3B>	0
<0x3C>	0
<0x3D>	0
<0x3E>	0
<0x3F>	0
<0x40>	0
<0x41>	0
<0x42>	0
<0x43>	0
<0x44>	0
<0x45>	0
<0x46>	0
<0x47>	0
<0x48>	0
<0x49>	0
<0x4A>	0
<0x4B>	0
<0x4C>	0
<0x4D>	0
<0x4E>	0
<0x4F>	0
<0x50>	0
<0x51>	0
<0x52>	0
<0x53>	0
<0x54>	0
<0x55>	0
<0x56>	0
<0x57>	0
<0x58>	0
<0x59>	0
<0x5A>	0
<0x5B>	0
<0x5C>	0
<0x5D>	0
<0x5E>	0
<0x5F>	0
<0x60>	0
<0x61>	0
<0x62>	0
<0x63>	0
<0x64>	0
<0x65>	0
<0x66>	0
<0x67>	0
<0x68>	0
<0x69>	0
<0x6A>	0
<0x6B>	0
<0x6C>	0
<0x6D>	0
<0x6E>	0
<0x6F>	0
<0x70>	0
<0x71>	0
<0x72>	0
<0x73>	0
<0x74>	0
<0x75>	0
<0x76>	0
<0x77>	0
<0x78>	0
<0x79>	0
<0x7A>	0
<0x7B>	0
<0x7C>	0
<0x7D>	0
<0x7E>	0
<0x7F>	0
<0x80>	0
<0x81>	0
<0x82>	0
<0x83>	0
<0x84>	0
<0x85>	0
<0x86>	0
<0x87>	0
<0x88>	0
<0x89>	0
<0x8A>	0
<0x8B>	0
<0x8C>	0
<0x8D>	0
<0x8E>	0
<0x8F>	0
<0x90>	0
<0x91>	0
<0x92>	0
<0x93>	0
<0x94>	0
<0x95>	0
<0x96>	0
<0x97>	0
<0x98>	0
<0x99>	0
<0x9A>	0
<0x9B>	0
<0x9C>	0
<0x9D>	0
<0x9E>	0
<0x9F>	0
<0xA0>	0
<0xA1>	0
<0xA2>	0
<0xA3>	0
<0xA4>	0
<0xA5>	0
<0xA6>	0
<0xA7>	0
<0xA8>	0
<0xA9>	0
<0xAA>	0
<0xAB>	0
<0xAC>	0
<0xAD>	0
<0xAE>	0
<0xAF>	0
<0xB0>	0
<0xB1>	0
<0xB2>	0
<0xB3>	0
<0xB4>	0
<0xB5>	0
<0xB6>	0
<0xB7>	0
<0xB8>	0
<0xB9>	0
<0xBA>	0
<0xBB>	0
<0xBC>	0
<0xBD>	0
<0xBE>	0
<0xBF>	0
<0xC0>	0
<0xC1>	0
<0xC2>	0
<0xC3>	0
<0xC4>	0
<0xC5>	0
<0xC6>	0
<0xC7>	0
<0xC8>	0
<0xC9>	0
<0xCA>	0
<0xCB>	0
<0xCC>	0
<0xCD>	0
<0xCE>	0
<0xCF>	0
<0xD0>	0
<0xD1>	0
<0xD2>	0
<0xD3>	0
<0xD4>	0
<0xD5>	0
<0xD6>	0
<0xD7>	0
<0xD8>	0
<0xD9>	0
<0xDA>	0
<0xDB>	0
<0xDC>	0
<0xDD>	0
<0xDE>	0
<0xDF>	0
<0xE0>	0
<0xE1>	0
<0xE2>	0
<0xE3>	0
<0xE4>	0
<0xE5>	0
<0xE6>	0
<0xE7>	0
<0xE8>	0
<0xE9>	0
<0xEA>	0
<0xEB>	0
<0xEC>	0
<0xED>	0
<0xEE>	0
<0xEF>	0
<0xF0>	0
<0xF1>	0
<0xF2>	0
<0xF3>	0
<0xF4>	0
<0xF5>	0
<0xF6>	0
<0xF7>	0
<0xF8>	0
<0xF9>	0
<0xFA>	0
<0xFB>	0
<0xFC>	0
<0xFD>	0
<0xFE>	0
<0xFF>	0
▁t	-0
an	-1
he	-2
▁o	-3
▁b	-4
▁n	-5
er	-6
▁a	-7
▁the	-8
in	-9
mu	-10
ku	-11
al	-12
▁e	-13
▁s	-14
▁w	-15
ir	-16
on	-17
at	-18
en	-19
ba	-20
ga	-21
and	-22
is	-23
it	-24
wa	-25
ka	-26
re	-27
▁m	-28
▁mu	-29
ul	-30
ya	-31
▁h	-32
▁of	-33
es	-34
▁k	-35
▁and	-36
▁A	-37
ed	-38
or	-39
▁c	-40
▁f	-41
▁g	-42
we	-43
yo	-44
▁to	-45
▁oku	-46
▁l	-47
as	-48
▁p	-49
▁th	-50
▁d	-51
ol	-52
un	-53
ing	-54
om	-55
▁ku	-56
▁in	-57
ye	-58
ab	-59
ma	-60
us	-61
zi	-62
▁be	-63
▁ba	-64
za	-65
ti	-66
▁ne	-67
era	-68
tu	-69
ar	-70
ira	-71
bu	-72
il	-73
wo	-74
im	-75
▁T	-76
dd	-77
ala	-78
▁he	-79
▁M	-80
le	-81
▁I	-82
bi	-83
anga	-84
ee	-85
ut	-86
iri	-87
▁sh	-88
ot	-89
am	-90
▁en	-91
ali	-92
ay	-93
ge	-94
ent	-95
ve	-96
ic	-97
bwa	-98
▁ek	-99
▁of▁the	-100
da	-101
▁E	-102
▁An	-103
ana	-104
na	-105
all	-106
ko	-107
▁And	-108
id	-109
ur	-110
ro	-111
▁The	-112
▁K	-113
▁ab	-114
▁that	-115
▁omu	-116
em	-117
▁al	-118
um	-119
▁B	-120
▁N	-121
uka	-122
ig	-123
▁O	-124
et	-125
▁S	-126
▁for	-127
ad	-128
▁is	-129
ere	-130
▁L	-131
ak	-132
▁aba	-133
ver	-134
ord	-135
aba	-136
yi	-137
el	-138
▁eb	-139
▁re	-140
eri	-141
st	-142
dde	-143
▁shall	-144
▁yo	-145
ith	-146
oo	-147
▁ol	-148
jj	-149
ra	-150
si	-151
ati	-152
ula	-153
ce	-154
▁wh	-155
be	-156
ow	-157
ina	-158
ik	-159
sa	-160
ill	-161
▁G	-162
▁nga	-163
▁nti	-164
▁by	-165
▁are	-166
her	-167
▁Y	-168
▁not	-169
ze	-170
gi	-171
ek	-172
und	-173
▁his	-174
ta	-175
▁em	-176
▁bwe	-177
▁with	-178
onna	-179
vu	-180
▁on	-181
▁ya	-182
▁wa	-183
▁ha	-184
if	-185
oku	-186
up	-187
▁in▁the	-188
op	-189
▁y	-190
antu	-191
ola	-192
th	-193
▁sa	-194
▁Muka	-195
omu	-196
▁Mukama	-197
ny	-198
ou	-199
▁him	-200
▁W	-201
gam	-202
ob	-203
ch	-204
▁they	-205
▁Lord	-206
▁ng	-207
eb	-208
▁to▁the	-209
▁ye	-210
▁have	-211
jja	-212
ers	-213
▁an	-214
uli	-215
to	-216
iti	-217
gu	-218
▁was	-219
▁com	-220
▁J	-221
▁era	-222
ri	-223
ht	-224
▁you	-225
▁ka	-226
o▁g	-227
▁all	-228
▁bw	-229
fu	-230
▁obu	-231
banga	-232
▁it	-233
os	-234
▁Aba	-235
ange	-236
▁as	-237
od	-238
▁P	-239
ore	-240
eop	-241
▁ch	-242
▁na	-243
ation	-244
gera	-245
eople	-246
ani	-247
▁will	-248
rom	-249
gg	-250
▁up	-251
use	-252
▁the▁s	-253
▁Is	-254
onda	-255
ess	-256
▁ki	-257
uk	-258
▁Ab	-259
end	-260
▁H	-261
amu	-262
ec	-263
▁v	-264
▁mu▁m	-265
▁ga	-266
est	-267
▁st	-268
▁from	-269
▁ok	-270
isa	-271
▁and▁the	-272
ug	-273
bo	-274
kul	-275
ter	-276
▁ebi	-277
va	-278
ayo	-279
▁te	-280
▁thou	-281
oul	-282
ath	-283
▁ob	-284
ebwa	-285
▁them	-286
aw	-287
▁thy	-288
ag	-289
▁man	-290
anda	-291
ong	-292
ment	-293
atonda	-294
atu	-295
▁D	-296
ate	-297
▁olw	-298
▁mu▁b	-299
▁z	-300
iro	-301
▁my	-302
▁we	-303
▁me	-304
ff	-305
▁people	-306
ts	-307
▁am	-308
ould	-309
una	-310
ity	-311
▁Katonda	-312
▁ne▁ba	-313
▁God	-314
▁ama	-315
li	-316
▁con	-317
ud	-318
▁dis	-319
▁eri	-320
ly	-321
▁pro	-322
▁go	-323
anyi	-324
av	-325
ich	-326
ama	-327
▁r	-328
▁were	-329
ano	-330
se	-331
▁nn	-332
ang	-333
▁so	-334
▁said	-335
gamba	-336
te	-337
baka	-338
▁Awo	-339
▁whe	-340
ild	-341
▁their	-342
▁F	-343
edd	-344
ale	-345
▁eki	-346
▁the▁Lord	-347
iriza	-348
mwe	-349
ero	-350
ren	-351
▁C	-352
usa	-353
so	-354
ight	-355
▁le	-356
▁mu▁k	-357
ok	-358
▁at	-359
one	-360
▁kubanga	-361
ganda	-362
▁there	-363
ungi	-364
▁de	-365
▁sp	-366
▁ky	-367
▁U	-368
▁which	-369
▁mu▁n	-370
▁okus	-371
▁bal	-372
ast	-373
▁should	-374
ub	-375
▁out	-376
our	-377
fore	-378
▁Omu	-379
ame	-380
▁naye	-381
isi	-382
▁do	-383
la	-384
▁king	-385
ki	-386
any	-387
ted	-388
mi	-389
tr	-390
▁kya	-391
umba	-392
ood	-393
ome	-394
abwe	-395
▁day	-396
olo	-397
iv	-398
uc	-399
s▁of	-400
ulo	-401
irira	-402
▁ey	-403
yam	-404
▁za	-405
ono	-406
ake	-407
alo	-408
▁bat	-409
▁Wh	-410
anya	-411
▁this	-412
eth	-413
kola	-414
ntu	-415
bwe	-416
▁bu	-417
eeka	-418
▁un	-419
ire	-420
very	-421
ita	-422
wanga	-423
enti	-424
▁Era	-425
ise	-426
▁aga	-427
obu	-428
▁ac	-429
▁j	-430
▁buli	-431
▁child	-432
out	-433
▁eby	-434
▁er	-435
ed▁to	-436
ive	-437
▁shall▁be	-438
enda	-439
di	-440
▁Uganda	-441
▁when	-442
▁co	-443
▁one	-444
▁but	-445
ac	-446
ulu	-447
eek	-448
▁had	-449
▁ho	-450
undu	-451
ings	-452
▁wor	-453
ann	-454
▁bya	-455
▁thee	-456
ant	-457
iraeri	-458
▁abantu	-459
aas	-460
oni	-461
▁hath	-462
▁og	-463
ulira	-464
▁Abantu	-465
▁Isiraeri	-466
▁kye	-467
awo	-468
ind	-469
wala	-470
qu	-471
itundu	-472
▁into	-473
▁Na	-474
nyumba	-475
rael	-476
▁ez	-477
▁bas	-478
▁upon	-479
kumi	-480
▁Israel	-481
inga	-482
ona	-483
▁kabaka	-484
▁say	-485
ayogera	-486
ice	-487
tion	-488
▁He	-489
uda	-490
▁her	-491
res	-492
▁children	-493
▁se	-494
▁ss	-495
old	-496
red	-497
gamba▁nti	-498
ika	-499
▁your	-500
ffe	-501
▁(	-502
gambo	-503
irwa	-504
▁hear	-505
▁Th	-506
▁om	-507
▁hand	-508
▁land	-509
lem	-510
▁again	-511
kol	-512
esa	-513
▁okul	-514
uma	-515
go	-516
▁us	-517
▁off	-518
ddwa	-519
▁the▁p	-520
▁Ne	-521
▁mut	-522
biri	-523
ans	-524
ther	-525
kulu	-526
▁eky	-527
▁mul	-528
ause	-529
aka	-530
abani	-531
▁bwa	-532
wana	-533
fa	-534
bula	-535
uu	-536
ibwa	-537
▁awa	-538
▁or	-539
pp	-540
▁okuba	-541
▁the▁f	-542
zza	-543
▁gg	-544
inn	-545
▁ex	-546
▁who	-547
▁I▁will	-548
▁bye	-549
▁ku▁l	-550
ents	-551
zibwa	-552
erv	-553
▁has	-554
▁bec	-555
▁also	-556
▁bonna	-557
ana▁ba	-558
▁all▁the	-559
▁ow	-560
ather	-561
▁come	-562
ond	-563
▁kw	-564
ool	-565
▁But	-566
▁okwe	-567
ught	-568
▁okut	-569
▁Ku	-570
ck	-571
ven	-572
yin	-573
▁mu▁maas	-574
ja	-575
▁kn	-576
▁ar	-577
▁Naye	-578
ci	-579
▁house	-580
▁okutu	-581
▁Oku	-582
alt	-583
▁work	-584
▁dd	-585
intu	-586
▁br	-587
▁For	-588
ris	-589
embe	-590
ateeka	-591
▁bi	-592
▁nnyo	-593
kuba	-594
aga	-595
zim	-596
▁okuva	-597
ber	-598
emi	-599
ereza	-600
eddwa	-601
alina	-602
sel	-603
other	-604
wadde	-605
ide	-606
vern	-607
ebi	-608
enga	-609
▁okw	-610
▁before	-611
▁the▁w	-612
ass	-613
▁men	-614
▁mu▁ku	-615
▁bo	-616
▁gw	-617
sajja	-618
les	-619
ole	-620
umenti	-621
▁shalt	-622
abu	-623
on▁of	-624
abo	-625
ule	-626
▁ku▁n	-627
▁against	-628
▁En	-629
▁she	-630
▁ku▁m	-631
buga	-632
▁ens	-633
▁comm	-634
▁things	-635
▁byonna	-636
own	-637
reat	-638
▁acc	-639
▁of▁the▁Lord	-640
▁no	-641
▁over	-642
weebwa	-643
ade	-644
▁lo	-645
▁ro	-646
beera	-647
vernment	-648
oli	-649
jja▁ku	-650
▁ag	-651
▁gye	-652
wat	-653
imu	-654
ine	-655
▁enn	-656
ens	-657
▁may	-658
ful	-659
ort	-660
zzi	-661
▁Am	-662
▁our	-663
▁came	-664
▁ly	-665
ako	-666
ky	-667
▁And▁he	-668
▁tr	-669
▁Ch	-670
ous	-671
abe	-672
eki	-673
wer	-674
ime	-675
ell	-676
wal	-677
▁and▁he	-678
▁im	-679
ingi	-680
ke	-681
▁mo	-682
▁par	-683
▁because	-684
ente	-685
▁son	-686
▁coun	-687
gala	-688
ap	-689
▁Kubanga	-690
kun	-691
▁serv	-692
▁gy	-693
▁year	-694
naku	-695
ŋŋ	-696
rd	-697
▁There	-698
▁oba	-699
▁made	-700
▁government	-701
ities	-702
itu	-703
▁the▁c	-704
▁of▁Israel	-705
▁af	-706
▁What	-707
ty	-708
wan	-709
wali	-710
ono▁g	-711
unaku	-712
▁aka	-713
▁ear	-714
enj	-715
kulem	-716
▁been	-717
ations	-718
▁olu	-719
lo	-720
▁ban	-721
awe	-722
▁ndi	-723
▁balina	-724
▁every	-725
kk	-726
ll	-727
▁si	-728
kazi	-729
obola	-730
ite	-731
ect	-732
▁mu▁nsi	-733
mun	-734
▁can	-735
ene	-736
chool	-737
ifo	-738
▁mutabani	-739
ie	-740
▁omul	-741
jo	-742
▁People	-743
yinza	-744
omero	-745
▁emp	-746
▁if	-747
ign	-748
▁bre	-749
▁mu▁mu	-750
▁from▁the	-751
▁okug	-752
▁R	-753
andi	-754
▁and▁they	-755
gy	-756
ace	-757
ino	-758
▁pr	-759
▁es	-760
▁ogw	-761
iranga	-762
ulamu	-763
ulungi	-764
▁bl	-765
ase	-766
▁omus	-767
ance	-768
ayogera▁nti	-769
ish	-770
▁kwa	-771
asi	-772
▁ana	-773
ves	-774
▁eya	-775
innya	-776
pt	-777
ike	-778
▁to▁him	-779
hed	-780
ose	-781
▁know	-782
kom	-783
▁lead	-784
yig	-785
ree	-786
zo	-787
oth	-788
▁pla	-789
irembe	-790
▁ma	-791
ces	-792
▁about	-793
▁Eb	-794
ness	-795
▁lya	-796
s▁of▁the	-797
▁ebyo	-798
▁abal	-799
kka	-800
▁saith	-801
▁bali	-802
▁good	-803
▁went	-804
ensi	-805
kulembe	-806
▁end	-807
kya	-808
edde	-809
▁father	-810
igh	-811
abantu	-812
▁And▁the	-813
hold	-814
onyi	-815
▁gwe	-816
erera	-817
ence	-818
▁pl	-819
▁any	-820
▁Z	-821
▁pre	-822
orn	-823
▁lw	-824
eet	-825
ango	-826
▁res	-827
ini	-828
tric	-829
▁the▁son▁of	-830
iko	-831
▁what	-832
ife	-833
▁saying	-834
ed▁the	-835
▁to▁be	-836
kulembeze	-837
▁great	-838
itul	-839
▁bro	-840
▁school	-841
▁yali	-842
▁ne▁b	-843
ruc	-844
funa	-845
▁edd	-846
ry	-847
buka	-848
asa	-849
eeza	-850
kono▁g	-851
▁wat	-852
▁down	-853
alth	-854
▁after	-855
ust	-856
▁gu	-857
▁away	-858
of	-859
ph	-860
tain	-861
▁teb	-862
duc	-863
▁ku▁b	-864
waka	-865
ggya	-866
bala	-867
bul	-868
inis	-869
▁Mu	-870
▁abo	-871
▁ad	-872
irimu	-873
udi	-874
eta	-875
try	-876
▁Jer	-877
pa	-878
row	-879
biina	-880
awulo	-881
▁more	-882
ink	-883
▁imp	-884
▁I▁have	-885
umi	-886
s▁are	-887
▁ekyo	-888
▁wo	-889
▁for▁the	-890
aya	-891
ddu	-892
▁did	-893
▁take	-894
▁fe	-895
▁let	-896
anny	-897
▁many	-898
gezi	-899
▁mutabani▁wa	-900
▁unto	-901
▁gwa	-902
▁ali	-903
su	-904
imba	-905
▁make	-906
ld	-907
▁Mukama▁Katonda	-908
▁Yer	-909
▁kwe	-910
ants	-911
imi	-912
▁nd	-913
▁prop	-914
itulik	-915
oma	-916
▁ku▁mu	-917
itt	-918
urn	-919
itulikiti	-920
▁to▁them	-921
▁thou▁shalt	-922
uth	-923
ated	-924
iki	-925
limu	-926
▁Daw	-927
ked	-928
▁Dawudi	-929
▁nor	-930
▁obut	-931
imbi	-932
▁et	-933
▁mu▁maaso	-934
ukiri	-935
ied	-936
▁Yes	-937
▁per	-938
▁wange	-939
▁distric	-940
vi	-941
▁should▁be	-942
esus	-943
▁inc	-944
▁and▁s	-945
bona	-946
bal	-947
ayi	-948
▁time	-949
▁nze	-950
abbi	-951
yon	-952
under	-953
▁ggwe	-954
▁give	-955
▁other	-956
enge	-957
▁abat	-958
▁We	-959
▁is▁a	-960
▁two	-961
▁Be	-962
tur	-963
▁zi	-964
avid	-965
▁David	-966
▁comp	-967
led	-968
uba	-969
▁They	-970
▁muntu	-971
ungu	-972
wandi	-973
▁Jesus	-974
ach	-975
ved	-976
▁nga▁ba	-977
alem	-978
yaka	-979
▁And▁when	-980
▁bus	-981
s▁to	-982
▁of▁his	-983
▁fo	-984
▁tak	-985
emp	-986
▁del	-987
▁hast	-988
▁among	-989
▁command	-990
▁oyo	-991
▁giv	-992
taka	-993
able	-994
nyumba▁ya	-995
▁bwe▁ya	-996
ansi	-997
ip	-998
koz	-999
;▁(	-1000
arm	-1001
▁Em	-1002
▁Yesu	-1003
▁call	-1004
▁way	-1005
iver	-1006
aliwo	-1007
ing▁the	-1008
▁mun	-1009
▁wamu	-1010
ook	-1011
▁cl	-1012
▁In	-1013
▁ssente	-1014
▁under	-1015
mmwe	-1016
▁des	-1017
aku	-1018
ward	-1019
▁lwa	-1020
▁very	-1021
gera▁nti	-1022
eeta	-1023
weebwayo	-1024
▁earth	-1025
▁lu	-1026
mul	-1027
▁Some	-1028
kubadde	-1029
▁district	-1030
ither	-1031
yizi	-1032
self	-1033
▁by▁the	-1034
▁okuk	-1035
riest	-1036
ist	-1037
agamba	-1038
oney	-1039
usaal	-1040
ons	-1041
▁put	-1042
▁Le	-1043
o▁gw	-1044
▁pol	-1045
▁str	-1046
▁Ba	-1047
okus	-1048
▁mus	-1049
▁law	-1050
abanga	-1051
▁okum	-1052
▁zonna	-1053
als	-1054
▁some	-1055
▁teba	-1056
kula	-1057
▁mu▁ki	-1058
wakubadde	-1059
kuvu	-1060
▁app	-1061
uki	-1062
▁Ph	-1063
▁gav	-1064
▁word	-1065
enna	-1066
eby	-1067
gga	-1068
▁omuntu	-1069
▁ev	-1070
▁wom	-1071
woo	-1072
ing▁to	-1073
▁Mo	-1074
iga	-1075
▁nny	-1076
▁Ek	-1077
▁ans	-1078
eng	-1079
▁like	-1080
▁saith▁the▁Lord	-1081
ard	-1082
ukirivu	-1083
zik	-1084
ue	-1085
▁ak	-1086
▁the▁king	-1087
▁Gav	-1088
▁health	-1089
agala	-1090
▁Gavumenti	-1091
▁mu▁maaso▁g	-1092
▁And▁they	-1093
▁abaana▁ba	-1094
anja	-1095
ebyo	-1096
▁pass	-1097
▁lye	-1098
ggulu	-1099
▁Yuda	-1100
▁brought	-1101
▁Musa	-1102
▁whom	-1103
dda	-1104
ung	-1105
▁answer	-1106
ies	-1107
▁eat	-1108
▁As	-1109
▁gavumenti	-1110
▁a▁l	-1111
▁jud	-1112
yamba	-1113
▁mu▁kitundu	-1114
ongoo	-1115
▁Kale	-1116
▁It	-1117
ors	-1118
angu	-1119
lic	-1120
▁of▁God	-1121
▁name	-1122
▁where	-1123
▁ekit	-1124
▁So	-1125
woyo	-1126
zimba	-1127
kabaka	-1128
▁newakubadde	-1129
▁set	-1130
anj	-1131
oses	-1132
▁of▁J	-1133
▁done	-1134
▁given	-1135
ru	-1136
tud	-1137
▁place	-1138
▁see	-1139
▁forth	-1140
onya	-1141
▁own	-1142
▁offer	-1143
dom	-1144
▁ra	-1145
▁therefore	-1146
ary	-1147
▁ebya	-1148
eep	-1149
lec	-1150
for	-1151
▁kit	-1152
▁fa	-1153
▁spe	-1154
▁wak	-1155
ure	-1156
▁wr	-1157
atuuka	-1158
irus	-1159
▁dest	-1160
▁obwa	-1161
usalem	-1162
▁Jerusalem	-1163
anvu	-1164
irst	-1165
ammwe	-1166
zebwa	-1167
▁spok	-1168
▁abamu	-1169
▁need	-1170
▁is▁the	-1171
▁mwe	-1172
▁nate	-1173
▁being	-1174
ufu	-1175
▁bwe▁ba	-1176
▁on▁the	-1177
usaalemi	-1178
▁money	-1179
▁Ol	-1180
▁and▁to	-1181
ying	-1182
▁commun	-1183
▁Yerusaalemi	-1184
weereza	-1185
▁mu▁maaso▁ga	-1186
▁shall▁not	-1187
▁dr	-1188
oliisi	-1189
▁new	-1190
alaba	-1191
▁Chris	-1192
▁bangi	-1193
low	-1194
▁cons	-1195
eranga	-1196
▁ku▁lunaku	-1197
▁abas	-1198
▁ennaku	-1199
▁out▁of▁the	-1200
usi	-1201
▁po	-1202
▁pres	-1203
ally	-1204
irungi	-1205
▁said▁to	-1206
▁that▁he	-1207
are	-1208
waliro	-1209
▁obw	-1210
▁prov	-1211
vubuka	-1212
abi	-1213
tim	-1214
s▁and	-1215
▁ensi	-1216
tuukirivu	-1217
amp	-1218
ŋŋa	-1219
zanga	-1220
ggwanga	-1221
aught	-1222
▁laba	-1223
▁kale	-1224
▁.	-1225
isiri	-1226
▁accord	-1227
▁Te	-1228
enzi	-1229
▁How	-1230
gether	-1231
yita	-1232
▁into▁the	-1233
irina	-1234
kan	-1235
itiibwa	-1236
▁wakati	-1237
no	-1238
osp	-1239
zaala	-1240
uta	-1241
▁If	-1242
▁water	-1243
onga	-1244
▁omwana	-1245
▁I▁am	-1246
▁Whe	-1247
▁rece	-1248
iridde	-1249
ep	-1250
obo	-1251
▁now	-1252
wata	-1253
▁than	-1254
▁car	-1255
▁okuku	-1256
▁Abal	-1257
▁head	-1258
▁Mukama▁n	-1259
iness	-1260
▁thereof	-1261
tima	-1262
fi	-1263
▁The▁government	-1264
▁Moses	-1265
enya	-1266
▁lwe	-1267
▁days	-1268
eekeddwa	-1269
▁country	-1270
wend	-1271
ed▁in	-1272
genda	-1273
omesa	-1274
bye	-1275
▁ekya	-1276
▁obulungi	-1277
▁rep	-1278
lp	-1279
▁high	-1280
ed▁with	-1281
▁sin	-1282
▁yee	-1283
▁okukola	-1284
ony	-1285
▁disitulikiti	-1286
▁qu	-1287
▁heav	-1288
▁will▁be	-1289
Aba	-1290
ume	-1291
▁mar	-1292
mere	-1293
oug	-1294
▁waffe	-1295
▁and▁his	-1296
▁leaders	-1297
▁sc	-1298
kungu	-1299
gira	-1300
ving	-1301
anc	-1302
cle	-1303
fer	-1304
ggye	-1305
▁dwe	-1306
alira	-1307
▁sent	-1308
▁sup	-1309
▁Obu	-1310
▁hund	-1311
ile	-1312
▁exp	-1313
wulira	-1314
▁that▁is	-1315
▁cont	-1316
▁of▁E	-1317
▁heart	-1318
▁hundred	-1319
▁mu▁Uganda	-1320
▁gl	-1321
▁kyo	-1322
erwa	-1323
oin	-1324
▁speak	-1325
ugh	-1326
▁bring	-1327
iseera	-1328
art	-1329
▁gya	-1330
▁nna	-1331
▁mmwe	-1332
bira	-1333
outh	-1334
wuka	-1335
▁su	-1336
ites	-1337
udo	-1338
▁bet	-1339
▁help	-1340
bon	-1341
struc	-1342
▁okutuusa	-1343
▁ne▁bamu	-1344
enny	-1345
▁Jo	-1346
esebwa	-1347
ed▁him	-1348
▁and▁f	-1349
fe	-1350
▁deliver	-1351
enyi	-1352
▁ddala	-1353
ddamu	-1354
▁pe	-1355
▁destro	-1356
age	-1357
▁bak	-1358
ongole	-1359
ia	-1360
tiv	-1361
me	-1362
▁city	-1363
ese	-1364
▁ebintu	-1365
▁ne▁bat	-1366
acher	-1367
▁prophe	-1368
vel	-1369
s▁in	-1370
▁heard	-1371
esi	-1372
oozi	-1373
▁these	-1374
kkiriza	-1375
▁ze	-1376
turn	-1377
▁another	-1378
▁kita	-1379
▁ery	-1380
▁op	-1381
▁mu▁kifo	-1382
kyala	-1383
▁okuwa	-1384
▁destroy	-1385
▁life	-1386
ici	-1387
kam	-1388
▁cor	-1389
▁ekigambo	-1390
emb	-1391
yim	-1392
▁nange	-1393
tudents	-1394
kubo	-1395
tend	-1396
abal	-1397
tege	-1398
zadde	-1399
▁mu▁gg	-1400
▁li	-1401
wul	-1402
▁Sa	-1403
kozi	-1404
▁thou▁hast	-1405
▁awo	-1406
amaanyi	-1407
▁zaabwe	-1408
alu	-1409
ates	-1410
ilt	-1411
ambula	-1412
▁Ebi	-1413
anyizibwa	-1414
ew	-1415
▁wansi	-1416
awa	-1417
oka	-1418
uni	-1419
▁Laba	-1420
▁tri	-1421
ospit	-1422
▁waggulu	-1423
▁beg	-1424
▁peace	-1425
▁ebigambo	-1426
▁Bab	-1427
rough	-1428
▁tre	-1429
▁abaana	-1430
▁with▁the	-1431
▁mon	-1432
bibwa	-1433
waawo	-1434
▁byabwe	-1435
▁ns	-1436
▁supp	-1437
▁erinnya	-1438
jjo	-1439
ing▁to▁the	-1440
▁rest	-1441
▁nga▁t	-1442
▁Misiri	-1443
▁Christ	-1444
▁mu▁mukono▁g	-1445
▁num	-1446
▁evil	-1447
ical	-1448
▁enj	-1449
ble	-1450
iru	-1451
▁char	-1452
▁omuk	-1453
▁Bwe	-1454
vanny	-1455
▁Thou	-1456
▁kyonna	-1457
▁pos	-1458
▁found	-1459
▁daught	-1460
vannyuma	-1461
▁Om	-1462
amil	-1463
▁eyo	-1464
tle	-1465
▁Ye	-1466
▁Who	-1467
▁liv	-1468
▁ennyo	-1469
▁return	-1470
▁together	-1471
▁Bw	-1472
ude	-1473
ices	-1474
▁upon▁the	-1475
ys	-1476
ousand	-1477
▁abali	-1478
ne	-1479
ganya	-1480
▁minis	-1481
abaana▁ba	-1482
▁thousand	-1483
▁aff	-1484
▁might	-1485
kozesa	-1486
▁right	-1487
form	-1488
zima	-1489
▁judg	-1490
▁wee	-1491
▁years	-1492
▁that▁are	-1493
▁community	-1494
pe	-1495
▁moun	-1496
gypt	-1497
▁gro	-1498
▁bul	-1499
▁mu▁l	-1500
▁kino	-1501
▁baabwe	-1502
ases	-1503
▁Buli	-1504
▁kill	-1505
▁without	-1506
mala	-1507
▁get	-1508
▁through	-1509
▁of▁a	-1510
futa	-1511
damu	-1512
▁yonna	-1513
amb	-1514
ory	-1515
▁called	-1516
irag	-1517
selves	-1518
oloko	-1519
ata	-1520
▁obus	-1521
oboozi	-1522
taano	-1523
▁number	-1524
▁tu	-1525
▁muka	-1526
▁would	-1527
ayogera▁Mukama	-1528
gul	-1529
▁Now	-1530
▁mu▁bi	-1531
▁even	-1532
boo	-1533
gula	-1534
ress	-1535
akano	-1536
ayimu	-1537
▁taken	-1538
▁Abakulembeze	-1539
▁tw	-1540
▁how	-1541
▁vo	-1542
▁to▁me	-1543
pi	-1544
guzi	-1545
▁buli▁muntu	-1546
irit	-1547
▁three	-1548
▁business	-1549
fum	-1550
hes	-1551
ower	-1552
▁okun	-1553
ukira	-1554
▁death	-1555
risto	-1556
ft	-1557
adi	-1558
okul	-1559
co	-1560
zann	-1561
▁dep	-1562
▁dise	-1563
thren	-1564
▁cast	-1565
▁arm	-1566
▁emyaka	-1567
itongole	-1568
saayi	-1569
▁that▁were	-1570
ick	-1571
etaaga	-1572
▁youth	-1573
▁mother	-1574
▁ess	-1575
ments	-1576
▁Kristo	-1577
▁and▁I▁will	-1578
▁fund	-1579
▁and▁a	-1580
▁baali	-1581
▁brethren	-1582
▁enny	-1583
▁proj	-1584
▁for▁a	-1585
▁nga▁b	-1586
▁ind	-1587
▁muna	-1588
▁that▁they	-1589
▁heaven	-1590
▁hospit	-1591
cr	-1592
olu	-1593
▁ezi	-1594
▁educ	-1595
▁priest	-1596
▁ebis	-1597
▁keep	-1598
budamu	-1599
▁yenna	-1600
cy	-1601
cip	-1602
oly	-1603
▁bee	-1604
omuntu	-1605
▁of▁thy	-1606
yoke	-1607
▁conf	-1608
abula	-1609
▁Behold	-1610
▁obulamu	-1611
uganda	-1612
ever	-1613
▁turn	-1614
▁have▁been	-1615
▁in▁Uganda	-1616
jek	-1617
ikol	-1618
▁okumu	-1619
zu	-1620
gwa	-1621
ised	-1622
yoka	-1623
jekiti	-1624
kwe	-1625
unda	-1626
▁She	-1627
▁at▁the	-1628
▁abasajja	-1629
sawo	-1630
ollow	-1631
▁elec	-1632
▁kabaka▁w	-1633
wu	-1634
anye	-1635
▁kabona	-1636
▁construc	-1637
ines	-1638
urch	-1639
▁old	-1640
anoonyi	-1641
▁you▁shall	-1642
▁in▁a	-1643
ning	-1644
▁Waliwo	-1645
▁mid	-1646
omu▁n	-1647
▁incre	-1648
ed▁them	-1649
▁muli	-1650
▁the▁word	-1651
▁said▁to▁him	-1652
▁to▁the▁Lord	-1653
atyo	-1654
▁okutuuka	-1655
▁eg	-1656
armers	-1657
uno	-1658
▁la	-1659
▁leero	-1660
▁in▁his	-1661
▁to▁thee	-1662
wati	-1663
▁kus	-1664
▁temu	-1665
avu	-1666
▁kaakano	-1667
sion	-1668
▁wal	-1669
▁temp	-1670
oberera	-1671
▁impro	-1672
amugamba▁nti	-1673
▁Al	-1674
▁Then	-1675
▁took	-1676
▁month	-1677
▁ne▁mu	-1678
▁All	-1679
▁bana	-1680
oyo	-1681
buzi	-1682
gere	-1683
▁obul	-1684
akul	-1685
▁Ama	-1686
▁well	-1687
▁blood	-1688
▁nabo	-1689
ct	-1690
ture	-1691
▁saw	-1692
▁bab	-1693
ition	-1694
▁of▁them	-1695
▁okwa	-1696
obut	-1697
berye	-1698
▁amaas	-1699
▁ent	-1700
▁ogu	-1701
boobu	-1702
ozi	-1703
ried	-1704
icked	-1705
▁thing	-1706
▁behold	-1707
▁he▁had	-1708
▁emirimu	-1709
ken	-1710
inza	-1711
▁ku▁k	-1712
ulojekiti	-1713
boobubudamu	-1714
▁My	-1715
ereberye	-1716
▁eng	-1717
▁spoke	-1718
▁neither	-1719
▁Abantu▁ba	-1720
mba	-1721
bulamu	-1722
buto	-1723
▁kul	-1724
▁trans	-1725
atta	-1726
▁dur	-1727
anyisa	-1728
▁hands	-1729
ami	-1730
ric	-1731
▁mba	-1732
▁most	-1733
▁to▁you	-1734
ias	-1735
▁dec	-1736
▁fire	-1737
ed▁for	-1738
agamba▁nti	-1739
▁Dis	-1740
▁alina	-1741
gal	-1742
zin	-1743
vuna	-1744
▁ebit	-1745
▁gave	-1746
kolebwa	-1747
enjawulo	-1748
▁batabani	-1749
tit	-1750
▁egy	-1751
guudo	-1752
kadde	-1753
▁as▁a	-1754
▁police	-1755
▁sec	-1756
▁ssa	-1757
alibwa	-1758
ting	-1759
yogera	-1760
gay	-1761
wang	-1762
▁its	-1763
▁of▁S	-1764
abaana	-1765
▁bange	-1766
ected	-1767
omus	-1768
ruit	-1769
▁eyes	-1770
lie	-1771
tar	-1772
▁Why	-1773
▁stand	-1774
▁and▁all	-1775
aying	-1776
baga	-1777
enty	-1778
obul	-1779
▁eff	-1780
abira	-1781
▁cle	-1782
▁okwo	-1783
ulooni	-1784
▁brother	-1785
▁of▁Juda	-1786
akola	-1787
▁of▁their	-1788
iragiro	-1789
▁amagezi	-1790
▁adv	-1791
▁omulimu	-1792
▁ta	-1793
▁You	-1794
wooza	-1795
▁awamu	-1796
yongera	-1797
▁which▁is	-1798
▁And▁the▁Lord	-1799
day	-1800
▁live	-1801
▁gold	-1802
yingira	-1803
buu	-1804
▁came▁to	-1805
▁ge	-1806
▁Isa	-1807
faan	-1808
kana	-1809
▁women	-1810
▁need▁to	-1811
▁and▁shall	-1812
▁inv	-1813
▁yet	-1814
▁era▁n	-1815
erve	-1816
fuge	-1817
kuŋŋa	-1818
▁resp	-1819
asomero	-1820
tif	-1821
▁tewali	-1822
mwa	-1823
▁first	-1824
▁midst	-1825
▁okubeera	-1826
▁students	-1827
ulwa	-1828
onoona	-1829
▁kkumi	-1830
▁ogwa	-1831
▁it▁is	-1832
▁naawe	-1833
aza	-1834
teg	-1835
onye	-1836
alawo	-1837
ished	-1838
▁sacr	-1839
▁Ne▁ba	-1840
▁bulungi	-1841
onde	-1842
▁back	-1843
cess	-1844
undi	-1845
▁inf	-1846
▁mw	-1847
▁voice	-1848
uku	-1849
▁use	-1850
velop	-1851
▁ne▁bas	-1852
cer	-1853
eme	-1854
igo	-1855
ner	-1856
▁meet	-1857
▁only	-1858
▁requ	-1859
buulira	-1860
fuga	-1861
▁ass	-1862
read	-1863
yambi	-1864
▁much	-1865
▁okub	-1866
kolera	-1867
▁bwabwe	-1868
▁multit	-1869
ooka	-1870
yamb	-1871
▁tra	-1872
▁cour	-1873
▁road	-1874
▁and▁there	-1875
eld	-1876
udde	-1877
▁ne▁n	-1878
▁sacrif	-1879
▁develop	-1880
angi	-1881
tice	-1882
eggye	-1883
▁bann	-1884
▁ever	-1885
onav	-1886
word	-1887
wards	-1888
▁thir	-1889
onavirus	-1890
▁kut	-1891
▁follow	-1892
▁kitaawe	-1893
fun	-1894
▁part	-1895
agenda	-1896
▁in▁their	-1897
▁ful	-1898
▁emis	-1899
abye	-1900
▁byo	-1901
▁wife	-1902
wee	-1903
omul	-1904
asula	-1905
▁pers	-1906
po	-1907
kyo	-1908
▁Yo	-1909
uuyi	-1910
▁zaabu	-1911
▁Go	-1912
▁art	-1913
gaana	-1914
udaaya	-1915
▁fight	-1916
ittle	-1917
▁Abas	-1918
▁the▁se	-1919
▁nga▁bwe	-1920
zibu	-1921
▁Aka	-1922
▁eza	-1923
▁mat	-1924
kebwa	-1925
ava	-1926
manyi	-1927
fugees	-1928
▁that▁I	-1929
ya▁n	-1930
ased	-1931
▁bir	-1932
▁rem	-1933
▁burn	-1934
til	-1935
ed▁by	-1936
mbula	-1937
▁Saul	-1938
▁build	-1939
▁omukisa	-1940
▁children▁of	-1941
amba	-1942
▁dead	-1943
irizibwa	-1944
▁he▁shall	-1945
▁okusinga	-1946
▁with▁him	-1947
▁The▁district	-1948
ins	-1949
▁This	-1950
▁fear	-1951
▁Sawulo	-1952
obola▁oku	-1953
▁obubi	-1954
▁Se	-1955
▁It▁is	-1956
usozi	-1957
▁famil	-1958
▁amazzi	-1959
▁face	-1960
▁servants	-1961
baawo	-1962
▁tab	-1963
▁both	-1964
▁ebiri	-1965
▁mu▁dd	-1966
▁omukulu	-1967
▁Mukama▁waffe	-1968
▁wabula	-1969
zikiriza	-1970
abit	-1971
▁gir	-1972
▁church	-1973
▁he▁hath	-1974
▁jus	-1975
▁ebir	-1976
▁vill	-1977
▁ensimbi	-1978
ikibwa	-1979
▁activ	-1980
▁:	-1981
lain	-1982
▁Sam	-1983
gaano	-1984
▁prom	-1985
▁Ki	-1986
fuzi	-1987
▁org	-1988
badde	-1989
teeka	-1990
tions	-1991
▁host	-1992
▁altar	-1993
▁dwell	-1994
kono	-1995
yonjo	-1996
▁bread	-1997
▁those	-1998
ennyumba	-1999
▁and▁said	-2000
koo	-2001
▁To	-2002
ajja	-2003
lesh	-2004
▁kind	-2005
▁vide	-2006
▁amateeka	-2007
▁mas	-2008
▁olwatuuka	-2009
▁oluvannyuma	-2010
ects	-2011
▁kol	-2012
ember	-2013
▁Si	-2014
▁mu▁ka	-2015
▁ekis	-2016
kanisa	-2017
eekateeka	-2018
▁ennyumba	-2019
▁When	-2020
▁of▁my	-2021
amateeka	-2022
▁ke	-2023
▁he▁was	-2024
▁Let	-2025
▁kiri	-2026
▁then	-2027
▁yange	-2028
ss	-2029
eny	-2030
ident	-2031
▁you▁have	-2032
kiiko	-2033
▁left	-2034
kabona	-2035
▁ku▁ba	-2036
▁nations	-2037
▁wa▁Isiraeri	-2038
▁gr	-2039
ways	-2040
▁poss	-2041
▁bwe▁y	-2042
▁fathers	-2043
▁servant	-2044
▁multitude	-2045
▁mu▁nnyumba	-2046
nya	-2047
▁inter	-2048
▁abalala	-2049
▁erina	-2050
▁emirembe	-2051
ten	-2052
▁ter	-2053
▁open	-2054
▁answered	-2055
▁med	-2056
▁and▁their	-2057
ane	-2058
ima	-2059
▁sle	-2060
▁area	-2061
wulire	-2062
yagala	-2063
ongoofu	-2064
unu	-2065
▁dif	-2066
▁gra	-2067
alamu	-2068
▁Yako	-2069
▁fall	-2070
okwe	-2071
▁grow	-2072
▁must	-2073
▁drink	-2074
oc	-2075
▁soul	-2076
ereddwa	-2077
wuka▁ka	-2078
▁abaali	-2079
▁bulijjo	-2080
▁himself	-2081
abagamba▁nti	-2082
▁poor	-2083
▁glory	-2084
▁night	-2085
kulaakul	-2086
▁vi	-2087
ulema	-2088
▁biri	-2089
▁mouth	-2090
▁fl	-2091
waayo	-2092
▁ente	-2093
yammwe	-2094
▁belie	-2095
ara	-2096
▁bur	-2097
▁mer	-2098
river	-2099
endiga	-2100
▁gaabwe	-2101
▁activities	-2102
kuuma	-2103
ebintu	-2104
olokoka	-2105
▁Abayizi	-2106
abb	-2107
▁bit	-2108
▁emik	-2109
▁a▁man	-2110
ib	-2111
▁die	-2112
awanga	-2113
▁receiv	-2114
▁education	-2115
▁ekitiibwa	-2116
ener	-2117
▁ekiweebwayo	-2118
iqu	-2119
less	-2120
▁Eri	-2121
▁fac	-2122
▁long	-2123
▁pray	-2124
zinensi	-2125
▁of▁Egypt	-2126
▁Many	-2127
▁four	-2128
▁eri▁Mukama	-2129
fit	-2130
▁bless	-2131
▁cities	-2132
ket	-2133
ende	-2134
ely	-2135
hip	-2136
ief	-2137
ifa	-2138
unya	-2139
▁just	-2140
gwe	-2141
ote	-2142
▁cer	-2143
kwata	-2144
▁Yakobo	-2145
okut	-2146
▁faith	-2147
▁nation	-2148
man	-2149
jjanj	-2150
wanyisa	-2151
▁a▁s	-2152
jjajja	-2153
▁seven	-2154
▁may▁be	-2155
emirembe	-2156
uses	-2157
▁Dawudi▁n	-2158
▁balina▁oku	-2159
cour	-2160
▁sons	-2161
▁kolona	-2162
▁ssomero	-2163
▁side	-2164
▁enter	-2165
▁wicked	-2166
▁that▁the	-2167
tri	-2168
▁bes	-2169
▁pur	-2170
ought	-2171
▁having	-2172
▁it▁was	-2173
▁and▁thy	-2174
▁project	-2175
fulu	-2176
goba	-2177
rest	-2178
▁And▁I	-2179
▁Awo▁olwatuuka	-2180
▁amaanyi	-2181
▁holy	-2182
▁Abaana	-2183
▁poliisi	-2184
▁hospital	-2185
iris	-2186
▁dev	-2187
▁Thus	-2188
yigiri	-2189
▁mu▁ng	-2190
▁batabani▁ba	-2191
▁Disitulikiti	-2192
▁bwo	-2193
ility	-2194
▁okuw	-2195
▁viol	-2196
andika	-2197
zannyo	-2198
▁muganda	-2199
az	-2200
▁young	-2201
wendo▁gw	-2202
▁bod	-2203
▁ord	-2204
▁abiri	-2205
enye	-2206
gana	-2207
iron	-2208
inces	-2209
ulina	-2210
▁ttaka	-2211
▁Abalimi	-2212
▁okugenda	-2213
▁Therefore	-2214
iba	-2215
▁love	-2216
▁omut	-2217
▁always	-2218
ute	-2219
▁mwa	-2220
▁ku▁ns	-2221
get	-2222
▁Ma	-2223
itala	-2224
atuula	-2225
▁Minis	-2226
amawanga	-2227
▁the▁son	-2228
▁commanded	-2229
ety	-2230
▁pay	-2231
▁soci	-2232
▁mu▁ba	-2233
▁reign	-2234
▁Omuntu	-2235
▁temple	-2236
▁omusajja	-2237
▁Alo	-2238
ision	-2239
toolo	-2240
▁That	-2241
▁round	-2242
▁Poliisi	-2243
vunaanyizibwa	-2244
reng	-2245
▁cap	-2246
ublic	-2247
▁emm	-2248
▁tal	-2249
▁ddyo	-2250
▁to▁s	-2251
▁lunaku	-2252
▁nammwe	-2253
▁and▁all▁the	-2254
ack	-2255
yanga	-2256
▁look	-2257
▁is▁not	-2258
▁eggwanga	-2259
▁the▁priest	-2260
gr	-2261
ave	-2262
uwa	-2263
▁twenty	-2264
▁teacher	-2265
▁services	-2266
oogera▁nti	-2267
▁nt	-2268
▁twe	-2269
▁tebalina	-2270
▁Eki	-2271
o▁gwa	-2272
waabu	-2273
▁army	-2274
bufuzi	-2275
▁Every	-2276
▁words	-2277
▁Alooni	-2278
▁mu▁kibuga	-2279
ls	-2280
rop	-2281
▁Ad	-2282
▁ffe	-2283
▁gam	-2284
tukuvu	-2285
▁bantu	-2286
▁woman	-2287
▁receive	-2288
vudde	-2289
bonero	-2290
▁mu▁by	-2291
▁emmere	-2292
edi	-2293
pya	-2294
▁nnyingi	-2295
▁kya▁Mukama	-2296
eevi	-2297
eewo	-2298
▁muga	-2299
▁differ	-2300
▁out▁of	-2301
ed▁in▁the	-2302
▁omusango	-2303
▁loc	-2304
isink	-2305
▁hard	-2306
▁offic	-2307
▁beetaaga	-2308
▁mountain	-2309
▁coronavirus	-2310
erna	-2311
▁cut	-2312
▁opp	-2313
▁died	-2314
▁and▁I	-2315
sy	-2316
lon	-2317
ween	-2318
isira	-2319
irirwa	-2320
▁power	-2321
▁kingdom	-2322
▁taberna	-2323
aron	-2324
▁okusi	-2325
▁ekitundu	-2326
ca	-2327
abas	-2328
▁Bann	-2329
▁want	-2330
▁mu▁bu	-2331
▁world	-2332
ump	-2333
irizi	-2334
▁care	-2335
▁iniqu	-2336
▁trees	-2337
▁between	-2338
▁There▁are	-2339
▁pra	-2340
▁arrest	-2341
alwaliro	-2342
▁ennungi	-2343
aliya	-2344
▁five	-2345
kolwa	-2346
▁daughter	-2347
du	-2348
kwa	-2349
amazzi	-2350
asu	-2351
oba	-2352
o▁n	-2353
ield	-2354
▁kir	-2355
saasa	-2356
▁Juda	-2357
▁Most	-2358
▁improve	-2359
aniz	-2360
▁gat	-2361
ikira	-2362
kozesebwa	-2363
▁pulojekiti	-2364
▁the▁people	-2365
eky	-2366
ret	-2367
orts	-2368
▁flesh	-2369
▁ne▁bal	-2370
▁okufuna	-2371
ars	-2372
▁bord	-2373
▁sanc	-2374
▁built	-2375
▁do▁not	-2376
▁mp	-2377
ough	-2378
▁walk	-2379
▁gener	-2380
alagira	-2381
▁lear	-2382
▁seen	-2383
▁he▁that	-2384
▁fin	-2385
dduka	-2386
wn	-2387
kiika	-2388
komer	-2389
▁and▁S	-2390
▁all▁things	-2391
wuka▁ka▁kolona	-2392
uubi	-2393
▁enga	-2394
▁find	-2395
▁last	-2396
e▁Misiri	-2397
▁underst	-2398
▁judgment	-2399
▁olwa	-2400
▁regi	-2401
▁Where	-2402
tegeera	-2403
▁mukama	-2404
▁they▁were	-2405
▁Ar	-2406
band	-2407
okubiri	-2408
▁shall▁come	-2409
▁don	-2410
▁rel	-2411
▁gyonna	-2412
▁Thou▁shalt	-2413
ged	-2414
▁Ss	-2415
▁div	-2416
▁ten	-2417
alala	-2418
▁Phil	-2419
▁ekir	-2420
▁be▁ba	-2421
▁until	-2422
▁amakumi	-2423
▁they▁have	-2424
hing	-2425
ious	-2426
vent	-2427
▁lif	-2428
▁lyo	-2429
orrow	-2430
angira	-2431
isibwa	-2432
igiriza	-2433
yudaaya	-2434
▁schools	-2435
▁development	-2436
▁pa	-2437
▁Man	-2438
▁gwo	-2439
▁sight	-2440
▁and▁in	-2441
▁become	-2442
ito	-2443
tive	-2444
▁dda	-2445
▁emiti	-2446
inja	-2447
ually	-2448
yigira	-2449
▁light	-2450
▁streng	-2451
▁abasinga	-2452
▁mu▁bantu	-2453
ubereberye	-2454
▁Abavubuka	-2455
▁ku▁lunaku▁olw	-2456
bas	-2457
▁Yesu▁n	-2458
▁omw	-2459
fuula	-2460
abeera	-2461
▁going	-2462
▁And▁I▁will	-2463
▁mis	-2464
ister	-2465
▁gumu	-2466
ongera	-2467
▁Aaron	-2468
▁omwoyo	-2469
yama	-2470
▁cat	-2471
▁hus	-2472
▁stood	-2473
kira	-2474
o▁gy	-2475
▁env	-2476
▁gar	-2477
ilver	-2478
▁and▁of	-2479
▁Af	-2480
yika	-2481
▁nno	-2482
▁ple	-2483
▁six	-2484
▁tes	-2485
▁food	-2486
▁to▁his	-2487
▁omukazi	-2488
▁sons▁of	-2489
▁and▁will	-2490
fo	-2491
azi	-2492
▁hold	-2493
▁whole	-2494
obulamu	-2495
▁better	-2496
▁refugees	-2497
▁every▁one	-2498
ham	-2499
▁eno	-2500
▁sti	-2501
gagga	-2502
▁bene	-2503
▁cover	-2504
▁they▁shall	-2505
▁cr	-2506
▁form	-2507
▁seed	-2508
▁Sulema	-2509
▁discip	-2510
▁in▁the▁midst	-2511
urity	-2512
yambalo	-2513
▁proper	-2514
▁are▁the	-2515
▁justice	-2516
▁Sulemaani	-2517
▁tabernacle	-2518
▁themselves	-2519
eru	-2520
arted	-2521
▁able	-2522
addamu	-2523
▁import	-2524
▁spoken	-2525
▁Re	-2526
olom	-2527
▁read	-2528
bwanga	-2529
▁These	-2530
▁coven	-2531
kus	-2532
▁ff	-2533
taag	-2534
tural	-2535
▁best	-2536
ointed	-2537
▁number▁of	-2538
▁mu▁ggwanga	-2539
▁sk	-2540
akyo	-2541
uuti	-2542
▁def	-2543
▁war	-2544
▁appe	-2545
▁covenant	-2546
ams	-2547
amin	-2548
koze	-2549
▁Pol	-2550
▁mak	-2551
▁sub	-2552
▁bajja▁ku	-2553
▁col	-2554
▁cur	-2555
▁ris	-2556
▁till	-2557
fuluma	-2558
▁thy▁God	-2559
▁has▁been	-2560
de	-2561
ayim	-2562
buul	-2563
▁tek	-2564
▁twa	-2565
▁cent	-2566
▁provide	-2567
▁the▁sons▁of	-2568
▁said▁to▁them	-2569
orr	-2570
▁ani	-2571
▁god	-2572
▁Baby	-2573
ulibwa	-2574
▁ebimu	-2575
▁ku▁ki	-2576
▁while	-2577
essomero	-2578
ones	-2579
weru	-2580
ifaan	-2581
ikiriza	-2582
yigiriza	-2583
▁and▁the▁s	-2584
▁round▁about	-2585
▁V	-2586
iny	-2587
per	-2588
▁ce	-2589
ongo	-2590
▁abe	-2591
▁Babylon	-2592
▁husband	-2593
▁different	-2594
igg	-2595
itten	-2596
kanya	-2597
▁in▁thy	-2598
▁Abazadde	-2599
▁bakabona	-2600
▁Ben	-2601
▁ange	-2602
▁fore	-2603
agi	-2604
gom	-2605
indo	-2606
ired	-2607
kera	-2608
▁est	-2609
▁kimu	-2610
▁funds	-2611
ekitundu	-2612
▁organiz	-2613
▁wansi▁w	-2614
▁There▁is	-2615
▁bonna▁aba	-2616
▁Gavumenti▁e	-2617
gedde	-2618
▁areas	-2619
▁gonna	-2620
▁okufa	-2621
▁mu▁nnyumba▁ya	-2622
▁wit	-2623
▁omwo	-2624
▁Babulooni	-2625
▁cha	-2626
▁tax	-2627
firis	-2628
▁dece	-2629
▁ne▁K	-2630
▁told	-2631
▁Father	-2632
▁Jew	-2633
▁eye	-2634
ricul	-2635
yinja	-2636
▁dwel	-2637
▁lack	-2638
▁in▁my	-2639
▁and▁be	-2640
▁living	-2641
firisuuti	-2642
▁eddoboozi	-2643
▁butuukirivu	-2644
▁id	-2645
taba	-2646
▁rec	-2647
atege	-2648
▁enda	-2649
▁home	-2650
▁bbiri	-2651
goberera	-2652
gn	-2653
kugu	-2654
wa▁n	-2655
▁rema	-2656
ererwa	-2657
▁hosts	-2658
ication	-2659
irwadde	-2660
▁with▁a	-2661
▁mu▁disitulikiti	-2662
ling	-2663
▁chief	-2664
▁neigh	-2665
watibwa	-2666
▁abayizi	-2667
aki	-2668
hen	-2669
ffer	-2670
okka	-2671
kubiri	-2672
▁The▁Lord	-2673
▁for▁their	-2674
▁construction	-2675
hel	-2676
imo	-2677
mula	-2678
tiimu	-2679
▁mwaka	-2680
es▁of	-2681
habit	-2682
ised▁to	-2683
▁during	-2684
▁spirit	-2685
xt	-2686
emu	-2687
ert	-2688
omo	-2689
▁gate	-2690
▁mana	-2691
▁cause	-2692
▁could	-2693
▁as▁the	-2694
▁bwange	-2695
▁encour	-2696
▁omuddu	-2697
▁ekibiina	-2698
▁that▁you	-2699
▁oluvannyuma▁lw	-2700
alf	-2701
▁lay	-2702
anira	-2703
▁Fala	-2704
▁bingi	-2705
▁clean	-2706
▁ekisa	-2707
▁bwonna	-2708
▁concer	-2709
▁region	-2710
▁mu▁kkubo	-2711
▁bateekeddwa	-2712
▁nj	-2713
gulumi	-2714
orning	-2715
ukiiko	-2716
▁little	-2717
▁public	-2718
▁written	-2719
amala	-2720
▁laid	-2721
owooza	-2722
yigiriz	-2723
▁the▁pr	-2724
▁and▁let	-2725
ron	-2726
▁ca	-2727
yong	-2728
ulanga	-2729
▁support	-2730
▁sacrifice	-2731
▁Ach	-2732
▁bis	-2733
kambwe	-2734
eekebwa	-2735
▁lyange	-2736
▁omukono▁g	-2737
abl	-2738
ion	-2739
▁Par	-2740
▁yas	-2741
otoka	-2742
olomon	-2743
omu▁nsi	-2744
komerero	-2745
yimirira	-2746
▁Falaawo	-2747
▁disease	-2748
anna	-2749
asts	-2750
dduk	-2751
maze	-2752
wezi	-2753
▁lab	-2754
▁tim	-2755
▁kuba	-2756
▁pati	-2757
▁prot	-2758
▁wamu▁n	-2759
▁and▁have	-2760
▁of▁hosts	-2761
▁that▁thou	-2762
▁in▁the▁land	-2763
anyu	-2764
o▁ge	-2765
sozi	-2766
fudde	-2767
▁musanvu	-2768
▁the▁God	-2769
yigirizwa	-2770
▁and▁thou▁shalt	-2771
ily	-2772
▁kwo	-2773
▁body	-2774
▁emir	-2775
▁morning	-2776
▁mu▁ggulu	-2777
kiika▁obwa	-2778
▁the▁first	-2779
ota	-2780
▁Do	-2781
ceed	-2782
gazi	-2783
gend	-2784
ikola	-2785
ledge	-2786
▁fill	-2787
▁ebibi	-2788
▁ku▁ku	-2789
▁places	-2790
▁Philist	-2791
its	-2792
waza	-2793
taaga	-2794
▁fell	-2795
▁diseases	-2796
zid	-2797
acob	-2798
yaga	-2799
▁equ	-2800
▁the▁sp	-2801
ennyanja	-2802
▁towards	-2803
ger	-2804
tic	-2805
▁bar	-2806
▁bano	-2807
kumi▁n	-2808
zidenti	-2809
cum	-2810
gerera	-2811
▁cases	-2812
▁polit	-2813
▁Farmers	-2814
▁sm	-2815
ekyo	-2816
emis	-2817
kuum	-2818
lock	-2819
▁tut	-2820
▁He▁was	-2821
▁ennyumba▁ya	-2822
ult	-2823
▁oli	-2824
ddaaka	-2825
▁court	-2826
▁inhabit	-2827
▁daughters	-2828
ides	-2829
▁baa	-2830
abaka	-2831
oloca	-2832
▁lord	-2833
▁kintu	-2834
▁order	-2835
▁establ	-2836
▁ku▁nsi	-2837
▁are▁not	-2838
ulezidenti	-2839
ks	-2840
oun	-2841
eter	-2842
onsi	-2843
▁Ani	-2844
▁Lev	-2845
ament	-2846
ing▁a	-2847
▁seek	-2848
soever	-2849
▁holoca	-2850
▁ebirungi	-2851
▁omusaayi	-2852
▁to▁their	-2853
wandiikibwa	-2854
▁mu▁Yerusaalemi	-2855
omen	-2856
▁thr	-2857
irako	-2858
atukuvu	-2859
▁have▁a	-2860
▁village	-2861
▁this▁day	-2862
▁understand	-2863
bya	-2864
e▁B	-2865
▁Ob	-2866
ba▁n	-2867
ondo	-2868
▁join	-2869
▁mind	-2870
ati▁bw	-2871
azaala	-2872
▁market	-2873
▁strong	-2874
▁iniquity	-2875
▁minister	-2876
bee	-2877
kut	-2878
ched	-2879
yiza	-2880
imiro	-2881
faanana	-2882
▁person	-2883
ared	-2884
▁Lwa	-2885
▁Nze	-2886
▁Yeko	-2887
▁fail	-2888
▁uncle	-2889
▁bye▁ya	-2890
erezebwa	-2891
enjigiriza	-2892
▁Er	-2893
▁ai	-2894
ined	-2895
zira	-2896
▁Abi	-2897
▁har	-2898
ereere	-2899
▁mu▁lu	-2900
▁works	-2901
abasajja	-2902
▁the▁city	-2903
ria	-2904
ense	-2905
▁pri	-2906
▁vic	-2907
▁Okus	-2908
biddwa	-2909
▁judge	-2910
▁ffeeza	-2911
▁oba▁nga	-2912
rua	-2913
▁Oba	-2914
▁egg	-2915
▁tro	-2916
hered	-2917
▁Arua	-2918
▁eyali	-2919
▁leader	-2920
▁Abanoonyi	-2921
▁shall▁not▁be	-2922
▁Bec	-2923
▁run	-2924
▁and▁my	-2925
▁others	-2926
yinza▁ku	-2927
▁present	-2928
ebyobulamu	-2929
▁The▁police	-2930
oy	-2931
bes	-2932
▁cub	-2933
▁baas	-2934
▁near	-2935
▁enemi	-2936
▁mulimu	-2937
▁perform	-2938
▁bizinensi	-2939
▁against▁the	-2940
zed	-2941
▁Of	-2942
▁On	-2943
edda	-2944
▁emu	-2945
▁oil	-2946
ating	-2947
▁mukazi	-2948
ato	-2949
▁add	-2950
▁imm	-2951
kuumi	-2952
▁embi	-2953
▁olwo	-2954
▁okuka	-2955
▁ekibuga	-2956
▁enemies	-2957
▁we▁have	-2958
ifaananyi	-2959
▁with▁his	-2960
gue	-2961
abika	-2962
weema	-2963
▁play	-2964
ingiza	-2965
▁Kabaka	-2966
▁prophet	-2967
▁amawanga	-2968
▁mu▁bitundu	-2969
▁according▁to	-2970
kutu	-2971
unzi	-2972
essel	-2973
▁shew	-2974
▁Lwaki	-2975
▁and▁J	-2976
▁ebiro	-2977
▁sy	-2978
riend	-2979
▁thus	-2980
amagezi	-2981
▁Omwana	-2982
▁vessel	-2983
▁able▁to	-2984
▁omutima	-2985
eni	-2986
ost	-2987
▁zo	-2988
▁atu	-2989
ative	-2990
itted	-2991
▁next	-2992
▁tree	-2993
▁carry	-2994
▁ekiro	-2995
▁okule	-2996
▁mugaso	-2997
▁omwaka	-2998
▁yaabwe	-2999
▁Because	-3000
▁responsi	-3001
cil	-3002
mus	-3003
▁tt	-3004
wanvu	-3005
▁dwelt	-3006
▁wammwe	-3007
▁abakulu	-3008
▁among▁the	-3009
rew	-3010
ason	-3011
ayita	-3012
ulirwa	-3013
▁banna	-3014
▁nnaku	-3015
▁coming	-3016
▁offici	-3017
mal	-3018
▁Yus	-3019
▁far	-3020
gatta	-3021
▁foot	-3022
▁thoug	-3023
▁was▁a	-3024
▁ground	-3025
bulayimu	-3026
▁did▁not	-3027
▁received	-3028
▁ku▁lusozi	-3029
att	-3030
▁sal	-3031
▁empe	-3032
▁gone	-3033
alyoka	-3034
▁kkono	-3035
▁parents	-3036
gand	-3037
atono	-3038
fuuka	-3039
▁tell	-3040
▁wilt	-3041
ituuka	-3042
▁river	-3043
▁gwange	-3044
▁they▁are	-3045
▁they▁had	-3046
▁erinnya▁lye	-3047
eeme	-3048
▁Ens	-3049
▁kis	-3050
▁Jews	-3051
▁happ	-3052
▁Ugand	-3053
▁bokka	-3054
▁okuzi	-3055
ongoosa	-3056
walibwa	-3057
▁kyange	-3058
▁abamu▁ba	-3059
▁increase	-3060
▁obuyambi	-3061
amas	-3062
▁book	-3063
▁born	-3064
▁singa	-3065
▁still	-3066
▁Yusufu	-3067
▁spread	-3068
ironment	-3069
▁gye▁ndi	-3070
▁Ibulayimu	-3071
▁with▁thee	-3072
won	-3073
zee	-3074
ound	-3075
kyuka	-3076
▁and▁it	-3077
▁okukuuma	-3078
izi	-3079
kiza	-3080
uula	-3081
▁Bas	-3082
▁cond	-3083
▁olug	-3084
▁wano	-3085
annyala	-3086
ers▁are	-3087
▁Ssente	-3088
oluganda	-3089
▁Philistines	-3090
obw	-3091
rup	-3092
igwa	-3093
▁hum	-3094
atuma	-3095
wedde	-3096
kiriza	-3097
▁ku▁ng	-3098
▁obuta	-3099
awulira	-3100
▁okulaba	-3101
▁that▁day	-3102
▁that▁was	-3103
▁about▁the	-3104
ju	-3105
eech	-3106
ened	-3107
ited	-3108
saas	-3109
wendo	-3110
▁gali	-3111
▁issu	-3112
▁mount	-3113
▁manner	-3114
▁farmers	-3115
▁destroyed	-3116
▁knowledge	-3117
▁with▁them	-3118
olubereberye	-3119
▁dra	-3120
▁mug	-3121
▁tul	-3122
ender	-3123
▁Samu	-3124
ensimbi	-3125
▁Musa▁n	-3126
▁benefit	-3127
▁the▁way	-3128
gayiridde	-3129
▁Abakungu	-3130
▁disciples	-3131
kulaakulana	-3132
▁before▁the	-3133
ets	-3134
emic	-3135
▁ago	-3136
ot▁of	-3137
▁olul	-3138
erenga	-3139
▁whose	-3140
▁obudde	-3141
▁the▁st	-3142
enyigira	-3143
unuulira	-3144
▁emikono	-3145
▁delivered	-3146
▁and▁of▁the	-3147
▁one▁of▁the	-3148
▁environment	-3149
▁before▁the▁Lord	-3150
wum	-3151
ages	-3152
▁Kit	-3153
ality	-3154
▁lest	-3155
▁fruit	-3156
▁kyali	-3157
▁prepa	-3158
ggwaawo	-3159
▁testim	-3160
jjanjabi	-3161
tooloola	-3162
▁amafuta	-3163
▁over▁the	-3164
▁the▁same	-3165
▁ssaddaaka	-3166
▁okutumbula	-3167
omp	-3168
▁nam	-3169
kaaga	-3170
▁start	-3171
balirira	-3172
▁for▁ever	-3173
ombi	-3174
▁job	-3175
▁sol	-3176
gibwa	-3177
▁camp	-3178
ession	-3179
▁mwana	-3180
ukiriza	-3181
annyalaze	-3182
▁kabaka▁n	-3183
▁prophets	-3184
uze	-3185
▁At	-3186
ider	-3187
▁teg	-3188
▁wis	-3189
ambul	-3190
anani	-3191
ority	-3192
▁send	-3193
ulidde	-3194
abbiiti	-3195
omuliro	-3196
▁believe	-3197
▁ne▁bajja	-3198
▁No	-3199
nywa	-3200
olera	-3201
zizza	-3202
▁full	-3203
abbibu	-3204
embers	-3205
▁enkya	-3206
▁to▁do	-3207
▁tribe	-3208
▁abaddu	-3209
▁Solomon	-3210
vo	-3211
ned	-3212
gano	-3213
ided	-3214
kwat	-3215
kooti	-3216
▁More	-3217
▁team	-3218
▁ekifo	-3219
▁ku▁bi	-3220
abo▁aba	-3221
▁And▁it	-3222
▁ettaka	-3223
▁Yos	-3224
▁inst	-3225
▁tuli	-3226
ebyalo	-3227
▁abo▁aba	-3228
▁ku▁ttaka	-3229
▁Abasomesa	-3230
▁ennaku▁zonna	-3231
cc	-3232
enn	-3233
mon	-3234
ebis	-3235
kuta	-3236
▁Wee	-3237
▁aro	-3238
annot	-3239
rison	-3240
▁farm	-3241
▁kina	-3242
▁week	-3243
▁awali	-3244
▁ku▁mut	-3245
▁naye▁n	-3246
▁produc	-3247
▁suffer	-3248
▁Levites	-3249
▁agricul	-3250
▁okuzimba	-3251
▁mu▁mukono▁gwa	-3252
▁and▁they▁shall	-3253
gab	-3254
▁Ya	-3255
ince	-3256
▁Eli	-3257
▁che	-3258
tuuka	-3259
▁sign	-3260
▁ekiri	-3261
▁amaaso	-3262
▁cannot	-3263
▁cattle	-3264
▁houses	-3265
▁turned	-3266
▁no▁more	-3267
▁okusobola	-3268
elf	-3269
oud	-3270
abat	-3271
▁Asa	-3272
ayinza	-3273
eggwanga	-3274
▁Parents	-3275
▁sea	-3276
itule	-3277
piira	-3278
▁known	-3279
▁progr	-3280
▁endwadde	-3281
ali▁butuukirivu	-3282
uck	-3283
anci	-3284
ives	-3285
port	-3286
fulum	-3287
unula	-3288
▁save	-3289
nyanja	-3290
▁depart	-3291
▁desert	-3292
▁kwabwe	-3293
▁possess	-3294
▁kabaka▁wa	-3295
ambu	-3296
obus	-3297
yamu	-3298
▁swe	-3299
▁onoo	-3300
▁ziri	-3301
s▁were	-3302
▁batyo	-3303
▁mu▁ma	-3304
▁access	-3305
▁certain	-3306
▁Abakyala	-3307
▁testimony	-3308
▁ox	-3309
▁cre	-3310
▁angel	-3311
▁nti▁M	-3312
▁parti	-3313
▁truth	-3314
▁not▁be	-3315
erezanga	-3316
▁mu▁biro	-3317
▁these▁things	-3318
yimu	-3319
▁dar	-3320
▁fif	-3321
▁does	-3322
▁inform	-3323
▁omuliro	-3324
▁usually	-3325
▁bajjajja	-3326
▁bwe▁yali	-3327
ennyumba▁ya	-3328
bour	-3329
▁Bes	-3330
asure	-3331
atter	-3332
tries	-3333
▁to▁a	-3334
▁Phara	-3335
▁group	-3336
▁struc	-3337
▁friend	-3338
▁omubiri	-3339
▁okwogera	-3340
▁important	-3341
byo	-3342
vanj	-3343
wand	-3344
▁ask	-3345
▁ins	-3346
isibo	-3347
▁ne▁m	-3348
▁Women	-3349
▁field	-3350
▁contin	-3351
▁that▁we	-3352
▁there▁is	-3353
▁with▁their	-3354
▁drug	-3355
ettaka	-3356
▁lives	-3357
vanjuba	-3358
▁era▁ng	-3359
▁era▁nga	-3360
▁society	-3361
mb	-3362
uuko	-3363
▁loo	-3364
▁free	-3365
▁plan	-3366
ga▁omu	-3367
▁Pharao	-3368
▁ddaala	-3369
▁lyonna	-3370
▁mu▁kul	-3371
▁the▁land	-3372
▁mu▁ddungu	-3373
▁the▁sword	-3374
▁of▁the▁people	-3375
gob	-3376
inzi	-3377
▁kum	-3378
ana▁n	-3379
ubiri	-3380
▁none	-3381
▁Which	-3382
▁ku▁bu	-3383
▁mercy	-3384
itukuvu	-3385
▁lyabwe	-3386
▁ne▁yee	-3387
▁nnabbi	-3388
▁silver	-3389
▁He▁that	-3390
▁in▁this	-3391
▁gathered	-3392
▁of▁the▁house	-3393
int	-3394
loy	-3395
ope	-3396
yiti	-3397
▁vis	-3398
anika	-3399
o▁gye	-3400
▁such	-3401
balaasi	-3402
▁endala	-3403
▁of▁our	-3404
ced	-3405
was	-3406
obwa	-3407
yisa	-3408
amaas	-3409
iramu	-3410
itula	-3411
▁anci	-3412
▁door	-3413
abadde	-3414
wangwa	-3415
▁began	-3416
▁slain	-3417
▁But▁if	-3418
onyereza	-3419
▁What▁is	-3420
▁and▁for	-3421
▁omwana▁wa	-3422
▁mutabani▁we	-3423
uub	-3424
geza	-3425
wera	-3426
▁cam	-3427
ereka	-3428
woozo	-3429
▁olut	-3430
▁twel	-3431
▁Eriya	-3432
▁local	-3433
▁zaali	-3434
▁byange	-3435
ekibiina	-3436
▁ejja▁ku	-3437
▁nothing	-3438
▁neighbour	-3439
ddi	-3440
leme	-3441
yali	-3442
athan	-3443
gaali	-3444
ircum	-3445
▁omwa	-3446
▁chair	-3447
▁families	-3448
▁weewaawo	-3449
vum	-3450
▁Wa	-3451
▁Edd	-3452
▁ark	-3453
▁joy	-3454
▁disp	-3455
▁ekik	-3456
▁feet	-3457
▁Awo▁n	-3458
▁nnyina	-3459
irangamu	-3460
zaalibwa	-3461
▁ku▁luuyi	-3462
▁okuyamba	-3463
▁violence	-3464
hem	-3465
mbi	-3466
aleeta	-3467
▁and▁h	-3468
▁asatu	-3469
▁ne▁ku	-3470
▁think	-3471
▁Health	-3472
▁engeri	-3473
▁workers	-3474
▁encourag	-3475
br	-3476
cus	-3477
▁ve	-3478
with	-3479
▁amu	-3480
ining	-3481
▁wine	-3482
zikiza	-3483
anduuko	-3484
▁enkumi	-3485
▁no▁man	-3486
▁ssenyi	-3487
▁king▁of	-3488
▁priests	-3489
▁request	-3490
▁And▁there	-3491
▁countries	-3492
▁and▁to▁the	-3493
▁the▁children	-3494
ery	-3495
kub	-3496
uti	-3497
▁ot	-3498
inny	-3499
wiri	-3500
▁sat	-3501
ŋŋamba	-3502
▁teach	-3503
ekibuga	-3504
wangula	-3505
▁enough	-3506
▁family	-3507
▁Abasawo	-3508
▁ensonga	-3509
▁gye▁muli	-3510
eem	-3511
ete	-3512
ateg	-3513
ector	-3514
oured	-3515
o▁gwe	-3516
tibwa	-3517
▁amat	-3518
▁ones	-3519
erenge	-3520
tified	-3521
▁babiri	-3522
▁ennume	-3523
▁maanyi	-3524
▁his▁son	-3525
▁ministry	-3526
▁nti▁Laba	-3527
▁Abaana▁ba	-3528
▁ssabbiiti	-3529
▁of▁the▁children	-3530
ez	-3531
ebu	-3532
uza	-3533
▁His	-3534
▁bad	-3535
▁zit	-3536
irize	-3537
zimbe	-3538
▁bubi	-3539
▁wild	-3540
▁byali	-3541
eetaaga	-3542
ekitala	-3543
▁to▁thy	-3544
▁a▁great	-3545
▁omulamu	-3546
▁emirundi	-3547
▁okulwana	-3548
▁strength	-3549
▁Ekitongole	-3550
▁and▁in▁the	-3551
▁of▁the▁earth	-3552
▁Olu	-3553
▁One	-3554
raham	-3555
▁Ebyo	-3556
▁amas	-3557
▁lost	-3558
▁attend	-3559
▁Abraham	-3560
▁carried	-3561
▁days▁of	-3562
▁kigambo	-3563
▁princes	-3564
ekitiibwa	-3565
▁advised▁to	-3566
▁mu▁mukono▁gw	-3567
gwan	-3568
▁big	-3569
atale	-3570
▁Egypt	-3571
▁abato	-3572
▁bakatonda	-3573
▁obwakabaka	-3574
enje	-3575
esim	-3576
puni	-3577
▁ste	-3578
lyango	-3579
▁above	-3580
▁chall	-3581
▁third	-3582
alayika	-3583
kolanga	-3584
▁in▁our	-3585
▁okujja	-3586
▁waabwe	-3587
▁members	-3588
▁in▁the▁area	-3589
▁the▁Lord▁hath	-3590
ain	-3591
ils	-3592
▁Ka	-3593
aders	-3594
inene	-3595
omera	-3596
tians	-3597
▁main	-3598
walira	-3599
▁ku▁bo	-3600
ikirira	-3601
▁Samwiri	-3602
▁and▁not	-3603
▁kirungi	-3604
▁olunaku	-3605
▁wakati▁w	-3606
▁ku▁ssomero	-3607
▁inhabitants	-3608
vaamu	-3609
▁guli	-3610
▁ne▁g	-3611
▁ebibuga	-3612
▁mirembe	-3613
▁of▁your	-3614
▁abalwadde	-3615
▁obulwadde	-3616
bun	-3617
▁Yol	-3618
▁doth	-3619
enkana	-3620
▁he▁is	-3621
▁corrup	-3622
▁gwonna	-3623
▁mazima	-3624
▁abalina	-3625
▁baganda	-3626
▁era▁ndi	-3627
▁mu▁nsi▁y	-3628
nce	-3629
ball	-3630
▁Her	-3631
okola	-3632
▁ne▁M	-3633
▁break	-3634
▁ezimu	-3635
▁O▁Lord	-3636
▁victim	-3637
iriranga	-3638
▁byammwe	-3639
▁counsel	-3640
▁kkumi▁na	-3641
▁which▁was	-3642
afa	-3643
ambi	-3644
ooza	-3645
▁rul	-3646
▁yat	-3647
ances	-3648
buuza	-3649
▁Beth	-3650
▁omun	-3651
▁wise	-3652
▁ye▁n	-3653
endera	-3654
udaani	-3655
irusiru	-3656
julirwa	-3657
▁gyabwe	-3658
▁wisdom	-3659
▁Yoludaani	-3660
endo	-3661
ekera	-3662
▁rejo	-3663
isinga	-3664
▁mu▁kus	-3665
▁thirty	-3666
▁security	-3667
▁his▁father	-3668
lee	-3669
par	-3670
anwa	-3671
ists	-3672
kuza	-3673
▁egi	-3674
erali	-3675
▁luli	-3676
▁ways	-3677
▁reven	-3678
ennyini	-3679
▁of▁him	-3680
zimbibwa	-3681
▁council	-3682
▁teachers	-3683
▁e▁Yerusaalemi	-3684
bbi	-3685
ggwa	-3686
ourn	-3687
▁Nga	-3688
▁ono	-3689
asses	-3690
▁oper	-3691
▁nga▁n	-3692
▁okute	-3693
▁times	-3694
ational	-3695
ikono▁g	-3696
▁afflic	-3697
▁gather	-3698
▁eri▁Katonda	-3699
cover	-3700
▁bino	-3701
▁endi	-3702
▁kuli	-3703
▁up▁to	-3704
ilities	-3705
▁exceed	-3706
▁labour	-3707
gayirira	-3708
▁any▁man	-3709
▁with▁me	-3710
▁omukulu▁w	-3711
sal	-3712
tta	-3713
▁Bu	-3714
▁Tu	-3715
itwe	-3716
obya	-3717
uudo	-3718
eeter	-3719
▁rise	-3720
yamini	-3721
▁Child	-3722
▁Genti	-3723
▁I▁say	-3724
▁cometh	-3725
add	-3726
ebb	-3727
men	-3728
aleka	-3729
▁kiki	-3730
▁eight	-3731
▁ne▁ki	-3732
kampuni	-3733
▁remain	-3734
▁company	-3735
▁all▁that	-3736
▁abavubuka	-3737
cl	-3738
nyo	-3739
usu	-3740
iled	-3741
▁Eful	-3742
▁held	-3743
▁idol	-3744
▁stay	-3745
▁test	-3746
▁zino	-3747
▁sleep	-3748
▁wrath	-3749
▁Son▁of	-3750
▁border	-3751
▁and▁she	-3752
▁eddagala	-3753
▁mu▁nsi▁ya	-3754
▁in▁the▁country	-3755
osue	-3756
▁ate	-3757
▁cul	-3758
▁mal	-3759
andid	-3760
ester	-3761
ordan	-3762
wenga	-3763
▁Omus	-3764
es▁are	-3765
idents	-3766
ircumc	-3767
▁can▁be	-3768
addamu▁n	-3769
watiddwa	-3770
▁mu▁maaso▁ge	-3771
kko	-3772
cept	-3773
phra	-3774
ural	-3775
▁buy	-3776
▁muk	-3777
itabo	-3778
wonvu	-3779
▁Moab	-3780
jjudde	-3781
uubuzi	-3782
▁And▁J	-3783
▁mangu	-3784
▁roads	-3785
saasira	-3786
▁Jordan	-3787
▁twelve	-3788
▁ne▁baba	-3789
▁of▁the▁s	-3790
▁know▁that	-3791
▁mu▁Misiri	-3792
▁People▁should	-3793
▁And▁thou▁shalt	-3794
▁Ng	-3795
ills	-3796
▁ref	-3797
▁ton	-3798
orted	-3799
▁vine	-3800
komera	-3801
▁serve	-3802
▁bibiri	-3803
▁strang	-3804
▁medical	-3805
▁Gentiles	-3806
▁ekyokebwa	-3807
obukiika▁obwa	-3808
▁Abantu▁bangi	-3809
▁Jesus▁Christ	-3810
uch	-3811
amus	-3812
▁Say	-3813
ately	-3814
▁Okul	-3815
▁fool	-3816
▁ne▁Y	-3817
▁munda	-3818
viirako	-3819
yinza▁oku	-3820
▁What▁are	-3821
▁all▁the▁people	-3822
gwo	-3823
ork	-3824
tig	-3825
kuka	-3826
▁age	-3827
▁bud	-3828
ement	-3829
kaalu	-3830
▁bore	-3831
▁ekig	-3832
▁enju	-3833
▁here	-3834
ekebwa	-3835
ing▁in	-3836
kulemb	-3837
ayagala	-3838
okusatu	-3839
zabbibu	-3840
▁do▁you	-3841
ayingira	-3842
▁eddembe	-3843
▁let▁him	-3844
▁of▁this	-3845
▁And▁David	-3846
▁during▁the	-3847
▁of▁the▁land	-3848
▁Abakulembeze▁b	-3849
irm	-3850
ows	-3851
omes	-3852
omin	-3853
onjo	-3854
▁val	-3855
▁crop	-3856
▁dark	-3857
▁doct	-3858
▁burnt	-3859
ukirira	-3860
▁ataano	-3861
▁okulya	-3862
ekigambo	-3863
▁okumala	-3864
▁thought	-3865
▁which▁he	-3866
▁appointed	-3867
▁officials	-3868
ga▁omukambwe	-3869
▁abaana▁baabwe	-3870
fug	-3871
weza	-3872
▁bag	-3873
▁yal	-3874
irire	-3875
tuary	-3876
▁anim	-3877
▁prob	-3878
▁sinn	-3879
▁town	-3880
▁naffe	-3881
▁okuli	-3882
▁repro	-3883
abirira	-3884
▁cubits	-3885
▁yeekaalu	-3886
▁What▁is▁the	-3887
olog	-3888
onoo	-3889
wale	-3890
weth	-3891
zaal	-3892
▁emi	-3893
▁sur	-3894
▁ne▁k	-3895
ikolwa	-3896
ziddwa	-3897
▁Ebola	-3898
▁learn	-3899
▁okuno	-3900
tegeeza	-3901
▁Samuel	-3902
▁amangu	-3903
wandiisi	-3904
▁okuba▁n	-3905
▁the▁sea	-3906
▁bwe▁batyo	-3907
▁Some▁people	-3908
▁buli▁lunaku	-3909
▁And▁the▁king	-3910
ed▁a	-3911
▁Sim	-3912
▁dem	-3913
kanga	-3914
abbath	-3915
phraim	-3916
▁broken	-3917
▁mu▁mwaka	-3918
▁the▁face	-3919
▁Efulayimu	-3920
▁mu▁nsi▁ey	-3921
▁mu▁mawanga	-3922
kwegayiridde	-3923
iot	-3924
kal	-3925
mbo	-3926
yit	-3927
▁Pa	-3928
▁di	-3929
▁pi	-3930
ko▁n	-3931
ziga	-3932
▁cry	-3933
aliba	-3934
mulug	-3935
zaana	-3936
▁guno	-3937
omwana	-3938
▁plant	-3939
ing▁and	-3940
st▁thou	-3941
▁taking	-3942
▁How▁can	-3943
▁ensonyi	-3944
▁you▁are	-3945
▁Akakiiko	-3946
▁and▁that	-3947
▁mu▁ngalo	-3948
▁There▁is▁a	-3949
▁eri▁abantu	-3950
▁I▁am▁the▁Lord	-3951
kuli	-3952
anula	-3953
▁corn	-3954
▁fast	-3955
▁purp	-3956
▁leave	-3957
▁visit	-3958
▁and▁was	-3959
▁which▁I	-3960
▁ebitundu	-3961
yogera▁nti	-3962
▁exceeding	-3963
jje	-3964
ater	-3965
emba	-3966
▁dir	-3967
▁kun	-3968
oseph	-3969
▁waba	-3970
obutta	-3971
vestig	-3972
watali	-3973
▁kityo	-3974
▁waliwo	-3975
▁ebirala	-3976
▁Children	-3977
▁okuva▁ku	-3978
▁mukama▁wange	-3979
▁their▁children	-3980
oso	-3981
oto	-3982
sed	-3983
alam	-3984
guza	-3985
indi	-3986
irizza	-3987
▁weema	-3988
▁income	-3989
▁problem	-3990
▁Abasajja	-3991
▁challeng	-3992
▁will▁not	-3993
▁people▁to	-3994
af	-3995
inda	-3996
▁bow	-3997
▁mag	-3998
▁pul	-3999
ekibi	-4000
▁rich	-4001
▁grace	-4002
▁bakola	-4003
▁in▁all	-4004
▁kikumi	-4005
▁okudda	-4006
▁unclean	-4007
▁officers	-4008
▁projects	-4009
zze	-4010
▁El	-4011
dden	-4012
goye	-4013
meka	-4014
agira	-4015
▁kept	-4016
atwala	-4017
▁pregn	-4018
▁so▁to	-4019
▁passed	-4020
▁he▁said	-4021
▁mu▁mmwe	-4022
▁bonna▁ab	-4023
▁okuteeka	-4024
▁thou▁art	-4025
▁endagaano	-4026
▁holocaust	-4027
▁upon▁them	-4028
▁mu▁mateeka	-4029
▁wa▁Katonda	-4030
irya	-4031
funye	-4032
ivers	-4033
jjira	-4034
onoon	-4035
seera	-4036
ulizi	-4037
▁wall	-4038
aliiko	-4039
irenga	-4040
▁and▁M	-4041
▁contr	-4042
▁stone	-4043
annyini	-4044
▁Police	-4045
▁ebweru	-4046
bereberye	-4047
omukono▁g	-4048
▁arrested	-4049
▁obusungu	-4050
▁and▁he▁shall	-4051
omw	-4052
yoni	-4053
▁reg	-4054
anaan	-4055
anyusa	-4056
atuuze	-4057
olanga	-4058
omwezi	-4059
▁mu▁ns	-4060
▁waters	-4061
abuulira	-4062
▁mu▁bifo	-4063
▁obukumi	-4064
▁transport	-4065
▁concerning	-4066
uke	-4067
assa	-4068
gaba	-4069
ters	-4070
▁Ess	-4071
imooni	-4072
▁early	-4073
▁of▁all	-4074
▁throne	-4075
▁okumanya	-4076
ekiweebwayo	-4077
▁Abantu▁balina	-4078
umu	-4079
cent	-4080
void	-4081
▁e▁K	-4082
▁sex	-4083
ani▁n	-4084
▁Ggwe	-4085
▁east	-4086
▁oluk	-4087
anidde	-4088
erness	-4089
▁never	-4090
yitibwa	-4091
▁And▁if	-4092
▁kwange	-4093
▁master	-4094
▁Mowaabu	-4095
▁service	-4096
▁a▁lot▁of	-4097
▁every▁man	-4098
▁commandment	-4099
enth	-4100
vest	-4101
vuga	-4102
bikka	-4103
ified	-4104
imala	-4105
▁Omul	-4106
▁Take	-4107
▁kati	-4108
▁leav	-4109
▁allow	-4110
▁the▁l	-4111
▁era▁nd	-4112
▁etaano	-4113
▁not▁to	-4114
▁Leaders	-4115
iseera▁by	-4116
▁People▁are	-4117
▁mu▁maaso▁go	-4118
▁some▁of▁the	-4119
ef	-4120
emm	-4121
born	-4122
zimb	-4123
▁nku	-4124
ently	-4125
omugg	-4126
▁of▁G	-4127
anyuka	-4128
▁Peter	-4129
▁troub	-4130
▁Peeter	-4131
▁beasts	-4132
teekateeka	-4133
▁Benyamini	-4134
aph	-4135
abya	-4136
▁Esa	-4137
▁red	-4138
▁why	-4139
▁Bala	-4140
▁clot	-4141
▁gods	-4142
▁hour	-4143
▁knew	-4144
▁sens	-4145
wagala	-4146
▁so▁si	-4147
▁wives	-4148
▁yekka	-4149
▁obukulu	-4150
▁the▁pol	-4151
▁amaaso▁g	-4152
▁whatsoever	-4153
ji	-4154
eed	-4155
ille	-4156
osed	-4157
▁ang	-4158
eri▁n	-4159
▁olus	-4160
▁teya	-4161
jjinja	-4162
ambulira	-4163
ayuganda	-4164
usiisira	-4165
▁offered	-4166
agolokoka	-4167
▁bannabbi	-4168
▁by▁their	-4169
▁with▁you	-4170
▁And▁he▁said	-4171
▁to▁the▁king	-4172
mp	-4173
anu	-4174
▁Abo	-4175
▁kas	-4176
▁sit	-4177
aries	-4178
▁Benj	-4179
▁dist	-4180
▁sick	-4181
eetera	-4182
▁Youth	-4183
▁ekibi	-4184
▁gange	-4185
▁north	-4186
omutima	-4187
▁and▁we	-4188
▁bammwe	-4189
▁musajja	-4190
▁prevent	-4191
weereddwa	-4192
▁Benjamin	-4193
▁came▁to▁pass	-4194
eeb	-4195
▁sw	-4196
kiya	-4197
▁ddi	-4198
▁tem	-4199
fiira	-4200
paign	-4201
▁wond	-4202
inning	-4203
▁Era▁n	-4204
▁asked	-4205
▁to▁go	-4206
esimbye	-4207
▁accoun	-4208
▁omuwala	-4209
▁the▁law	-4210
▁and▁when	-4211
▁the▁serv	-4212
▁hospitals	-4213
▁mu▁ddwaliro	-4214
ank	-4215
bik	-4216
eezi	-4217
lebr	-4218
over	-4219
▁beh	-4220
▁sek	-4221
ulumi	-4222
▁so▁n	-4223
▁adore	-4224
▁baagala	-4225
▁chariot	-4226
▁for▁his	-4227
▁meeting	-4228
▁have▁not	-4229
▁of▁David	-4230
▁okwewala	-4231
▁my▁people	-4232
▁Pulojekiti	-4233
▁kya▁Katonda	-4234
▁okwetooloola	-4235
iso	-4236
rown	-4237
siga	-4238
▁bba	-4239
esiga	-4240
rians	-4241
tures	-4242
▁hors	-4243
▁lock	-4244
▁begot	-4245
▁invol	-4246
▁nti▁N	-4247
▁nti▁T	-4248
▁treat	-4249
▁ekkubo	-4250
▁engage	-4251
▁manage	-4252
ebigambo	-4253
▁ebikumi	-4254
▁patients	-4255
gerera▁waggulu	-4256
▁gi	-4257
abyo	-4258
omer	-4259
vail	-4260
▁dri	-4261
▁emb	-4262
benje	-4263
▁Paul	-4264
▁bina	-4265
▁ekimu	-4266
▁empya	-4267
▁ku▁lwa	-4268
▁kyaffe	-4269
▁kye▁ki	-4270
▁within	-4271
faananyi	-4272
▁and▁you	-4273
▁come▁to	-4274
▁particip	-4275
▁all▁these	-4276
▁away▁from	-4277
▁mu▁mutima	-4278
ekk	-4279
usp	-4280
ring	-4281
sebwa	-4282
▁obwe	-4283
▁tewa	-4284
amanyi	-4285
andemic	-4286
isinkan	-4287
▁Tewali	-4288
▁celebr	-4289
▁endiga	-4290
▁kyabwe	-4291
▁muwala	-4292
yongedde	-4293
▁okukuba	-4294
▁consider	-4295
e▁Babulooni	-4296
ism	-4297
goyi	-4298
itiz	-4299
▁Olw	-4300
▁obe	-4301
waamu	-4302
▁fulf	-4303
▁meat	-4304
▁wala	-4305
▁angry	-4306
▁mu▁mp	-4307
▁enkola	-4308
▁obungi	-4309
▁yalina	-4310
▁Kitange	-4311
▁awatali	-4312
▁omulala	-4313
abeeranga	-4314
▁ebikolwa	-4315
▁By	-4316
▁Heb	-4317
▁edda	-4318
▁ne▁S	-4319
ampala	-4320
ensiri	-4321
▁After	-4322
▁bungi	-4323
▁ssatu	-4324
▁Pawulo	-4325
▁Tulina	-4326
▁kwonna	-4327
▁lifted	-4328
yi▁zonna	-4329
▁abawala	-4330
▁ekitala	-4331
▁okusoma	-4332
▁kubanga▁ba	-4333
▁ku▁luuyi▁olw	-4334
bre	-4335
olw	-4336
atya	-4337
leet	-4338
▁fam	-4339
iro▁g	-4340
leeta	-4341
iririza	-4342
tumbula	-4343
▁immedi	-4344
▁necess	-4345
▁nga▁mu	-4346
▁who▁is	-4347
erengeta	-4348
▁embeera	-4349
▁nga▁teb	-4350
▁omusolo	-4351
▁witness	-4352
▁okuva▁mu	-4353
▁went▁out	-4354
tebe	-4355
vuzi	-4356
wula	-4357
▁bea	-4358
igala	-4359
▁fish	-4360
▁hope	-4361
▁aliba	-4362
ologoma	-4363
▁struck	-4364
ation▁of	-4365
ebitundu	-4366
▁Chanaan	-4367
esimbyewo	-4368
▁bakabaka	-4369
▁property	-4370
▁your▁God	-4371
kubirizibwa	-4372
▁Abayudaaya	-4373
▁and▁behold	-4374
▁ne▁bagenda	-4375
▁Omukulembeze	-4376
Omu	-4377
afu	-4378
ley	-4379
ont	-4380
amasa	-4381
bugwe	-4382
▁Amen	-4383
▁Baas	-4384
eweema	-4385
▁okusa	-4386
▁Yeremi	-4387
▁how▁to	-4388
▁sector	-4389
▁I▁shall	-4390
▁started	-4391
▁and▁hath	-4392
▁mu▁bibuga	-4393
▁which▁the▁Lord	-4394
y▁to	-4395
▁int	-4396
▁dang	-4397
▁feed	-4398
es▁and	-4399
▁Jeremi	-4400
▁battle	-4401
▁gammwe	-4402
▁prison	-4403
▁affected	-4404
▁president	-4405
▁byonna▁eby	-4406
ddo	-4407
ual	-4408
abba	-4409
eeba	-4410
piki	-4411
▁Joh	-4412
▁Mus	-4413
▁adm	-4414
▁due	-4415
▁top	-4416
ateek	-4417
ekika	-4418
kunga	-4419
▁Holy	-4420
▁sell	-4421
▁inher	-4422
▁ku▁lw	-4423
taagisa	-4424
▁contri	-4425
esterday	-4426
▁omwenge	-4427
▁mu▁byalo	-4428
▁okusasula	-4429
▁challenges	-4430
▁kabaka▁wa▁Yuda	-4431
ai	-4432
ada	-4433
okw	-4434
▁Un	-4435
▁mm	-4436
lace	-4437
▁nsi	-4438
venth	-4439
▁Baal	-4440
▁stop	-4441
baluwa	-4442
itions	-4443
oogera	-4444
▁bound	-4445
atyo▁bw	-4446
osoever	-4447
▁abakazi	-4448
▁in▁your	-4449
eddoboozi	-4450
▁Jeremias	-4451
▁ku▁ngeri	-4452
▁malayika	-4453
▁unto▁the	-4454
cri	-4455
ial	-4456
igi	-4457
oke	-4458
une	-4459
akom	-4460
anka	-4461
▁Our	-4462
▁ezo	-4463
▁few	-4464
kyali	-4465
▁heal	-4466
▁rain	-4467
bulimi	-4468
engeri	-4469
ensolo	-4470
▁alone	-4471
▁ebifo	-4472
▁esatu	-4473
▁ggulu	-4474
▁ndiba	-4475
▁okufu	-4476
▁sheep	-4477
▁bye▁ba	-4478
▁of▁her	-4479
▁ku▁mutwe	-4480
▁any▁thing	-4481
▁okwongera	-4482
▁and▁twenty	-4483
▁bwe▁yamala	-4484
▁nga▁boogera▁nti	-4485
▁Sh	-4486
ikka	-4487
▁stu	-4488
es▁to	-4489
gomba	-4490
timba	-4491
▁Kita	-4492
▁omug	-4493
ambuza	-4494
▁mu▁bo	-4495
▁sword	-4496
gulaamu	-4497
ing▁for	-4498
gulumivu	-4499
andidates	-4500
▁ebirowoozo	-4501
▁muganda▁we	-4502
isinkanirangamu	-4503
duce	-4504
kusa	-4505
tern	-4506
ekemu	-4507
iggya	-4508
▁desp	-4509
▁ne▁A	-4510
▁role	-4511
sobola	-4512
▁ku▁ka	-4513
▁party	-4514
ance▁of	-4515
vuganya	-4516
abuyonjo	-4517
uthority	-4518
▁Yowaabu	-4519
▁but▁the	-4520
▁ennyuma	-4521
▁officer	-4522
▁program	-4523
▁to▁come	-4524
▁when▁he	-4525
▁wherein	-4526
▁Sawulo▁n	-4527
▁contribu	-4528
▁remember	-4529
▁spoke▁to	-4530
▁elections	-4531
▁shalt▁thou	-4532
▁in▁the▁sight	-4533
▁to▁the▁people	-4534
iya	-4535
kala	-4536
yezi	-4537
▁Neb	-4538
komya	-4539
▁bombi	-4540
▁We▁are	-4541
▁birina	-4542
▁invest	-4543
▁mu▁byo	-4544
▁all▁his	-4545
▁ayogera	-4546
▁not▁the	-4547
▁protect	-4548
▁amayinja	-4549
▁began▁to	-4550
▁his▁hand	-4551
▁beginning	-4552
▁committed	-4553
▁political	-4554
▁responsib	-4555
ebyenjigiriza	-4556
▁in▁Jerusalem	-4557
▁obutuukirivu	-4558
yu	-4559
▁Et	-4560
fumb	-4561
mu▁n	-4562
then	-4563
nyina	-4564
oboam	-4565
▁Temu	-4566
▁ezit	-4567
▁glor	-4568
▁mu▁K	-4569
▁ne▁Z	-4570
▁wind	-4571
abaddu	-4572
abbali	-4573
ection	-4574
ireeta	-4575
kulu▁w	-4576
▁I▁was	-4577
▁Jacob	-4578
▁as▁it	-4579
▁desol	-4580
▁needs	-4581
itule▁y	-4582
▁Manase	-4583
▁Omwoyo	-4584
▁and▁go	-4585
▁budget	-4586
▁inherit	-4587
▁kindred	-4588
▁mukaaga	-4589
▁okutandika	-4590
▁agricultural	-4591
▁enjuyi▁zonna	-4592
ekik	-4593
yard	-4594
▁Kya	-4595
▁bed	-4596
▁gul	-4597
▁van	-4598
▁wood	-4599
ondera	-4600
wanika	-4601
▁arose	-4602
▁birth	-4603
ebigere	-4604
▁common	-4605
▁mulamu	-4606
▁mu▁but	-4607
ategeera	-4608
omusaayi	-4609
▁emmeeme	-4610
▁hearing	-4611
▁nga▁nze	-4612
▁departed	-4613
▁mu▁nnaku	-4614
▁Yesu▁Kristo	-4615
▁abayigirizwa	-4616
▁in▁the▁house	-4617
iz	-4618
imin	-4619
▁dre	-4620
▁gif	-4621
alaad	-4622
yaadi	-4623
▁Assy	-4624
▁shut	-4625
▁sins	-4626
imibwa	-4627
▁it▁be	-4628
▁marri	-4629
▁bakita	-4630
▁perish	-4631
anyukira	-4632
ekkanisa	-4633
▁evening	-4634
▁his▁own	-4635
▁baana▁ba	-4636
▁national	-4637
ebyalo▁bya	-4638
▁would▁not	-4639
▁ba▁Isiraeri	-4640
ivu	-4641
mbe	-4642
▁sl	-4643
alya	-4644
down	-4645
eeko	-4646
raid	-4647
▁Thy	-4648
▁a▁m	-4649
▁cal	-4650
▁por	-4651
asing	-4652
kibwa	-4653
▁wait	-4654
asting	-4655
gambye	-4656
▁kyoto	-4657
▁tutya	-4658
▁Ttiimu	-4659
▁indeed	-4660
▁stones	-4661
▁yali▁a	-4662
▁Teacher	-4663
▁beseech	-4664
▁nga▁bas	-4665
▁process	-4666
▁and▁from	-4667
▁and▁with	-4668
▁omusanvu	-4669
▁returned	-4670
▁bwe▁kityo	-4671
▁ebyambalo	-4672
▁nga▁Mukama	-4673
▁Many▁people	-4674
▁?	-4675
fuka	-4676
▁fur	-4677
▁var	-4678
chias	-4679
taavu	-4680
wonya	-4681
▁girl	-4682
ancial	-4683
ŋŋaano	-4684
▁mingi	-4685
▁Mazima	-4686
▁seeing	-4687
irizanga	-4688
omesebwa	-4689
▁ebibala	-4690
▁farming	-4691
▁our▁God	-4692
▁ku▁bantu	-4693
obwakabaka	-4694
▁Katonda▁n	-4695
▁Omuwendo▁gw	-4696
▁byonna▁ebya	-4697
▁mu▁masomero	-4698
▁hy	-4699
eemu	-4700
idge	-4701
umwa	-4702
▁vac	-4703
aniya	-4704
▁acqu	-4705
▁fors	-4706
▁obun	-4707
▁okuy	-4708
iteeka	-4709
usibwa	-4710
▁rural	-4711
▁ekintu	-4712
▁walked	-4713
ireyaadi	-4714
zikirira	-4715
▁kitundu	-4716
▁nnimiro	-4717
▁the▁sec	-4718
ayimirira	-4719
▁Manasses	-4720
▁garments	-4721
▁omulungi	-4722
▁unto▁you	-4723
▁Son▁of▁man	-4724
▁and▁the▁Lord	-4725
ds	-4726
kw	-4727
ims	-4728
tip	-4729
▁Ky	-4730
▁La	-4731
▁Okwe	-4732
emyaka	-4733
▁gates	-4734
abayizi	-4735
kungula	-4736
▁of▁you	-4737
▁up▁the	-4738
emisango	-4739
kulembera	-4740
▁that▁had	-4741
▁And▁Jesus	-4742
▁ebiragiro	-4743
▁years▁old	-4744
▁mu▁kiseera	-4745
gw	-4746
ges	-4747
▁abi	-4748
▁bri	-4749
▁rev	-4750
kyusa	-4751
olola	-4752
▁siri	-4753
▁brass	-4754
▁raise	-4755
▁virus	-4756
abiriza	-4757
amafuta	-4758
endeeza	-4759
ruction	-4760
▁But▁he	-4761
▁office	-4762
▁mateeka	-4763
▁na▁buli	-4764
▁chairman	-4765
▁lockdown	-4766
▁prepared	-4767
agamba▁Musa	-4768
▁mu▁ssomero	-4769
▁of▁the▁king	-4770
,▁(	-4771
ash	-4772
now	-4773
▁Sp	-4774
▁ph	-4775
mira	-4776
stem	-4777
used	-4778
uuni	-4779
wasa	-4780
▁kid	-4781
mwa▁k	-4782
abangu	-4783
ective	-4784
▁forty	-4785
▁omuga	-4786
abakulu	-4787
akatono	-4788
▁ensolo	-4789
isinkana	-4790
saasaana	-4791
▁borders	-4792
▁thyself	-4793
▁building	-4794
▁election	-4795
▁mu▁nkola	-4796
▁obuyinza	-4797
▁okubaawo	-4798
ulogulaamu	-4799
umiikiriza	-4800
▁after▁the	-4801
▁establish	-4802
▁increased	-4803
▁buli▁mwaka	-4804
▁possession	-4805
▁okwenyigira	-4806
emn	-4807
tor	-4808
erek	-4809
ract	-4810
▁Kee	-4811
▁aku	-4812
▁pit	-4813
abala	-4814
ce▁of	-4815
faayo	-4816
onour	-4817
tribu	-4818
▁cost	-4819
▁emig	-4820
▁of▁M	-4821
▁slew	-4822
▁fifty	-4823
▁ne▁gu	-4824
▁to▁my	-4825
abakazi	-4826
erinnya	-4827
▁abomin	-4828
▁rising	-4829
▁tribes	-4830
▁youths	-4831
▁zammwe	-4832
sekabaka	-4833
▁Abaleevi	-4834
▁Weewaawo	-4835
▁a▁little	-4836
▁villages	-4837
▁there▁was	-4838
▁yourselves	-4839
▁immediately	-4840
▁abantu▁bonna	-4841
▁land▁of▁Egypt	-4842
omi	-4843
▁exc	-4844
lyang	-4845
▁Moyo	-4846
▁okuj	-4847
▁Afric	-4848
▁he▁will	-4849
▁Kale▁nno	-4850
▁omulundi	-4851
abyabufuzi	-4852
▁bwe▁zaali	-4853
▁said▁to▁me	-4854
▁ekifaananyi	-4855
▁emirembe▁gyonna	-4856
bat	-4857
eka	-4858
keb	-4859
ode	-4860
▁Ai	-4861
▁wi	-4862
alwa	-4863
enze	-4864
gizi	-4865
onge	-4866
pped	-4867
ross	-4868
usts	-4869
▁e▁G	-4870
▁suc	-4871
▁vot	-4872
ddewo	-4873
▁Abak	-4874
▁goat	-4875
▁yamu	-4876
tivity	-4877
▁zange	-4878
s▁house	-4879
▁asinga	-4880
▁byaffe	-4881
▁collec	-4882
▁And▁she	-4883
▁is▁very	-4884
▁ebibiina	-4885
▁information	-4886
▁one▁another	-4887
akya	-4888
vers	-4889
▁eld	-4890
▁lot	-4891
▁vir	-4892
ekero	-4893
kutte	-4894
ortun	-4895
▁Phar	-4896
▁mean	-4897
isenge	-4898
▁trump	-4899
▁on▁his	-4900
amayinja	-4901
kungaana	-4902
▁mu▁buli	-4903
▁to▁make	-4904
▁vineyard	-4905
▁answering	-4906
▁the▁house	-4907
▁businesses	-4908
▁okukolebwa	-4909
anze	-4910
anzi	-4911
juba	-4912
yalo	-4913
▁kno	-4914
▁sta	-4915
ction	-4916
erous	-4917
icles	-4918
okutu	-4919
ospel	-4920
zenga	-4921
▁ille	-4922
▁post	-4923
▁same	-4924
ential	-4925
amazima	-4926
▁a▁good	-4927
▁comple	-4928
▁ekikol	-4929
▁ekyoto	-4930
▁gospel	-4931
▁muliro	-4932
▁nga▁bw	-4933
▁season	-4934
▁We▁have	-4935
▁abalimi	-4936
▁conflic	-4937
▁measure	-4938
▁musango	-4939
▁went▁up	-4940
omu▁ggulu	-4941
▁Essomero	-4942
▁darkness	-4943
▁upon▁him	-4944
▁sanctuary	-4945
▁yesterday	-4946
▁bakitaabwe	-4947
▁mulongoofu	-4948
▁right▁hand	-4949
▁of▁Jerusalem	-4950
oss	-4951
orrh	-4952
▁Nor	-4953
▁att	-4954
▁nda	-4955
▁tas	-4956
ature	-4957
break	-4958
fiisi	-4959
gambe	-4960
irika	-4961
irivu	-4962
kuuba	-4963
▁move	-4964
▁perf	-4965
▁piec	-4966
▁vali	-4967
icians	-4968
▁mangi	-4969
▁plann	-4970
▁Who▁is	-4971
▁assemb	-4972
▁embuto	-4973
▁gwabwe	-4974
▁killed	-4975
▁kwe▁ku	-4976
▁okussa	-4977
▁sister	-4978
▁ttiimu	-4979
alyoka▁a	-4980
▁for▁you	-4981
▁hearken	-4982
▁Students	-4983
▁ekiseera	-4984
▁okwagala	-4985
▁register	-4986
▁akabonero	-4987
▁mu▁bulamu	-4988
▁Government	-4989
▁ku▁mabbali	-4990
kulaakulanya	-4991
▁People▁have	-4992
▁pulezidenti	-4993
▁ku▁lunaku▁olwo	-4994
ix	-4995
ebye	-4996
koba	-4997
▁Mak	-4998
ulimi	-4999
▁half	-5000
▁omwe	-5001
▁sour	-5002
uubiza	-5003
akamaze	-5004
▁afraid	-5005
▁and▁as	-5006
▁gye▁ba	-5007
▁made▁a	-5008
▁multip	-5009
abanguko	-5010
▁mu▁maka	-5011
▁okufuga	-5012
▁who▁was	-5013
▁bwe▁biri	-5014
ŋŋamba▁nti	-5015
▁ogwa▁ddyo	-5016
ebiweebwayo	-5017
▁day▁of▁the	-5018
▁should▁not	-5019
▁wilderness	-5020
kolera▁awamu	-5021
▁ebyo▁byonna	-5022
▁okugoberera	-5023
▁amakumi▁abiri	-5024
▁the▁government	-5025
bel	-5026
gin	-5027
ify	-5028
unn	-5029
▁aw	-5030
baza	-5031
yava	-5032
▁got	-5033
▁ign	-5034
▁obs	-5035
emiti	-5036
▁stre	-5037
okaana	-5038
ability	-5039
onathan	-5040
▁Isaaka	-5041
▁appear	-5042
▁charge	-5043
▁omutwe	-5044
ekkumi▁n	-5045
est▁thou	-5046
▁Ugandans	-5047
▁investig	-5048
▁mountains	-5049
▁that▁hath	-5050
▁thou▁wilt	-5051
▁mbagamba▁nti	-5052
▁into▁the▁hand	-5053
▁Thou▁shalt▁not	-5054
▁because▁of▁the	-5055
.)	-5056
Om	-5057
oot	-5058
▁Dd	-5059
ches	-5060
▁Kye	-5061
▁tol	-5062
ataba	-5063
▁each	-5064
▁nnya	-5065
▁on▁a	-5066
▁wors	-5067
fiirwa	-5068
vation	-5069
▁akola	-5070
▁creat	-5071
▁cried	-5072
▁ne▁zi	-5073
▁okwet	-5074
emirimu	-5075
omubiri	-5076
oofiisi	-5077
zechias	-5078
▁Kanani	-5079
▁kye▁ya	-5080
▁magezi	-5081
obulenzi	-5082
omusanvu	-5083
▁kitange	-5084
▁want▁to	-5085
▁campaign	-5086
▁ebisinga	-5087
▁who▁hath	-5088
▁them▁that	-5089
▁Ebitongole	-5090
▁mu▁mirembe	-5091
▁ne▁baganda	-5092
▁destruction	-5093
▁mu▁kifo▁kye	-5094
▁of▁the▁city	-5095
▁the▁priests	-5096
▁the▁prophet	-5097
aps	-5098
ear	-5099
eff	-5100
ena	-5101
▁Ed	-5102
be▁w	-5103
ency	-5104
yima	-5105
▁bel	-5106
▁kik	-5107
manya	-5108
vaako	-5109
▁fled	-5110
▁paid	-5111
▁trad	-5112
▁tuna	-5113
aliimu	-5114
ekkumi	-5115
indika	-5116
olebwa	-5117
ressed	-5118
▁Amoni	-5119
▁immun	-5120
▁in▁him	-5121
▁system	-5122
ducation	-5123
wandiika	-5124
▁ku▁nsalo	-5125
▁mu▁weema	-5126
▁obutonde	-5127
▁unto▁him	-5128
▁engage▁in	-5129
▁mu▁mbeera	-5130
▁obuweereza	-5131
▁that▁I▁may	-5132
▁to▁improve	-5133
▁okweyongera	-5134
▁Ak	-5135
osen	-5136
untu	-5137
yira	-5138
▁esc	-5139
▁neg	-5140
fully	-5141
ikono	-5142
iraba	-5143
iriri	-5144
kyawa	-5145
umira	-5146
ziika	-5147
▁liri	-5148
▁sitt	-5149
▁vain	-5150
amaria	-5151
▁Ammon	-5152
afuluma	-5153
▁and▁do	-5154
▁making	-5155
▁sekeri	-5156
▁son▁of	-5157
▁But▁the	-5158
▁Sayuuni	-5159
ebbulooni	-5160
▁God▁hath	-5161
▁basobola	-5162
▁established	-5163
▁mu▁Isiraeri	-5164
aky	-5165
pro	-5166
▁ur	-5167
gany	-5168
zizo	-5169
ŋŋam	-5170
▁tet	-5171
ekisa	-5172
fugee	-5173
onasa	-5174
▁Hear	-5175
▁Joab	-5176
▁Ne▁b	-5177
▁enzi	-5178
kulira	-5179
wasuli	-5180
▁sound	-5181
omulimu	-5182
▁Keezee	-5183
▁consum	-5184
▁strike	-5185
▁will▁I	-5186
▁account	-5187
▁ebbanga	-5188
▁full▁of	-5189
iriraanye	-5190
kuubagano	-5191
▁complain	-5192
▁nga▁bali	-5193
▁embalaasi	-5194
▁when▁they	-5195
Abafirisuuti	-5196
▁abakulembeze	-5197
▁the▁Lord▁had	-5198
▁yi	-5199
aria	-5200
ayam	-5201
kaka	-5202
kale	-5203
yeri	-5204
▁sav	-5205
s▁for	-5206
twala	-5207
▁of▁C	-5208
▁spec	-5209
alanga	-5210
▁Josue	-5211
▁kumpi	-5212
▁mutyo	-5213
wanguzi	-5214
▁Yekoya	-5215
▁buried	-5216
▁kwammwe	-5217
▁distribu	-5218
▁Abalwadde	-5219
▁Omutukuvu	-5220
▁Wherefore	-5221
my	-5222
oye	-5223
▁ut	-5224
kosa	-5225
line	-5226
race	-5227
tify	-5228
▁gri	-5229
▁njo	-5230
naana	-5231
singa	-5232
▁flee	-5233
▁susp	-5234
▁bajja	-5235
▁batya	-5236
▁wiiki	-5237
fulumya	-5238
iriddwa	-5239
omukazi	-5240
▁ayinza	-5241
▁chosen	-5242
▁enjala	-5243
▁sports	-5244
obulimba	-5245
▁okusaba	-5246
▁ancients	-5247
▁opportun	-5248
▁among▁you	-5249
▁lifted▁up	-5250
▁more▁than	-5251
▁I▁will▁not	-5252
▁okukkiriza	-5253
▁the▁police	-5254
▁the▁spirit	-5255
▁health▁cent	-5256
▁Abantu▁abamu	-5257
▁nkwegayiridde	-5258
▁kubanga▁Mukama	-5259
▁mu▁maaso▁gange	-5260
ago	-5261
een	-5262
omm	-5263
alag	-5264
oose	-5265
teen	-5266
wung	-5267
▁net	-5268
▁spo	-5269
ached	-5270
wandu	-5271
▁With	-5272
▁enjo	-5273
▁forn	-5274
▁oxen	-5275
amaaso	-5276
▁bwe▁g	-5277
▁emiga	-5278
▁stret	-5279
▁trust	-5280
ango▁gy	-5281
▁embaga	-5282
▁profit	-5283
▁to▁eat	-5284
▁Ephraim	-5285
▁nga▁kyo	-5286
▁obusika	-5287
▁so▁temu	-5288
ed▁by▁the	-5289
saasaanya	-5290
▁involved	-5291
▁ku▁kyoto	-5292
▁anaabanga	-5293
▁and▁shalt	-5294
▁that▁time	-5295
▁okutegeera	-5296
▁obujjanjabi	-5297
▁commandments	-5298
erc	-5299
iss	-5300
str	-5301
come	-5302
land	-5303
leth	-5304
unga	-5305
▁Are	-5306
▁Bal	-5307
▁gyo	-5308
buuzo	-5309
ddayo	-5310
iruyi	-5311
o▁gya	-5312
verty	-5313
zezza	-5314
▁Amal	-5315
▁Kiki	-5316
▁bamu	-5317
▁deli	-5318
▁hair	-5319
▁ogut	-5320
ali▁mu	-5321
esigwa	-5322
idence	-5323
ka▁kya	-5324
▁ku▁ma	-5325
▁saved	-5326
▁separ	-5327
▁In▁the	-5328
▁issues	-5329
▁mighty	-5330
▁praise	-5331
▁report	-5332
▁requir	-5333
abakyala	-5334
mizannyo	-5335
wannyina	-5336
▁poverty	-5337
▁rejoice	-5338
▁valiant	-5339
▁whether	-5340
▁Refugees	-5341
▁abaana▁b	-5342
▁abakadde	-5343
▁from▁his	-5344
▁ku▁ntebe	-5345
▁Amasomero	-5346
▁districts	-5347
▁so▁tewali	-5348
▁because▁of	-5349
▁okuyingira	-5350
▁ne▁bagamba▁nti	-5351
osi	-5352
▁Az	-5353
▁Bi	-5354
▁Nn	-5355
hood	-5356
laga	-5357
zing	-5358
▁Ali	-5359
▁ele	-5360
▁pun	-5361
▁sev	-5362
annya	-5363
ba▁ku	-5364
▁John	-5365
omwoyo	-5366
▁didst	-5367
▁munne	-5368
▁ne▁ga	-5369
▁okuny	-5370
inziira	-5371
▁ensure	-5372
▁zirina	-5373
atambula	-5374
kwatibwa	-5375
▁effeeza	-5376
▁enguudo	-5377
▁olubuto	-5378
mulugunya	-5379
onyezebwa	-5380
▁abakyala	-5381
ebuvanjuba	-5382
▁the▁famil	-5383
eeberezebwa	-5384
▁facilities	-5385
▁to▁another	-5386
▁inheritance	-5387
▁omuntu▁yenna	-5388
▁of▁the▁sons▁of	-5389
.▁(	-5390
wam	-5391
oles	-5392
▁bam	-5393
▁lik	-5394
cious	-5395
okufa	-5396
▁maas	-5397
▁mess	-5398
▁wear	-5399
anga▁n	-5400
ekyalo	-5401
ing▁of	-5402
▁flock	-5403
▁forest	-5404
▁abakozi	-5405
▁abalabe	-5406
▁and▁put	-5407
▁compani	-5408
▁empeera	-5409
▁Ekitundu	-5410
▁Omwana▁w	-5411
▁Yeremiya	-5412
▁and▁went	-5413
▁training	-5414
kkirizibwa	-5415
▁okwonoona	-5416
obutuukirivu	-5417
▁okulwanyisa	-5418
▁neither▁shall	-5419
▁ba▁disitulikiti	-5420
iza	-5421
oll	-5422
omut	-5423
zesa	-5424
▁Emp	-5425
▁fal	-5426
▁kig	-5427
baane	-5428
sizza	-5429
▁band	-5430
▁ekye	-5431
▁erya	-5432
amanya	-5433
imanya	-5434
onyaab	-5435
ukiika	-5436
▁Singa	-5437
▁kings	-5438
▁ku▁by	-5439
▁yaffe	-5440
▁bisatu	-5441
▁eggulu	-5442
▁sought	-5443
▁wonder	-5444
ebikolwa	-5445
▁fulfill	-5446
▁before▁him	-5447
▁and▁brought	-5448
▁constructed	-5449
▁and▁you▁shall	-5450
,)	-5451
e▁K	-5452
let	-5453
▁Ag	-5454
ekka	-5455
essa	-5456
gulu	-5457
otyo	-5458
work	-5459
▁lie	-5460
ali▁n	-5461
beere	-5462
enyum	-5463
itege	-5464
ulire	-5465
▁pill	-5466
▁eggye	-5467
▁mmeka	-5468
▁ne▁ye	-5469
ensonga	-5470
▁engoye	-5471
▁ensalo	-5472
▁social	-5473
abakadde	-5474
okuzimba	-5475
▁my▁lord	-5476
yimiridde	-5477
▁Ezechias	-5478
▁Omusajja	-5479
▁might▁be	-5480
▁to▁death	-5481
okukkiriza	-5482
▁a▁hundred	-5483
▁okukozesa	-5484
▁Amalwaliro	-5485
▁in▁the▁day	-5486
▁kabona▁ana	-5487
▁need▁to▁be	-5488
▁that▁shall	-5489
▁The▁sons▁of	-5490
▁the▁princes	-5491
▁ne▁boogera▁nti	-5492
chn	-5493
ewo	-5494
oor	-5495
▁Or	-5496
Abal	-5497
amul	-5498
heth	-5499
yond	-5500
▁Bar	-5501
▁enk	-5502
erson	-5503
kaaba	-5504
▁bank	-5505
▁remo	-5506
▁stud	-5507
anyufu	-5508
wogera	-5509
▁bwe▁b	-5510
▁forgi	-5511
▁pursu	-5512
▁Joseph	-5513
ignation	-5514
▁and▁see	-5515
▁blessed	-5516
▁quality	-5517
▁problems	-5518
▁the▁four	-5519
▁essanduuko	-5520
▁omwaka▁ogu	-5521
▁Mukama▁wange	-5522
▁king▁of▁Juda	-5523
▁fight▁against	-5524
▁that▁which▁is	-5525
▁Ga	-5526
▁St	-5527
anta	-5528
onzi	-5529
suub	-5530
▁a▁c	-5531
▁ett	-5532
▁fat	-5533
▁fav	-5534
▁kif	-5535
ekiro	-5536
sibwa	-5537
taago	-5538
▁Come	-5539
▁bear	-5540
▁ebye	-5541
ale▁by	-5542
imenya	-5543
misiri	-5544
▁cerem	-5545
▁girls	-5546
▁human	-5547
▁okuta	-5548
▁quick	-5549
ondebwa	-5550
▁abangi	-5551
▁ebyali	-5552
▁former	-5553
▁lwa▁ku	-5554
▁mu▁mus	-5555
▁ne▁bag	-5556
▁For▁the	-5557
▁must▁be	-5558
ekirwadde	-5559
▁and▁your	-5560
▁delivery	-5561
noonyereza	-5562
▁And▁Moses	-5563
▁And▁after	-5564
▁abanoonyi	-5565
▁financial	-5566
▁mu▁enkumi	-5567
▁The▁school	-5568
▁as▁it▁were	-5569
▁kubanga▁ya	-5570
▁olulituuka	-5571
▁rural▁areas	-5572
▁the▁son▁of▁S	-5573
akamaze▁emyaka	-5574
ev	-5575
con	-5576
thy	-5577
wuu	-5578
▁ri	-5579
gasa	-5580
host	-5581
ukka	-5582
▁ext	-5583
▁gre	-5584
bumba	-5585
buuka	-5586
wo▁kw	-5587
▁Bama	-5588
▁prac	-5589
▁prof	-5590
▁tali	-5591
▁vacc	-5592
omooza	-5593
▁beast	-5594
▁cloud	-5595
▁parts	-5596
▁utter	-5597
essanyu	-5598
jjukira	-5599
zimbira	-5600
▁driver	-5601
▁enguzi	-5602
▁ne▁bab	-5603
▁Ne▁bamu	-5604
▁revenue	-5605
▁who▁are	-5606
▁Samaliya	-5607
▁abakungu	-5608
▁electric	-5609
▁his▁wife	-5610
▁provided	-5611
▁take▁away	-5612
▁all▁Israel	-5613
▁generation	-5614
▁the▁children▁of	-5615
lu	-5616
room	-5617
▁Muk	-5618
▁hid	-5619
▁beat	-5620
▁drun	-5621
▁ship	-5622
▁subj	-5623
▁Polit	-5624
▁abuse	-5625
▁dream	-5626
▁drugs	-5627
▁escap	-5628
▁of▁it	-5629
▁today	-5630
atanula	-5631
teacher	-5632
zimbulu	-5633
▁bridge	-5634
▁causes	-5635
▁govern	-5636
▁circumc	-5637
▁committ	-5638
▁mothers	-5639
▁of▁whom	-5640
▁refugee	-5641
▁kujja▁ku	-5642
▁mu▁ngeri	-5643
▁okuzaala	-5644
▁of▁heaven	-5645
▁under▁the	-5646
ennyumba▁za	-5647
▁Christians	-5648
▁Pulezidenti	-5649
▁even▁to▁the	-5650
▁Isiraeri▁yenna	-5651
cks	-5652
ints	-5653
oman	-5654
▁Res	-5655
▁pen	-5656
▁ric	-5657
▁tuk	-5658
▁zir	-5659
fumbo	-5660
yimba	-5661
▁exec	-5662
▁weep	-5663
engers	-5664
esezza	-5665
▁baffe	-5666
▁bwali	-5667
▁crime	-5668
▁idols	-5669
ebibuga	-5670
onjoola	-5671
▁bwaffe	-5672
▁change	-5673
▁sorrow	-5674
▁ttaano	-5675
▁we▁are	-5676
▁Ugandan	-5677
▁and▁her	-5678
▁general	-5679
▁sensiti	-5680
▁what▁is	-5681
▁How▁many	-5682
▁football	-5683
▁thy▁hand	-5684
▁tribe▁of	-5685
▁failed▁to	-5686
▁mu▁kitabo	-5687
▁bwa▁Katonda	-5688
▁ebiweebwayo	-5689
▁Abafirisuuti	-5690
▁nga▁kyogera▁nti	-5691
oe	-5692
jju	-5693
omb	-5694
▁Ah	-5695
▁CO	-5696
▁Es	-5697
▁Ro	-5698
▁da	-5699
cles	-5700
rias	-5701
ults	-5702
▁Gal	-5703
tiisa	-5704
wangu	-5705
▁sold	-5706
alirwa	-5707
omu▁ki	-5708
ziyiza	-5709
▁alloc	-5710
▁blind	-5711
▁has▁a	-5712
▁watch	-5713
okukola	-5714
▁abaami	-5715
▁nsonga	-5716
▁of▁one	-5717
▁opened	-5718
▁second	-5719
akkiriza	-5720
▁Abakozi	-5721
▁Abusaal	-5722
▁akawuka	-5723
▁animals	-5724
▁Abantu▁b	-5725
▁emisango	-5726
▁his▁name	-5727
▁okulonda	-5728
▁products	-5729
▁shall▁go	-5730
▁woofiisi	-5731
ebyobufuzi	-5732
▁their▁own	-5733
▁against▁him	-5734
▁from▁thence	-5735
▁mu▁malwaliro	-5736
▁encouraged▁to	-5737
▁okusobola▁oku	-5738
▁Bannabyabufuzi	-5739
▁in▁the▁morning	-5740
..	-5741
eh	-5742
avi	-5743
fal	-5744
uty	-5745
▁Ta	-5746
▁fu	-5747
essi	-5748
inna	-5749
yiga	-5750
▁Mas	-5751
▁boo	-5752
▁nak	-5753
eriod	-5754
jjula	-5755
tiini	-5756
wange	-5757
▁abee	-5758
ekyoto	-5759
▁ddene	-5760
▁decla	-5761
▁in▁it	-5762
▁level	-5763
amwandu	-5764
ebisolo	-5765
lasting	-5766
▁Era▁ol	-5767
▁I▁know	-5768
▁employ	-5769
▁into▁a	-5770
▁kukola	-5771
▁nnyini	-5772
▁taught	-5773
Abaleevi	-5774
▁Kampala	-5775
▁working	-5776
▁okuwaayo	-5777
▁wherewith	-5778
▁ya▁Mukama	-5779
▁corruption	-5780
▁sanctified	-5781
▁strengthen	-5782
▁his▁brother	-5783
▁indignation	-5784
▁rest▁of▁the	-5785
▁mu▁mwaka▁ogw	-5786
▁okutuusa▁lwe	-5787
▁The▁president	-5788
agamba▁Musa▁nti	-5789
▁in▁the▁district	-5790
▁of▁the▁covenant	-5791
ID	-5792
eba	-5793
eke	-5794
enk	-5795
ush	-5796
imwa	-5797
muli	-5798
pher	-5799
ziba	-5800
▁mob	-5801
▁ram	-5802
▁zis	-5803
▁less	-5804
▁wali	-5805
iraamu	-5806
jaguza	-5807
▁Yoswa	-5808
▁doing	-5809
▁sides	-5810
▁small	-5811
▁Spirit	-5812
▁beyond	-5813
▁mirimu	-5814
toolodde	-5815
wungeezi	-5816
▁This▁is	-5817
▁ggwanga	-5818
▁and▁upon	-5819
▁bwereere	-5820
▁kijja▁ku	-5821
▁abantu▁ba	-5822
▁byonna▁bye	-5823
▁the▁second	-5824
▁communities	-5825
▁the▁kingdom	-5826
ayogera▁Mukama▁w	-5827
gas	-5828
wona	-5829
▁Con	-5830
▁ata	-5831
bulwa	-5832
kuusa	-5833
▁agre	-5834
▁baat	-5835
▁weak	-5836
asures	-5837
rought	-5838
zannyi	-5839
▁ready	-5840
▁desire	-5841
▁omwami	-5842
▁reward	-5843
▁garment	-5844
▁wabaawo	-5845
▁ye▁yali	-5846
▁deceased	-5847
▁mu▁linnya	-5848
s▁of▁Israel	-5849
▁everlasting	-5850
▁I▁say▁to▁you	-5851
▁responsibility	-5852
??	-5853
VID	-5854
ari	-5855
eel	-5856
gyp	-5857
▁Sy	-5858
arch	-5859
kaay	-5860
otor	-5861
yo▁n	-5862
▁hig	-5863
▁owa	-5864
anisa	-5865
oboko	-5866
oni▁n	-5867
saala	-5868
▁Egyp	-5869
▁Ensi	-5870
▁atya	-5871
▁belo	-5872
▁case	-5873
▁past	-5874
utiful	-5875
▁COVID	-5876
▁Isaac	-5877
▁kwali	-5878
▁ye▁ya	-5879
▁accomp	-5880
▁baliba	-5881
▁became	-5882
▁nga▁te	-5883
▁nga▁ye	-5884
▁period	-5885
▁sinned	-5886
▁tongue	-5887
▁to▁God	-5888
▁amaziga	-5889
▁emitala	-5890
▁kitaawo	-5891
▁respect	-5892
▁that▁it	-5893
▁the▁wat	-5894
abaana▁be	-5895
endagaano	-5896
▁But▁they	-5897
▁pandemic	-5898
▁the▁wall	-5899
▁I▁beseech	-5900
▁give▁thee	-5901
▁mukazi▁we	-5902
▁lya▁Mukama	-5903
▁the▁father	-5904
▁from▁heaven	-5905
▁Awo▁Dawudi▁n	-5906
▁What▁are▁the	-5907
▁organization	-5908
▁The▁community	-5909
alab	-5910
illa	-5911
mary	-5912
▁Mal	-5913
▁occ	-5914
ommun	-5915
▁Nabu	-5916
▁horn	-5917
▁okuz	-5918
▁quar	-5919
▁sure	-5920
isaayo	-5921
wagizi	-5922
▁aleme	-5923
▁gwali	-5924
▁loved	-5925
▁Let▁us	-5926
▁batera	-5927
▁for▁my	-5928
▁hearts	-5929
▁nti▁Bw	-5930
▁preach	-5931
▁valley	-5932
ing▁them	-5933
▁Abawala	-5934
▁promote	-5935
▁reigned	-5936
▁scatter	-5937
▁strange	-5938
▁therein	-5939
▁to▁meet	-5940
▁to▁pass	-5941
▁accident	-5942
▁and▁thou	-5943
▁appeared	-5944
▁kitiibwa	-5945
▁standing	-5946
▁authority	-5947
▁people▁are	-5948
▁shall▁fall	-5949
▁through▁the	-5950
▁the▁son▁of▁N	-5951
▁into▁the▁land	-5952
▁and▁said▁to▁him	-5953
e▁G	-5954
▁Ca	-5955
haps	-5956
oint	-5957
▁Ekk	-5958
▁deb	-5959
▁ill	-5960
▁Mu▁b	-5961
▁batu	-5962
▁ekif	-5963
▁gird	-5964
▁kisa	-5965
▁lamb	-5966
ers▁of	-5967
onyiwa	-5968
▁appro	-5969
▁had▁a	-5970
▁ignor	-5971
▁mmere	-5972
▁ne▁ka	-5973
▁stead	-5974
▁table	-5975
▁ttale	-5976
▁yield	-5977
abalala	-5978
enyi▁bw	-5979
liament	-5980
omero▁g	-5981
uliddwa	-5982
▁Why▁do	-5983
▁engalo	-5984
▁ne▁bee	-5985
buwangwa	-5986
ddukanya	-5987
gwanjuba	-5988
▁Enguudo	-5989
▁Yoswa▁n	-5990
▁for▁him	-5991
▁the▁cor	-5992
▁was▁not	-5993
omu▁nsiko	-5994
▁desolate	-5995
▁emmotoka	-5996
▁yeetaaga	-5997
emizabbibu	-5998
▁Assyrians	-5999
▁access▁to	-6000
▁okuwulira	-6001
▁Katonda▁wa	-6002
▁wickedness	-6003
▁okulongoosa	-6004
▁performance	-6005
ayogera▁nti▁N	-6006
och	-6007
rac	-6008
▁ŋŋ	-6009
ards	-6010
bega	-6011
gumu	-6012
inen	-6013
ived	-6014
umul	-6015
▁Mut	-6016
▁wid	-6017
amasi	-6018
ereki	-6019
salom	-6020
va▁mu	-6021
▁From	-6022
▁club	-6023
angako	-6024
buyaga	-6025
▁Bless	-6026
▁Olina	-6027
▁equip	-6028
▁ne▁be	-6029
▁omubi	-6030
▁omusu	-6031
▁to▁us	-6032
gezaako	-6033
iraanwa	-6034
yingiza	-6035
▁Yerobo	-6036
▁era▁al	-6037
▁kkooti	-6038
▁mwekka	-6039
▁transg	-6040
omupiira	-6041
▁Absalom	-6042
▁charity	-6043
▁gyammwe	-6044
▁illegal	-6045
▁in▁them	-6046
▁Era▁nate	-6047
▁mu▁mirimu	-6048
▁wamu▁naye	-6049
▁whosoever	-6050
▁candidates	-6051
▁Oluvannyuma	-6052
▁Yerobowaamu	-6053
▁ne▁batabani	-6054
▁omuwendo▁gw	-6055
▁thy▁servant	-6056
▁which▁he▁had	-6057
omu▁nnyumba▁ya	-6058
▁ap	-6059
▁os	-6060
alyo	-6061
▁Eng	-6062
▁air	-6063
▁buk	-6064
▁ewa	-6065
▁sto	-6066
ereze	-6067
igere	-6068
ma▁ku	-6069
▁Abat	-6070
▁draw	-6071
▁eryo	-6072
▁rele	-6073
▁rose	-6074
▁show	-6075
▁stra	-6076
▁true	-6077
abibwa	-6078
ankana	-6079
eggulu	-6080
enfuna	-6081
jja▁gw	-6082
▁bwayo	-6083
▁delay	-6084
▁obuli	-6085
▁techn	-6086
ddirira	-6087
er▁than	-6088
▁devour	-6089
▁ensigo	-6090
▁ku▁bwa	-6091
▁months	-6092
fumbirwa	-6093
▁and▁had	-6094
▁bwe▁nna	-6095
▁harvest	-6096
▁of▁thee	-6097
abavubuka	-6098
gendereza	-6099
▁Ebibiina	-6100
▁Ministry	-6101
▁learning	-6102
▁yennyini	-6103
ers▁of▁the	-6104
▁conflicts	-6105
▁offerings	-6106
▁bwe▁yalaba	-6107
▁Minisitule▁y	-6108
▁against▁thee	-6109
▁okutuukiriza	-6110
▁the▁daughter	-6111
▁za▁gavumenti	-6112
▁And▁when▁he▁had	-6113
ney	-6114
arge	-6115
eben	-6116
ebir	-6117
eeyi	-6118
opul	-6119
pagi	-6120
▁Oyo	-6121
▁gun	-6122
▁obl	-6123
fuufu	-6124
ising	-6125
thern	-6126
ustom	-6127
▁Amas	-6128
▁at▁a	-6129
▁drop	-6130
▁luno	-6131
▁seem	-6132
andise	-6133
asulwa	-6134
▁Esawu	-6135
▁beget	-6136
▁Galaad	-6137
▁Yonasa	-6138
▁and▁so	-6139
▁doctor	-6140
▁have▁I	-6141
▁ku▁byo	-6142
▁mwenna	-6143
▁omungi	-6144
▁incense	-6145
▁to▁help	-6146
▁believed	-6147
▁bwe▁muna	-6148
▁interest	-6149
▁with▁her	-6150
▁Abantu▁aba	-6151
▁in▁the▁way	-6152
▁And▁all▁the	-6153
▁responsible	-6154
asp	-6155
cep	-6156
ern	-6157
abul	-6158
aloo	-6159
bali	-6160
post	-6161
▁Aga	-6162
▁Not	-6163
▁rob	-6164
▁tus	-6165
atera	-6166
ggula	-6167
▁Chal	-6168
emmere	-6169
ugende	-6170
▁a▁new	-6171
▁eziri	-6172
▁flood	-6173
▁mwezi	-6174
▁okwes	-6175
tabaaza	-6176
▁School	-6177
▁bbanga	-6178
▁eggulo	-6179
▁eruuyi	-6180
▁let▁us	-6181
▁okutta	-6182
▁so▁teb	-6183
beerenga	-6184
omuwendo	-6185
▁Bamaama	-6186
▁amalala	-6187
▁beloved	-6188
▁perfect	-6189
▁to▁take	-6190
▁ekirungi	-6191
▁okukwata	-6192
s▁in▁Uganda	-6193
▁management	-6194
▁okuweereza	-6195
▁filled▁with	-6196
▁like▁manner	-6197
▁omukono▁gwe	-6198
▁and▁shall▁be	-6199
▁things▁which	-6200
▁mu▁biseera▁by	-6201
▁Ne▁batabani▁ba	-6202
▁upon▁the▁earth	-6203
▁Gavumenti▁erina	-6204
ebwe	-6205
fort	-6206
tian	-6207
wise	-6208
▁Eby	-6209
alulu	-6210
icate	-6211
utalo	-6212
▁amal	-6213
▁murd	-6214
▁safe	-6215
▁toil	-6216
embuzi	-6217
ensozi	-6218
isizza	-6219
▁chang	-6220
▁go▁to	-6221
▁mazzi	-6222
▁okwol	-6223
▁ought	-6224
osition	-6225
ulokozi	-6226
▁kyokka	-6227
▁mu▁kut	-6228
▁Peetero	-6229
▁Yokaana	-6230
▁ekinene	-6231
▁obubaka	-6232
▁okuyita	-6233
▁the▁man	-6234
falisaayo	-6235
▁Jeroboam	-6236
▁and▁took	-6237
▁amaaso▁ge	-6238
▁until▁the	-6239
▁abantu▁aba	-6240
abantu▁bonna	-6241
▁it▁shall▁be	-6242
▁two▁hundred	-6243
▁because▁they	-6244
▁mu▁mukono▁gwe	-6245
bs	-6246
emy	-6247
gard	-6248
gezo	-6249
lech	-6250
olug	-6251
▁Lib	-6252
▁Yee	-6253
▁mbi	-6254
areth	-6255
era▁n	-6256
jjuki	-6257
mbala	-6258
▁burd	-6259
▁kifo	-6260
▁mour	-6261
▁ogwo	-6262
▁soon	-6263
ettend	-6264
ggyako	-6265
ission	-6266
▁appre	-6267
▁ndiku	-6268
▁ne▁tu	-6269
▁often	-6270
▁sweet	-6271
▁a▁long	-6272
▁baleme	-6273
▁compet	-6274
▁era▁ba	-6275
▁era▁mu	-6276
▁examin	-6277
▁gwe▁ya	-6278
▁liveth	-6279
▁nti▁Mu	-6280
▁omwezi	-6281
uliranga	-6282
▁of▁that	-6283
▁vessels	-6284
e▁Bwasuli	-6285
▁Ekkanisa	-6286
▁any▁more	-6287
▁ebbaluwa	-6288
▁mu▁mwezi	-6289
▁outbreak	-6290
▁Ku▁lunaku	-6291
▁abatalina	-6292
▁mu▁kkooti	-6293
▁necessary	-6294
▁omuddu▁wo	-6295
▁electricity	-6296
▁abantu▁bange	-6297
▁arrested▁for	-6298
▁enkulaakulana	-6299
▁nga▁bagamba▁nti	-6300
▁to▁the▁children	-6301
agu	-6302
eeke	-6303
ekit	-6304
ikom	-6305
ilee	-6306
reth	-6307
uben	-6308
yiro	-6309
▁Bet	-6310
▁Men	-6311
andik	-6312
aniro	-6313
omuga	-6314
▁acts	-6315
▁guid	-6316
▁iron	-6317
anyiza	-6318
erebwa	-6319
lement	-6320
▁okuwe	-6321
ing▁him	-6322
▁pieces	-6323
▁rights	-6324
ed▁to▁be	-6325
▁ajja▁ku	-6326
▁recover	-6327
▁this▁is	-6328
▁waaliwo	-6329
▁Everyone	-6330
▁Kabaka▁n	-6331
▁Northern	-6332
▁and▁made	-6333
▁era▁naye	-6334
▁obubaane	-6335
▁bwe▁mutyo	-6336
▁ekiragiro	-6337
▁muwala▁wa	-6338
▁of▁Uganda	-6339
▁upon▁thee	-6340
▁Buli▁muntu	-6341
ya▁mutabani▁wa	-6342
▁the▁coronavirus	-6343
ibe	-6344
aken	-6345
omun	-6346
▁End	-6347
▁Loc	-6348
▁Med	-6349
aliza	-6350
eness	-6351
fruit	-6352
ologi	-6353
omoka	-6354
oneka	-6355
tuula	-6356
ukana	-6357
usuku	-6358
▁Give	-6359
▁gard	-6360
▁hang	-6361
▁sake	-6362
▁self	-6363
imanyi	-6364
isions	-6365
▁Akabu	-6366
▁Elias	-6367
▁abund	-6368
▁and▁d	-6369
▁kyava	-6370
▁okubi	-6371
▁write	-6372
kaayana	-6373
▁bwe▁mu	-6374
▁it▁not	-6375
▁my▁son	-6376
▁set▁up	-6377
▁to▁her	-6378
▁vision	-6379
beeranga	-6380
▁abasawo	-6381
▁entered	-6382
abanoonyi	-6383
anaabanga	-6384
▁Minisita	-6385
▁Ssentebe	-6386
▁essomero	-6387
▁faithful	-6388
▁captivity	-6389
▁could▁not	-6390
▁before▁thee	-6391
▁pulogulaamu	-6392
imp	-6393
orm	-6394
amag	-6395
osor	-6396
zisa	-6397
okuna	-6398
sible	-6399
▁Obut	-6400
▁ntyo	-6401
▁stri	-6402
▁torr	-6403
awaayo	-6404
▁Nebbi	-6405
▁amaka	-6406
▁conce	-6407
▁okuvu	-6408
beerera	-6409
itional	-6410
▁And▁as	-6411
▁Naye▁n	-6412
▁at▁all	-6413
▁murder	-6414
▁prince	-6415
▁to▁get	-6416
kubiriza	-6417
obuyinza	-6418
▁And▁his	-6419
▁from▁me	-6420
▁munaana	-6421
▁okusala	-6422
ed▁in▁his	-6423
ing▁their	-6424
kuŋŋaanya	-6425
▁Ekigambo	-6426
▁baali▁ba	-6427
▁ku▁bintu	-6428
▁mu▁bwaka	-6429
▁on▁the▁s	-6430
▁omwana▁we	-6431
aŋŋamba▁nti	-6432
▁The▁church	-6433
▁The▁people	-6434
▁high▁priest	-6435
▁And▁he▁shall	-6436
▁bakubirizibwa	-6437
▁in▁the▁region	-6438
▁spoke▁to▁Moses	-6439
▁house▁of▁Israel	-6440
▁king▁of▁Babylon	-6441
▁things▁that▁are	-6442
umb	-6443
▁ed	-6444
aano	-6445
akka	-6446
fuba	-6447
gema	-6448
umya	-6449
wola	-6450
yise	-6451
▁Bat	-6452
▁ebu	-6453
alaga	-6454
daani	-6455
kkono	-6456
okuba	-6457
wanyi	-6458
zaali	-6459
▁bbun	-6460
▁jour	-6461
▁kiba	-6462
▁kuno	-6463
▁obey	-6464
▁once	-6465
▁step	-6466
abaami	-6467
akuŋŋa	-6468
galira	-6469
mwa▁ka	-6470
umibwa	-6471
yinike	-6472
▁Genda	-6473
▁crops	-6474
▁manif	-6475
▁okuga	-6476
▁omugg	-6477
▁white	-6478
eth▁the	-6479
omwenge	-6480
▁bwe▁nn	-6481
▁looked	-6482
▁settle	-6483
ing▁from	-6484
▁abalamu	-6485
▁and▁say	-6486
▁ayagala	-6487
▁captain	-6488
▁control	-6489
▁obuggya	-6490
▁perhaps	-6491
▁seventy	-6492
▁to▁whom	-6493
▁and▁hast	-6494
▁for▁your	-6495
▁mu▁kyalo	-6496
▁They▁were	-6497
▁beautiful	-6498
▁ne▁Alooni	-6499
▁mu▁kkanisa	-6500
▁the▁wicked	-6501
▁participate	-6502
amasannyalaze	-6503
▁Christ▁Jesus	-6504
▁mu▁maaso▁gaabwe	-6505
iew	-6506
way	-6507
▁mb	-6508
ital	-6509
kole	-6510
siza	-6511
vate	-6512
▁maj	-6513
▁vow	-6514
aba▁n	-6515
ed▁me	-6516
kolim	-6517
okolo	-6518
▁Nile	-6519
bukadd	-6520
igenda	-6521
irwamu	-6522
komawo	-6523
▁eaten	-6524
▁skill	-6525
▁zaffe	-6526
ed▁from	-6527
gwanira	-6528
ondoola	-6529
onoonye	-6530
oozebwa	-6531
▁giving	-6532
▁like▁a	-6533
▁make▁a	-6534
▁okubal	-6535
▁please	-6536
▁the▁cl	-6537
ing▁with	-6538
▁Blessed	-6539
▁Neither	-6540
▁and▁set	-6541
▁etteeka	-6542
▁the▁sun	-6543
▁to▁give	-6544
▁various	-6545
▁Ekibiina	-6546
▁Nebukadd	-6547
▁are▁they	-6548
▁the▁scri	-6549
▁upon▁his	-6550
▁when▁the	-6551
▁in▁Israel	-6552
▁against▁me	-6553
▁mu▁nnimiro	-6554
▁ebifaananyi	-6555
▁written▁in▁the	-6556
▁,	-6557
els	-6558
ande	-6559
lima	-6560
most	-6561
▁too	-6562
conom	-6563
kaasa	-6564
tegee	-6565
unama	-6566
unnya	-6567
vaayo	-6568
zuuki	-6569
▁Obwa	-6570
▁inno	-6571
▁term	-6572
resent	-6573
▁Arise	-6574
▁since	-6575
▁so▁te	-6576
igalawo	-6577
wummula	-6578
▁Awo▁ne	-6579
▁Enkola	-6580
▁era▁ne	-6581
▁horses	-6582
▁kirina	-6583
▁oba▁ng	-6584
abalibwa	-6585
▁Abakulu	-6586
▁ba▁Yuda	-6587
▁ebisolo	-6588
▁ekitali	-6589
▁katonda	-6590
▁mulyoke	-6591
▁restore	-6592
▁Abatuuze	-6593
▁ekkanisa	-6594
▁offering	-6595
▁on▁their	-6596
▁in▁heaven	-6597
▁strangers	-6598
▁ku▁nnyanja	-6599
▁ne▁bagamba	-6600
▁which▁thou	-6601
▁said▁to▁her	-6602
▁ku▁mabbali▁g	-6603
▁over▁against	-6604
sp	-6605
ilk	-6606
iry	-6607
leg	-6608
chod	-6609
inze	-6610
jjuk	-6611
osqu	-6612
▁den	-6613
▁eas	-6614
erubi	-6615
ogoyi	-6616
▁hung	-6617
▁rent	-6618
yitako	-6619
▁Ghost	-6620
▁avail	-6621
▁byayo	-6622
▁ku▁lu	-6623
▁mourn	-6624
ondeere	-6625
waddeyo	-6626
▁Chalde	-6627
▁Ebintu	-6628
▁alyoke	-6629
▁demand	-6630
▁honour	-6631
▁mu▁kwe	-6632
▁rather	-6633
▁result	-6634
▁supply	-6635
omusango	-6636
▁balyoke	-6637
▁cut▁off	-6638
▁journey	-6639
▁kyeyava	-6640
▁omusana	-6641
atuulanga	-6642
▁confound	-6643
▁obuwanvu	-6644
▁troubled	-6645
▁ebyokebwa	-6646
▁ku▁mulimu	-6647
▁Holy▁Ghost	-6648
▁mu▁bukiika	-6649
▁mu▁kulonda	-6650
▁sensitized	-6651
▁leaders▁are	-6652
▁organizations	-6653
19	-6654
og	-6655
akwa	-6656
ebya	-6657
fied	-6658
itta	-6659
wube	-6660
▁hur	-6661
▁low	-6662
▁mwo	-6663
▁spr	-6664
abega	-6665
abona	-6666
usibe	-6667
▁Okut	-6668
▁ogus	-6669
▁pour	-6670
chodon	-6671
▁class	-6672
▁gifts	-6673
▁haste	-6674
▁maaso	-6675
▁mu▁ye	-6676
▁naked	-6677
▁organ	-6678
wubeeni	-6679
▁Africa	-6680
▁batono	-6681
▁commit	-6682
▁ekyali	-6683
▁empisa	-6684
awangayo	-6685
omuggalo	-6686
▁Pharise	-6687
▁bigambo	-6688
▁ebyokul	-6689
▁knoweth	-6690
▁ku▁buli	-6691
▁results	-6692
abasomesa	-6693
eekebwawo	-6694
▁Kkampuni	-6695
▁bbunansi	-6696
▁ekkumi▁n	-6697
▁for▁them	-6698
▁mu▁mazzi	-6699
▁okusimba	-6700
▁who▁were	-6701
▁ekitukuvu	-6702
▁okusomesa	-6703
▁Nabuchodon	-6704
▁holocausts	-6705
▁he▁shall▁be	-6706
▁which▁I▁have	-6707
bus	-6708
thi	-6709
▁fr	-6710
okub	-6711
phat	-6712
▁Hel	-6713
▁ret	-6714
ed▁up	-6715
prosy	-6716
yembe	-6717
zuula	-6718
▁Mmwe	-6719
▁baba	-6720
▁bond	-6721
▁fees	-6722
▁hind	-6723
abaala	-6724
itaano	-6725
▁Achab	-6726
▁anger	-6727
▁avoid	-6728
anyizza	-6729
geranga	-6730
imereki	-6731
▁Era▁nd	-6732
▁agenda	-6733
▁discus	-6734
▁mu▁nju	-6735
▁nsimbi	-6736
▁provid	-6737
▁redeem	-6738
▁weight	-6739
abakungu	-6740
akolanga	-6741
angirira	-6742
▁And▁now	-6743
▁ancient	-6744
▁ebizibu	-6745
▁ku▁mmwe	-6746
▁she▁was	-6747
▁torrent	-6748
▁fighting	-6749
enkomerero	-6750
ko▁amafuta	-6751
▁hast▁thou	-6752
▁judgments	-6753
▁ku▁nsonga	-6754
▁okuweebwa	-6755
▁bwa▁Uganda	-6756
▁mu▁lukiiko	-6757
▁ya▁Katonda	-6758
▁by▁the▁hand	-6759
▁in▁the▁Lord	-6760
▁Awo▁olulituuka	-6761
▁Nabuchodonosor	-6762
ND	-6763
ead	-6764
tum	-6765
kisa	-6766
rast	-6767
safa	-6768
sibe	-6769
utes	-6770
▁dry	-6771
atiro	-6772
ed▁it	-6773
ences	-6774
ieves	-6775
tuufu	-6776
▁atta	-6777
▁ne▁L	-6778
ebenke	-6779
ed▁his	-6780
yirira	-6781
▁Baali	-6782
▁Nange	-6783
▁apost	-6784
▁atali	-6785
▁daily	-6786
▁oguli	-6787
aliriza	-6788
alyanga	-6789
angibwa	-6790
rastruc	-6791
▁accept	-6792
▁be▁not	-6793
▁bitter	-6794
▁bought	-6795
▁econom	-6796
▁gye▁ya	-6797
▁lyaffe	-6798
▁tulina	-6799
wandiiko	-6800
▁burning	-6801
▁clothed	-6802
▁ebigere	-6803
▁greatly	-6804
▁kkumi▁n	-6805
▁obukugu	-6806
▁house▁of	-6807
▁improved	-6808
▁maintain	-6809
▁with▁all	-6810
ing▁in▁the	-6811
▁Thou▁hast	-6812
▁We▁should	-6813
▁hath▁been	-6814
▁okunoonya	-6815
▁the▁earth	-6816
ambuliranga	-6817
▁mu▁kiwonvu	-6818
▁sacrifices	-6819
▁the▁spread	-6820
▁Kristo▁Yesu	-6821
▁ku▁nkomerero	-6822
▁I▁beseech▁thee	-6823
bur	-6824
ics	-6825
▁Bo	-6826
aasa	-6827
bisi	-6828
muka	-6829
ston	-6830
yala	-6831
▁Ele	-6832
▁Ged	-6833
▁Oli	-6834
▁Son	-6835
▁Yak	-6836
▁lip	-6837
bebwa	-6838
imera	-6839
maama	-6840
ulula	-6841
▁Emis	-6842
▁buno	-6843
▁muno	-6844
ggyamu	-6845
saphat	-6846
▁Shall	-6847
▁citiz	-6848
▁desir	-6849
▁enemy	-6850
▁grass	-6851
▁in▁me	-6852
▁ku▁bw	-6853
▁linen	-6854
▁names	-6855
▁omuzi	-6856
ated▁to	-6857
▁conduc	-6858
▁embuzi	-6859
▁kiriba	-6860
▁myself	-6861
▁raised	-6862
▁secret	-6863
▁skills	-6864
▁speech	-6865
ma▁emiti	-6866
▁awamu▁n	-6867
▁comfort	-6868
▁defiled	-6869
▁nga▁bal	-6870
▁prepare	-6871
▁shall▁I	-6872
▁trumpet	-6873
▁And▁Saul	-6874
▁for▁thee	-6875
▁obugagga	-6876
▁They▁have	-6877
▁committee	-6878
▁the▁voice	-6879
▁among▁them	-6880
▁from▁their	-6881
▁messengers	-6882
▁Sulemaani▁n	-6883
▁ebigulumivu	-6884
▁the▁king▁of	-6885
▁Bannayuganda	-6886
▁mu▁biro▁ebyo	-6887
▁And▁they▁shall	-6888
▁there▁shall▁be	-6889
atr	-6890
pha	-6891
yee	-6892
bazi	-6893
ddle	-6894
fumu	-6895
okun	-6896
o▁go	-6897
wano	-6898
▁AND	-6899
▁mmu	-6900
diers	-6901
obera	-6902
ometh	-6903
▁egya	-6904
▁glad	-6905
addira	-6906
ention	-6907
fumita	-6908
ukanga	-6909
yimusa	-6910
zeddwa	-6911
▁Local	-6912
▁bones	-6913
▁goods	-6914
▁ngeri	-6915
▁wound	-6916
abalabe	-6917
alabika	-6918
anyanga	-6919
ikiddwa	-6920
lemenga	-6921
safaati	-6922
▁and▁by	-6923
▁bamala	-6924
▁ntikko	-6925
y▁of▁the	-6926
▁amagoba	-6927
▁ennyama	-6928
▁forward	-6929
▁is▁come	-6930
▁kubeera	-6931
▁my▁hand	-6932
▁the▁par	-6933
lyango▁gw	-6934
wendo▁gwa	-6935
▁buli▁omu	-6936
▁emigaati	-6937
▁in▁which	-6938
▁okusooka	-6939
ing▁of▁the	-6940
▁abasomesa	-6941
▁and▁every	-6942
▁my▁father	-6943
▁the▁place	-6944
▁embalirira	-6945
▁mu▁kifo▁ky	-6946
▁mu▁kkomera	-6947
▁mu▁nnyanja	-6948
▁nga▁tewali	-6949
▁mu▁yeekaalu	-6950
▁answered▁him	-6951
▁is▁one▁of▁the	-6952
▁There▁are▁many	-6953
ict	-6954
kye	-6955
agwa	-6956
azar	-6957
laim	-6958
ziya	-6959
▁Per	-6960
▁lim	-6961
▁met	-6962
▁nin	-6963
▁vol	-6964
amuwa	-6965
▁Dany	-6966
▁be▁n	-6967
▁dust	-6968
▁neck	-6969
enjuba	-6970
ennaku	-6971
▁baana	-6972
▁blasp	-6973
▁ebika	-6974
▁goeth	-6975
▁media	-6976
zuukira	-6977
▁If▁you	-6978
▁bubiri	-6979
▁era▁ol	-6980
▁happen	-6981
▁interp	-6982
▁in▁her	-6983
▁men▁of	-6984
▁ne▁mba	-6985
▁saints	-6986
itendera	-6987
omusajja	-6988
▁Samaria	-6989
▁accompl	-6990
▁ezzadde	-6991
▁kind▁of	-6992
▁malaria	-6993
▁ne▁basi	-6994
▁oneself	-6995
▁used▁to	-6996
amasomero	-6997
▁ku▁nsozi	-6998
▁stranger	-6999
▁zonna▁ez	-7000
empologoma	-7001
▁construct	-7002
▁obubonero	-7003
▁represent	-7004
▁very▁many	-7005
▁kinaabanga	-7006
▁out▁of▁his	-7007
▁the▁school	-7008
▁Yekosafaati	-7009
▁in▁the▁city	-7010
▁And▁the▁word	-7011
▁mu▁nnyumba▁ye	-7012
▁that▁they▁may	-7013
-19	-7014
ipp	-7015
jij	-7016
unt	-7017
uny	-7018
▁Pre	-7019
▁dou	-7020
▁pot	-7021
▁rod	-7022
agana	-7023
beeyi	-7024
erere	-7025
genyi	-7026
tives	-7027
▁Obul	-7028
▁game	-7029
▁hygi	-7030
▁mu▁G	-7031
▁ntya	-7032
▁rock	-7033
igious	-7034
omwaka	-7035
▁curse	-7036
▁least	-7037
▁of▁Jo	-7038
▁okuso	-7039
▁polic	-7040
▁south	-7041
▁taxes	-7042
bikkako	-7043
emikono	-7044
ulukuka	-7045
▁amangi	-7046
▁bbugwe	-7047
▁create	-7048
▁enjiri	-7049
▁entebe	-7050
▁favour	-7051
▁longer	-7052
▁materi	-7053
▁ne▁bak	-7054
▁okumpi	-7055
▁regard	-7056
▁temuli	-7057
▁to▁say	-7058
ebenkevu	-7059
▁breadth	-7060
▁bwammwe	-7061
▁heavens	-7062
▁of▁life	-7063
▁savings	-7064
▁upon▁it	-7065
ed▁to▁the	-7066
▁Yakobo▁n	-7067
▁anointed	-7068
▁gye▁bali	-7069
▁had▁been	-7070
▁him▁that	-7071
▁needs▁to	-7072
▁sons▁and	-7073
▁was▁come	-7074
▁Eddwaliro	-7075
▁Egyptians	-7076
▁Pharisees	-7077
▁before▁me	-7078
▁bwe▁byali	-7079
▁equipment	-7080
▁okusalawo	-7081
enda▁zaabwe	-7082
▁And▁behold	-7083
▁Isiraeri▁n	-7084
▁Keezeekiya	-7085
▁nga▁balina	-7086
▁taken▁away	-7087
▁Most▁of▁the	-7088
▁in▁that▁day	-7089
ebintu▁byonna	-7090
▁enteekateeka	-7091
▁of▁Education	-7092
▁obukiika▁obwa	-7093
▁opportunities	-7094
▁work▁together	-7095
▁Abantu▁abasinga	-7096
ah	-7097
by	-7098
ecr	-7099
hol	-7100
upa	-7101
uzi	-7102
igga	-7103
issa	-7104
▁Bak	-7105
▁Yas	-7106
▁unc	-7107
wummu	-7108
▁Gaba	-7109
▁Sion	-7110
▁ears	-7111
▁lino	-7112
▁otya	-7113
ananga	-7114
emenga	-7115
ensive	-7116
ggibwa	-7117
inistr	-7118
t▁have	-7119
▁Erisa	-7120
▁abaas	-7121
▁named	-7122
▁noise	-7123
▁Amorrh	-7124
▁and▁if	-7125
▁enkuba	-7126
▁eweema	-7127
▁famine	-7128
▁groups	-7129
▁hither	-7130
▁resist	-7131
jjanjaba	-7132
mawulire	-7133
▁leprosy	-7134
▁mu▁ggwe	-7135
▁njagala	-7136
▁okutend	-7137
▁wrought	-7138
se▁things	-7139
timbagano	-7140
▁and▁take	-7141
▁ennyingi	-7142
▁planning	-7143
▁twetaaga	-7144
weerezanga	-7145
▁and▁Aaron	-7146
▁and▁bring	-7147
▁mu▁mubiri	-7148
▁there▁are	-7149
▁the▁woman	-7150
▁mu▁bigambo	-7151
▁of▁the▁sea	-7152
▁There▁is▁an	-7153
▁akawungeezi	-7154
▁bassekabaka	-7155
▁fornication	-7156
▁The▁children▁of	-7157
▁mi	-7158
ingo	-7159
▁Mul	-7160
▁dil	-7161
agisa	-7162
banka	-7163
enkan	-7164
irizo	-7165
pozzi	-7166
suula	-7167
wonye	-7168
▁Levi	-7169
▁Road	-7170
▁amag	-7171
▁bawa	-7172
▁kibi	-7173
▁lift	-7174
▁lumu	-7175
▁mumu	-7176
▁sing	-7177
ferred	-7178
obwann	-7179
▁Ruben	-7180
▁and▁A	-7181
▁aside	-7182
▁board	-7183
▁branc	-7184
▁flour	-7185
▁force	-7186
▁motor	-7187
▁ne▁bi	-7188
▁nze▁n	-7189
▁tenth	-7190
▁touch	-7191
▁zaayo	-7192
als▁are	-7193
anoonya	-7194
indo▁gw	-7195
▁as▁far	-7196
▁bulabe	-7197
▁ku▁abo	-7198
▁matter	-7199
▁nnungi	-7200
▁poured	-7201
abaana▁b	-7202
wandiisa	-7203
▁Kirungi	-7204
▁done▁to	-7205
▁era▁bal	-7206
▁lead▁to	-7207
▁nga▁bat	-7208
buulirira	-7209
eweema▁ey	-7210
▁How▁much	-7211
▁Okuzimba	-7212
▁ekisinga	-7213
▁marriage	-7214
▁the▁camp	-7215
▁were▁not	-7216
▁dayimooni	-7217
▁ekirwadde	-7218
▁salvation	-7219
▁We▁need▁to	-7220
▁nga▁bwe▁ya	-7221
▁headteacher	-7222
▁this▁people	-7223
▁mutabani▁wa▁K	-7224
olf	-7225
eera	-7226
ekye	-7227
lied	-7228
ombe	-7229
oofu	-7230
zika	-7231
▁Sod	-7232
▁try	-7233
abali	-7234
herub	-7235
obubi	-7236
suuli	-7237
▁yatu	-7238
anibwa	-7239
embera	-7240
engera	-7241
▁Mwana	-7242
▁Their	-7243
▁cease	-7244
▁engag	-7245
▁gaayo	-7246
▁waste	-7247
ayimale	-7248
ebwanga	-7249
itation	-7250
▁Ne▁bas	-7251
▁Youths	-7252
▁fallen	-7253
▁for▁me	-7254
▁intern	-7255
▁ku▁bal	-7256
▁obwavu	-7257
obugagga	-7258
▁Bulijjo	-7259
▁Emirimu	-7260
▁consecr	-7261
▁doctors	-7262
▁instruc	-7263
▁success	-7264
▁but▁they	-7265
▁era▁bali	-7266
▁hath▁not	-7267
▁in▁order	-7268
▁like▁the	-7269
▁okuteesa	-7270
▁okwetaba	-7271
▁this▁man	-7272
lyango▁ogw	-7273
ongoosebwa	-7274
▁bwe▁baali	-7275
▁bwe▁kyali	-7276
▁mu▁muliro	-7277
▁that▁have	-7278
▁unto▁them	-7279
▁mu▁bibiina	-7280
▁ne▁balyoka	-7281
▁obulamu▁bw	-7282
▁pulayimale	-7283
▁agriculture	-7284
▁Awo▁kabaka▁n	-7285
▁ekiweebwayo▁olw	-7286
jum	-7287
mum	-7288
ull	-7289
ator	-7290
inde	-7291
▁Ndi	-7292
▁Twa	-7293
abiri	-7294
aniel	-7295
ddeyo	-7296
ebika	-7297
eeker	-7298
genzi	-7299
gidde	-7300
obozi	-7301
onies	-7302
▁buna	-7303
▁chur	-7304
▁erit	-7305
▁male	-7306
▁root	-7307
▁stat	-7308
angamu	-7309
omuddu	-7310
▁and▁H	-7311
▁baamu	-7312
▁drunk	-7313
▁is▁an	-7314
alinnya	-7315
obuwala	-7316
▁Ennaku	-7317
▁bafuna	-7318
▁gender	-7319
▁prayer	-7320
▁advised	-7321
▁babeera	-7322
▁basajja	-7323
▁ekirabo	-7324
▁for▁thy	-7325
▁friends	-7326
▁hygiene	-7327
▁omusang	-7328
▁so▁teba	-7329
abalwadde	-7330
kaludaaya	-7331
▁be▁bonna	-7332
▁bwe▁bana	-7333
▁bwe▁ntyo	-7334
▁cut▁down	-7335
▁ebweru▁w	-7336
▁of▁Moses	-7337
▁reported	-7338
▁mwannyina	-7339
▁allowed▁to	-7340
▁enter▁into	-7341
▁kaabuyonjo	-7342
▁nnaku▁zino	-7343
▁The▁project	-7344
▁high▁places	-7345
▁okusaasaana	-7346
▁The▁ministry	-7347
▁mu▁mukono▁gwo	-7348
▁understanding	-7349
▁ku▁disitulikiti	-7350
▁which▁thou▁hast	-7351
opi	-7352
pul	-7353
emen	-7354
gugu	-7355
here	-7356
iced	-7357
kimu	-7358
leka	-7359
okwo	-7360
road	-7361
ties	-7362
▁Leb	-7363
▁abs	-7364
▁ayo	-7365
▁bik	-7366
▁fer	-7367
▁pas	-7368
ength	-7369
itebe	-7370
▁lose	-7371
▁used	-7372
ddwamu	-7373
omugga	-7374
▁agamu	-7375
▁and▁c	-7376
▁devil	-7377
▁emplo	-7378
▁erimu	-7379
▁ku▁mi	-7380
▁olina	-7381
▁omuto	-7382
galanga	-7383
▁Daniel	-7384
▁conver	-7385
▁ddembe	-7386
▁if▁you	-7387
▁kwaffe	-7388
▁nga▁ki	-7389
▁of▁men	-7390
ereranga	-7391
ganyulwa	-7392
▁Abavuzi	-7393
▁concern	-7394
▁continu	-7395
▁ne▁bann	-7396
▁of▁gold	-7397
▁quickly	-7398
▁sent▁me	-7399
▁vanilla	-7400
▁went▁in	-7401
▁you▁not	-7402
▁Batabani	-7403
▁Josaphat	-7404
▁and▁make	-7405
▁contract	-7406
▁kkampuni	-7407
▁okutwala	-7408
ations▁are	-7409
▁of▁Christ	-7410
▁residents	-7411
ed▁together	-7412
▁leadership	-7413
▁parliament	-7414
▁ku▁baana▁ba	-7415
▁ebikozesebwa	-7416
▁his▁servants	-7417
▁omubereberye	-7418
▁omutuukirivu	-7419
▁saith▁to▁him	-7420
▁to▁them▁that	-7421
▁asinga▁obukulu	-7422
ifu	-7423
ili	-7424
ott	-7425
▁Os	-7426
chie	-7427
za▁n	-7428
zito	-7429
▁Can	-7430
▁Sal	-7431
▁Tim	-7432
▁bap	-7433
▁hot	-7434
▁kal	-7435
▁lib	-7436
▁tit	-7437
abawa	-7438
cloth	-7439
kwasa	-7440
munye	-7441
olina	-7442
viiri	-7443
▁Musl	-7444
ateesa	-7445
zannya	-7446
▁Gaadi	-7447
▁bye▁n	-7448
▁ewaka	-7449
▁false	-7450
▁happy	-7451
▁heads	-7452
▁ku▁ky	-7453
▁ku▁ye	-7454
▁moved	-7455
▁mungi	-7456
▁munna	-7457
▁shame	-7458
▁wants	-7459
imelech	-7460
okusoma	-7461
osquito	-7462
yonoona	-7463
▁Hospit	-7464
▁amanyi	-7465
▁around	-7466
▁fought	-7467
▁golden	-7468
▁lukumi	-7469
ategeeza	-7470
idential	-7471
▁Omukazi	-7472
▁ekitone	-7473
▁foolish	-7474
▁mulungi	-7475
▁omukono	-7476
▁with▁us	-7477
alalagala	-7478
ayinza▁ku	-7479
▁akaleeta	-7480
▁and▁cast	-7481
▁and▁gave	-7482
▁continue	-7483
▁ekyo▁kye	-7484
▁funds▁to	-7485
▁the▁fire	-7486
▁with▁thy	-7487
▁celebrate	-7488
▁for▁the▁s	-7489
▁bye▁yakola	-7490
▁came▁to▁me	-7491
▁increasing	-7492
▁in▁society	-7493
▁ku▁poliisi	-7494
▁okubuulira	-7495
▁This▁is▁the	-7496
▁bwe▁yali▁ng	-7497
▁obulamu▁bwe	-7498
▁there▁is▁no	-7499
iragalalagala	-7500
▁the▁son▁of▁J	-7501
▁ku▁lunaku▁luli	-7502
ganya▁ebirowoozo	-7503
▁health▁services	-7504
vv	-7505
fic	-7506
tya	-7507
ancy	-7508
ific	-7509
vuun	-7510
▁Dan	-7511
▁Mes	-7512
▁boy	-7513
agula	-7514
amaze	-7515
asiro	-7516
banja	-7517
erobo	-7518
ethod	-7519
roduc	-7520
yibwa	-7521
yingi	-7522
zinga	-7523
▁enku	-7524
▁hill	-7525
▁maid	-7526
▁reso	-7527
▁wash	-7528
embuto	-7529
ikondo	-7530
isaawe	-7531
julizi	-7532
usuuli	-7533
▁abode	-7534
▁baayo	-7535
▁broke	-7536
▁clear	-7537
▁mayst	-7538
ikirize	-7539
kanyavu	-7540
kubanga	-7541
▁empagi	-7542
▁mulabe	-7543
▁nguudo	-7544
▁okuzza	-7545
ateekera	-7546
isiraeri	-7547
obusungu	-7548
▁Abakazi	-7549
▁Kitaffe	-7550
▁culture	-7551
▁ebitali	-7552
▁eddungi	-7553
▁nnyumba	-7554
▁primary	-7555
▁them▁to	-7556
▁Teachers	-7557
▁abatuula	-7558
▁expected	-7559
▁nange▁na	-7560
▁prophesy	-7561
▁his▁house	-7562
▁implement	-7563
▁okuziyiza	-7564
▁by▁the▁way	-7565
▁conditions	-7566
▁emirembe▁n	-7567
▁eteekeddwa	-7568
▁nga▁byonna	-7569
▁brought▁him	-7570
▁exceedingly	-7571
▁and▁his▁sons	-7572
▁by▁the▁sword	-7573
s▁of▁the▁earth	-7574
▁of▁the▁temple	-7575
▁Nd	-7576
buke	-7577
cial	-7578
tage	-7579
uufu	-7580
yege	-7581
▁a▁b	-7582
▁fig	-7583
▁sil	-7584
▁sla	-7585
binja	-7586
obole	-7587
ooper	-7588
ously	-7589
thing	-7590
ustri	-7591
▁Kino	-7592
▁afar	-7593
▁giri	-7594
▁mist	-7595
▁okuv	-7596
erwako	-7597
jumani	-7598
kiddwa	-7599
kirira	-7600
kolero	-7601
lemish	-7602
▁as▁he	-7603
▁okuki	-7604
▁short	-7605
▁wrong	-7606
andiika	-7607
andikwa	-7608
ed▁that	-7609
itution	-7610
▁Amazzi	-7611
▁ku▁mus	-7612
▁method	-7613
▁reduce	-7614
▁tteeka	-7615
malirizo	-7616
▁We▁were	-7617
▁ababaka	-7618
▁and▁sle	-7619
▁ejjinja	-7620
▁in▁thee	-7621
▁okubala	-7622
▁oppress	-7623
▁someone	-7624
emikono▁g	-7625
entambula	-7626
▁Mukama▁w	-7627
▁chariots	-7628
▁programs	-7629
▁speaking	-7630
▁the▁pres	-7631
▁who▁have	-7632
▁okwegatta	-7633
▁iniquities	-7634
▁okuteekawo	-7635
▁seven▁days	-7636
▁mu▁mikono▁g	-7637
▁ne▁bajjajja	-7638
▁said▁to▁the	-7639
▁things▁that	-7640
▁And▁when▁the	-7641
▁Gavumenti▁ya	-7642
▁The▁minister	-7643
▁bwe▁yalagira	-7644
▁out▁of▁Egypt	-7645
▁saith▁to▁them	-7646
eri▁mutabani▁wa	-7647
▁erinnya▁lyange	-7648
ror	-7649
▁Tr	-7650
▁el	-7651
bawa	-7652
gues	-7653
iira	-7654
ners	-7655
ooli	-7656
peak	-7657
▁lit	-7658
▁tee	-7659
afuga	-7660
itive	-7661
onnyo	-7662
teesa	-7663
▁Seta	-7664
▁flow	-7665
▁rate	-7666
▁tuba	-7667
angula	-7668
atudde	-7669
elines	-7670
▁abide	-7671
▁basic	-7672
▁mwoyo	-7673
▁of▁an	-7674
▁oyo▁a	-7675
▁pleas	-7676
jjammwe	-7677
suubira	-7678
zaalira	-7679
▁Hebron	-7680
▁abroad	-7681
▁adored	-7682
▁highly	-7683
▁nga▁si	-7684
▁omukka	-7685
emberera	-7686
endwadde	-7687
onooneka	-7688
▁Abakris	-7689
▁for▁sin	-7690
▁obululu	-7691
▁portion	-7692
▁to▁keep	-7693
omoozebwa	-7694
▁Adjumani	-7695
▁manifest	-7696
▁yalagira	-7697
s▁of▁their	-7698
▁Samwiri▁n	-7699
▁and▁after	-7700
▁the▁fruit	-7701
▁Abusaalomu	-7702
▁Awo▁kabaka	-7703
▁ku▁ngeri▁y	-7704
▁muganda▁wo	-7705
▁mu▁kibiina	-7706
▁of▁Chanaan	-7707
▁okutegeeza	-7708
▁came▁to▁the	-7709
▁okutuuka▁ku	-7710
▁that▁we▁may	-7711
▁the▁seventh	-7712
▁The▁chairman	-7713
▁ba▁gavumenti	-7714
▁mu▁lusiisira	-7715
▁Katonda▁waffe	-7716
▁upon▁the▁altar	-7717
der	-7718
ses	-7719
cher	-7720
idde	-7721
ilty	-7722
itor	-7723
obwe	-7724
sima	-7725
were	-7726
▁Any	-7727
▁Ker	-7728
▁Mwe	-7729
▁tez	-7730
▁win	-7731
alous	-7732
ed▁at	-7733
ennya	-7734
fuuse	-7735
kambi	-7736
ology	-7737
poota	-7738
taana	-7739
ulter	-7740
▁deal	-7741
▁guna	-7742
▁kuna	-7743
▁touc	-7744
ebweru	-7745
giddwa	-7746
stance	-7747
▁Akazi	-7748
▁aston	-7749
▁ekina	-7750
▁era▁a	-7751
▁exams	-7752
▁feast	-7753
▁ku▁nd	-7754
▁wrote	-7755
ecurity	-7756
ing▁out	-7757
okunywa	-7758
uubirwa	-7759
▁Ettaka	-7760
▁affect	-7761
▁behind	-7762
▁breast	-7763
▁future	-7764
▁resour	-7765
indirira	-7766
iversity	-7767
kuŋŋaana	-7768
pikipiki	-7769
▁era▁aba	-7770
▁married	-7771
▁okuleka	-7772
▁the▁cap	-7773
eddwaliro	-7774
galiraaya	-7775
mumirembe	-7776
▁Era▁naye	-7777
▁educated	-7778
▁followed	-7779
▁let▁them	-7780
▁okuleeta	-7781
▁oluguudo	-7782
▁presence	-7783
▁promised	-7784
▁reproach	-7785
enyumiriza	-7786
okuweereza	-7787
▁Omukulu▁w	-7788
▁emikono▁g	-7789
▁ku▁nguudo	-7790
▁went▁down	-7791
agolokoka▁n	-7792
▁How▁can▁we	-7793
▁affliction	-7794
▁in▁all▁the	-7795
▁that▁which	-7796
▁I▁will▁give	-7797
▁abasajja▁ab	-7798
▁involved▁in	-7799
▁mugaso▁nnyo	-7800
▁nnyo▁nnyini	-7801
▁part▁of▁the	-7802
▁mu▁bwakabaka	-7803
▁of▁the▁world	-7804
▁Ekitongole▁ky	-7805
▁in▁the▁desert	-7806
▁obulwadde▁bwa	-7807
▁ennaku▁musanvu	-7808
▁into▁the▁house	-7809
▁and▁it▁shall▁be	-7810
▁okukolera▁awamu	-7811
ey	-7812
zz	-7813
alm	-7814
hop	-7815
▁je	-7816
amwa	-7817
kasa	-7818
koka	-7819
siya	-7820
▁Abe	-7821
▁Kam	-7822
▁ann	-7823
▁a▁p	-7824
▁ejj	-7825
apula	-7826
cohol	-7827
ebiri	-7828
gaati	-7829
genge	-7830
inate	-7831
ishop	-7832
omuti	-7833
▁deep	-7834
▁kitu	-7835
▁milk	-7836
▁mutu	-7837
ajja▁n	-7838
atives	-7839
engalo	-7840
ensalo	-7841
mwa▁ke	-7842
zzadde	-7843
▁Ebifo	-7844
▁Edomu	-7845
▁okuna	-7846
▁price	-7847
buulire	-7848
entiisa	-7849
ggulawo	-7850
walanga	-7851
▁effort	-7852
▁experi	-7853
▁garden	-7854
▁lirina	-7855
▁obtain	-7856
▁adulter	-7857
▁besides	-7858
▁confirm	-7859
▁ebirabo	-7860
▁ekirina	-7861
▁getting	-7862
▁sitting	-7863
▁National	-7864
▁innocent	-7865
▁of▁Jacob	-7866
jogera▁nti	-7867
kuŋŋaaniro	-7868
▁Lewubeeni	-7869
▁ku▁mukono	-7870
▁mu▁kukola	-7871
ettendekero	-7872
▁Abantu▁bas	-7873
▁and▁I▁have	-7874
▁okubeera▁n	-7875
▁okutambula	-7876
▁okuwangula	-7877
eraliikirira	-7878
▁that▁I▁have	-7879
▁and▁there▁is	-7880
▁obulamu▁bwabwe	-7881
▁abayigirizwa▁be	-7882
),	-7883
eza	-7884
gem	-7885
ift	-7886
joo	-7887
char	-7888
hest	-7889
koza	-7890
nago	-7891
yiri	-7892
yoyo	-7893
▁Twe	-7894
▁doc	-7895
▁ssi	-7896
annee	-7897
ko▁en	-7898
oonya	-7899
right	-7900
tuuma	-7901
yimbi	-7902
▁oath	-7903
akwach	-7904
emebwa	-7905
ged▁to	-7906
itaayo	-7907
keddwa	-7908
lekera	-7909
maguzi	-7910
ughter	-7911
▁He▁is	-7912
▁Speak	-7913
▁and▁C	-7914
▁arise	-7915
▁const	-7916
▁ludda	-7917
▁mwali	-7918
▁obumu	-7919
▁okubu	-7920
▁reduc	-7921
▁takes	-7922
bula▁ly	-7923
irwanga	-7924
olokofu	-7925
wangayo	-7926
▁angels	-7927
▁but▁he	-7928
▁ebipya	-7929
▁filled	-7930
▁guilty	-7931
▁higher	-7932
▁ku▁but	-7933
kondeere	-7934
kuumanga	-7935
▁amazima	-7936
▁and▁one	-7937
▁ebirime	-7938
▁for▁all	-7939
▁growing	-7940
▁obunene	-7941
▁okugula	-7942
▁was▁the	-7943
▁whither	-7944
amawulire	-7945
▁art▁thou	-7946
▁bangi▁ba	-7947
▁bonna▁ba	-7948
▁ddoboozi	-7949
▁everyone	-7950
▁mourning	-7951
▁obukuumi	-7952
▁shall▁he	-7953
▁to▁fight	-7954
▁to▁start	-7955
▁companies	-7956
▁dangerous	-7957
▁kukolebwa	-7958
▁no▁longer	-7959
ebugwanjuba	-7960
▁Poliisi▁ya	-7961
▁amangu▁ago	-7962
▁beyond▁the	-7963
▁his▁people	-7964
ing▁to▁their	-7965
▁batabani▁be	-7966
▁her▁husband	-7967
▁mu▁kifo▁kya	-7968
▁obutonde▁bw	-7969
▁that▁he▁may	-7970
▁against▁them	-7971
▁bajjajjaabwe	-7972
▁bwe▁yawulira	-7973
▁ga▁gavumenti	-7974
▁ne▁basiisira	-7975
▁okutandikawo	-7976
imanya▁nga▁nze	-7977
▁Now▁therefore	-7978
▁the▁son▁of▁Jo	-7979
▁and▁the▁people	-7980
▁And▁when▁he▁was	-7981
▁mu▁maaso▁gammwe	-7982
▁newakubadde▁nga	-7983
▁responsible▁for	-7984
azo	-7985
anus	-7986
atha	-7987
cend	-7988
kuwa	-7989
moli	-7990
vujj	-7991
wo▁n	-7992
▁Acc	-7993
▁New	-7994
▁Sid	-7995
aleet	-7996
antly	-7997
ebera	-7998
idiya	-7999
kyama	-8000
round	-8001
ulemu	-8002
▁Ebis	-8003
▁Have	-8004
▁kiro	-8005
▁kutu	-8006
▁rams	-8007
▁scar	-8008
abeere	-8009
aloosa	-8010
igibwa	-8011
ituula	-8012
wanira	-8013
ŋŋanga	-8014
▁carri	-8015
▁dilig	-8016
▁exist	-8017
▁go▁up	-8018
▁hence	-8019
▁homes	-8020
▁plain	-8021
▁purch	-8022
▁staff	-8023
eth▁not	-8024
imbibwa	-8025
▁bodies	-8026
▁emyezi	-8027
▁kakumi	-8028
▁riches	-8029
▁street	-8030
▁to▁all	-8031
▁washed	-8032
▁worthy	-8033
kulukuta	-8034
ronicles	-8035
▁Omulimu	-8036
▁alcohol	-8037
▁amakulu	-8038
▁blemish	-8039
▁gwammwe	-8040
▁operate	-8041
▁the▁str	-8042
▁to▁your	-8043
anyisibwa	-8044
▁Moreover	-8045
▁abali▁mu	-8046
▁blessing	-8047
▁forsaken	-8048
▁ku▁myaka	-8049
▁watukuvu	-8050
Abayudaaya	-8051
isiikirize	-8052
▁Chaldeans	-8053
▁The▁youth	-8054
▁administr	-8055
▁in▁pieces	-8056
▁next▁year	-8057
bonerezebwa	-8058
gumiikiriza	-8059
▁ensi▁yonna	-8060
▁the▁prince	-8061
obukulembeze	-8062
▁traditional	-8063
▁his▁brethren	-8064
▁omulundi▁ogw	-8065
▁from▁the▁Lord	-8066
▁ne▁baganda▁be	-8067
onyaabonyezebwa	-8068
▁Oluvannyuma▁lw	-8069
▁kyawandiikibwa	-8070
▁Abantu▁tebalina	-8071
▁peace▁offerings	-8072
gon	-8073
ram	-8074
wol	-8075
anan	-8076
guma	-8077
ises	-8078
koma	-8079
komo	-8080
maid	-8081
wore	-8082
▁Dur	-8083
▁min	-8084
▁ren	-8085
ba▁ng	-8086
kyamu	-8087
▁jobs	-8088
▁laws	-8089
▁or▁a	-8090
▁pros	-8091
▁remn	-8092
▁talk	-8093
▁up▁a	-8094
Omwoyo	-8095
alists	-8096
enenya	-8097
▁abatu	-8098
▁cubit	-8099
▁go▁in	-8100
▁habit	-8101
▁kyeba	-8102
▁popul	-8103
inished	-8104
leetera	-8105
ologiya	-8106
werinda	-8107
yambako	-8108
▁belong	-8109
▁closed	-8110
▁galina	-8111
▁okumus	-8112
▁persec	-8113
▁reason	-8114
▁thanks	-8115
▁toward	-8116
emmotoka	-8117
okwagala	-8118
▁Pakwach	-8119
▁Waaliwo	-8120
▁appreci	-8121
▁consume	-8122
▁driving	-8123
▁ekikulu	-8124
▁essanyu	-8125
▁knowest	-8126
▁require	-8127
▁to▁work	-8128
▁whereas	-8129
er▁of▁the	-8130
kalakaasa	-8131
▁They▁are	-8132
▁bijja▁ku	-8133
▁bwe▁kiri	-8134
▁decision	-8135
▁eruuyi▁n	-8136
▁olutindo	-8137
▁omuzaana	-8138
▁the▁work	-8139
▁their▁God	-8140
▁the▁water	-8141
▁wilt▁thou	-8142
▁every▁year	-8143
▁guidelines	-8144
▁ku▁nnyumba	-8145
▁shall▁take	-8146
▁those▁days	-8147
abantu▁bange	-8148
ebyemizannyo	-8149
▁amaaso▁gange	-8150
▁bwe▁baawulira	-8151
▁Abantu▁beetaaga	-8152
▁And▁the▁sons▁of	-8153
ha	-8154
gun	-8155
oop	-8156
yoo	-8157
aasi	-8158
iful	-8159
kose	-8160
olen	-8161
▁Woe	-8162
▁saf	-8163
▁wel	-8164
atula	-8165
burbs	-8166
ebibi	-8167
ekifo	-8168
yooma	-8169
zimbi	-8170
▁Know	-8171
▁akas	-8172
▁fair	-8173
▁herd	-8174
▁mill	-8175
▁obwo	-8176
▁pain	-8177
▁scri	-8178
▁tour	-8179
itwala	-8180
onoono	-8181
umpuli	-8182
yawula	-8183
▁Alina	-8184
▁abana	-8185
▁reach	-8186
▁slept	-8187
abirako	-8188
erikale	-8189
▁bulamu	-8190
▁bwe▁nd	-8191
▁deceit	-8192
▁due▁to	-8193
▁either	-8194
▁emitwe	-8195
▁in▁law	-8196
▁in▁one	-8197
▁mulala	-8198
▁okunyi	-8199
▁render	-8200
▁to▁pay	-8201
ayambuka	-8202
ennyonyi	-8203
gulumiza	-8204
obulungi	-8205
▁Eleazar	-8206
▁abatali	-8207
▁emitima	-8208
▁form▁of	-8209
▁mu▁matu	-8210
▁my▁face	-8211
▁the▁ark	-8212
▁the▁day	-8213
▁thither	-8214
▁victims	-8215
enyezebwa	-8216
▁ennimiro	-8217
▁for▁this	-8218
▁kindreds	-8219
▁nga▁teba	-8220
▁of▁death	-8221
▁omwana▁w	-8222
▁the▁name	-8223
▁the▁poor	-8224
▁zijja▁ku	-8225
kyukakyuka	-8226
▁all▁their	-8227
▁effective	-8228
▁which▁are	-8229
▁young▁men	-8230
▁The▁public	-8231
▁of▁all▁the	-8232
▁shall▁have	-8233
▁amakumi▁ana	-8234
▁bwe▁baalaba	-8235
▁the▁country	-8236
▁that▁you▁may	-8237
▁to▁Jerusalem	-8238
▁said▁to▁Moses	-8239
▁three▁hundred	-8240
▁amawanga▁gonna	-8241
▁for▁the▁people	-8242
▁in▁like▁manner	-8243
amm	-8244
fac	-8245
▁Ez	-8246
▁jj	-8247
▁ko	-8248
aper	-8249
iteg	-8250
olwa	-8251
oopa	-8252
pent	-8253
zoni	-8254
▁Emm	-8255
akuba	-8256
erezo	-8257
oboka	-8258
okumu	-8259
waawa	-8260
weera	-8261
▁Biki	-8262
▁alis	-8263
▁beet	-8264
▁defe	-8265
▁hell	-8266
▁lips	-8267
▁okuf	-8268
▁repa	-8269
▁risk	-8270
▁tent	-8271
aba▁na	-8272
addayo	-8273
enguzi	-8274
entebe	-8275
ggyawo	-8276
irwana	-8277
isaala	-8278
mulaba	-8279
▁Ani▁a	-8280
▁and▁G	-8281
▁helps	-8282
▁kidna	-8283
▁widow	-8284
eth▁his	-8285
ference	-8286
okufuna	-8287
wumpuli	-8288
▁Bethel	-8289
▁Ddaani	-8290
▁bulina	-8291
▁custom	-8292
▁eddene	-8293
▁escape	-8294
▁kye▁ba	-8295
▁morrow	-8296
▁ndyoke	-8297
▁someth	-8298
alamenti	-8299
unguwaza	-8300
▁Simooni	-8301
▁accused	-8302
▁and▁our	-8303
▁as▁they	-8304
▁birungi	-8305
▁divided	-8306
inologiya	-8307
obulwadde	-8308
▁and▁were	-8309
▁branches	-8310
▁enda▁eya	-8311
▁ludda▁wa	-8312
▁omulenzi	-8313
▁year▁old	-8314
▁abaddu▁be	-8315
▁accidents	-8316
▁and▁drink	-8317
▁had▁heard	-8318
▁mu▁bunnya	-8319
▁stretched	-8320
▁with▁fire	-8321
▁Chronicles	-8322
▁because▁he	-8323
▁enkomerero	-8324
▁infrastruc	-8325
▁which▁they	-8326
▁generations	-8327
▁mwana▁wange	-8328
▁their▁lives	-8329
abaana▁baabwe	-8330
▁Awo▁Mukama▁n	-8331
▁and▁the▁king	-8332
▁basobola▁oku	-8333
genda▁mu▁maaso	-8334
▁Behold▁I▁will	-8335
▁ekigambo▁ekyo	-8336
ebiweebwayo▁olw	-8337
▁in▁rural▁areas	-8338
▁Abantu▁abamu▁ba	-8339
mit	-8340
uns	-8341
▁Me	-8342
amat	-8343
emor	-8344
ourt	-8345
▁Emi	-8346
▁gus	-8347
▁hat	-8348
▁ima	-8349
▁inj	-8350
▁san	-8351
▁tor	-8352
aliyo	-8353
amber	-8354
ayers	-8355
erezi	-8356
kaayi	-8357
times	-8358
uliza	-8359
▁Fear	-8360
▁Leko	-8361
▁Yeri	-8362
▁enko	-8363
▁eyas	-8364
▁fine	-8365
▁kika	-8366
▁nets	-8367
▁ne▁G	-8368
▁reck	-8369
▁rule	-8370
▁shot	-8371
▁wedd	-8372
abenga	-8373
amenya	-8374
azimba	-8375
s▁of▁a	-8376
▁and▁l	-8377
▁bapti	-8378
▁cross	-8379
▁event	-8380
▁heavy	-8381
▁influ	-8382
▁legal	-8383
▁match	-8384
▁medic	-8385
▁mu▁ss	-8386
▁myaka	-8387
▁ne▁bu	-8388
▁souls	-8389
dagaano	-8390
enkanya	-8391
ezzadde	-8392
wulidde	-8393
▁byakyo	-8394
▁elders	-8395
▁for▁us	-8396
▁go▁out	-8397
▁handle	-8398
▁judged	-8399
▁record	-8400
▁temper	-8401
endogoyi	-8402
▁mu▁maku	-8403
▁obuzibu	-8404
▁olugero	-8405
▁running	-8406
▁we▁will	-8407
▁yali▁ng	-8408
▁also▁the	-8409
▁and▁give	-8410
▁and▁this	-8411
▁bwe▁gali	-8412
▁from▁him	-8413
▁ku▁mmere	-8414
▁mu▁budde	-8415
▁precious	-8416
▁thy▁eyes	-8417
okutegeera	-8418
▁Abimereki	-8419
▁amawulire	-8420
▁every▁day	-8421
▁obuyinike	-8422
▁over▁them	-8423
▁thy▁heart	-8424
oluvannyuma	-8425
▁Eriyazaali	-8426
▁confounded	-8427
▁encouraged	-8428
▁distributed	-8429
▁the▁servant	-8430
▁Ebyomumirembe	-8431
▁amasannyalaze	-8432
atanula▁okufuga	-8433
omuwendo▁omungi	-8434
▁Parents▁should	-8435
com	-8436
ivi	-8437
adab	-8438
amar	-8439
ivid	-8440
kalu	-8441
oluk	-8442
olve	-8443
soci	-8444
tees	-8445
▁Nas	-8446
▁Rem	-8447
▁Tal	-8448
▁eph	-8449
▁fil	-8450
▁gut	-8451
jured	-8452
nyago	-8453
saamu	-8454
ubala	-8455
▁forg	-8456
▁hate	-8457
▁hurt	-8458
▁late	-8459
▁ne▁B	-8460
▁teri	-8461
▁vote	-8462
anooni	-8463
anyaga	-8464
ituusa	-8465
tegeka	-8466
▁Banna	-8467
▁I▁saw	-8468
▁byalo	-8469
▁ebiva	-8470
▁eriri	-8471
▁in▁an	-8472
▁loans	-8473
▁lyali	-8474
▁sixty	-8475
▁ye▁mu	-8476
tenance	-8477
▁abeera	-8478
▁atuula	-8479
▁burden	-8480
▁bwakyo	-8481
▁empaka	-8482
▁ennene	-8483
▁hinder	-8484
▁ku▁kit	-8485
▁mubiri	-8486
▁neighb	-8487
▁provok	-8488
▁sudden	-8489
amagaali	-8490
ayikondo	-8491
obola▁ku	-8492
ukawo▁kw	-8493
▁Libanus	-8494
▁at▁home	-8495
▁a▁house	-8496
▁contest	-8497
▁have▁no	-8498
▁okunywa	-8499
▁out▁the	-8500
▁so▁that	-8501
▁thieves	-8502
▁unto▁me	-8503
▁wamu▁ne	-8504
▁Yusufu▁n	-8505
▁churches	-8506
▁gye▁tuli	-8507
▁mosquito	-8508
▁pregnant	-8509
waawaatiro	-8510
▁Christian	-8511
▁Peetero▁n	-8512
▁amasomero	-8513
▁ekizikiza	-8514
▁And▁in▁the	-8515
▁Embalirira	-8516
▁beenyigira	-8517
▁confidence	-8518
▁Akakiiko▁ka	-8519
▁Batabani▁ba	-8520
▁before▁them	-8521
▁clean▁water	-8522
▁erinnya▁lya	-8523
▁okukendeeza	-8524
▁towards▁the	-8525
▁okusomesebwa	-8526
▁the▁servants	-8527
▁Okunoonyereza	-8528
▁brought▁forth	-8529
kkono▁bwa▁Uganda	-8530
▁ebiragalalagala	-8531
gs	-8532
▁i	-8533
ewa	-8534
▁Ex	-8535
▁Ty	-8536
adow	-8537
edar	-8538
edec	-8539
eevu	-8540
tray	-8541
tuma	-8542
uted	-8543
yria	-8544
▁fre	-8545
▁mum	-8546
▁ran	-8547
▁won	-8548
ander	-8549
okuwa	-8550
wundu	-8551
▁cong	-8552
ademic	-8553
enjuki	-8554
enyeka	-8555
▁Abune	-8556
▁Labba	-8557
▁Simon	-8558
▁doctr	-8559
▁eriba	-8560
▁issue	-8561
▁okuko	-8562
▁plans	-8563
▁shill	-8564
▁spent	-8565
▁swore	-8566
amakumi	-8567
aweebwa	-8568
edecias	-8569
obugazi	-8570
omestic	-8571
▁I▁also	-8572
▁and▁an	-8573
▁empewo	-8574
▁mpozzi	-8575
gambibwa	-8576
omunaana	-8577
▁good▁to	-8578
▁nze▁ndi	-8579
▁observe	-8580
▁obulemu	-8581
▁penance	-8582
▁remnant	-8583
▁the▁pre	-8584
▁with▁my	-8585
▁worship	-8586
▁year▁of	-8587
▁Golokoka	-8588
▁citizens	-8589
▁ennyanja	-8590
▁ignorant	-8591
▁words▁of	-8592
▁ai▁Mukama	-8593
▁kubanga▁n	-8594
▁shall▁eat	-8595
▁the▁flesh	-8596
▁the▁whole	-8597
▁wakati▁wa	-8598
akamalirizo	-8599
▁bwa▁Mukama	-8600
▁eddembe▁ly	-8601
▁ekitongole	-8602
▁eri▁kabaka	-8603
▁muliraanwa	-8604
▁thy▁father	-8605
▁ebiriraanye	-8606
▁e▁Babulooni	-8607
▁king▁of▁the	-8608
▁omuwandiisi	-8609
ebyalo▁byakyo	-8610
abagamba▁nti▁M	-8611
▁And▁you▁shall	-8612
▁There▁will▁be	-8613
▁okusaasaana▁kw	-8614
▁ekibiina▁kyonna	-8615
▁ekiweebwayo▁eky	-8616
Ab	-8617
tuu	-8618
yal	-8619
▁ir	-8620
abee	-8621
ades	-8622
ekis	-8623
erus	-8624
icho	-8625
kaba	-8626
okum	-8627
resp	-8628
serv	-8629
zizi	-8630
▁Ada	-8631
▁enc	-8632
▁fem	-8633
▁tar	-8634
amira	-8635
ed▁on	-8636
inywa	-8637
isiba	-8638
iting	-8639
▁Zach	-8640
▁agat	-8641
▁disa	-8642
▁nine	-8643
▁reap	-8644
▁reve	-8645
▁tebi	-8646
▁womb	-8647
▁yoke	-8648
aganya	-8649
eddeki	-8650
eredde	-8651
komole	-8652
▁Damas	-8653
▁Leevi	-8654
▁Naawe	-8655
▁akabi	-8656
▁apart	-8657
▁charg	-8658
▁lying	-8659
▁of▁me	-8660
▁risen	-8661
▁yaayo	-8662
afugira	-8663
poliisi	-8664
yizibwa	-8665
▁choose	-8666
▁enjuba	-8667
▁expect	-8668
▁feared	-8669
▁ggwe▁n	-8670
▁itself	-8671
▁thirst	-8672
est▁Nile	-8673
idiyaani	-8674
iriddeko	-8675
olukiiko	-8676
unguwala	-8677
yimiriza	-8678
▁If▁thou	-8679
▁and▁may	-8680
▁came▁up	-8681
▁declare	-8682
▁ekiruyi	-8683
▁era▁ali	-8684
▁era▁ana	-8685
▁eŋŋaano	-8686
▁in▁Arua	-8687
▁olusozi	-8688
▁oyo▁eya	-8689
▁planted	-8690
▁shepher	-8691
atwalibwa	-8692
ekiragiro	-8693
ile▁money	-8694
umenyi▁bw	-8695
▁Buli▁omu	-8696
▁Okulonda	-8697
▁bwetaavu	-8698
▁eighteen	-8699
▁go▁forth	-8700
▁mu▁myaka	-8701
▁okukomya	-8702
▁olukiiko	-8703
▁peaceful	-8704
okusaasira	-8705
zimbulukus	-8706
▁Abakulu▁b	-8707
▁are▁being	-8708
▁bannaabwe	-8709
▁dost▁thou	-8710
▁eddwaliro	-8711
▁omuntu▁bw	-8712
▁this▁year	-8713
▁Akakiiko▁k	-8714
▁You▁should	-8715
▁called▁the	-8716
▁ebikolebwa	-8717
▁ebyobulamu	-8718
▁the▁cities	-8719
▁but▁he▁that	-8720
▁ku▁mukono▁g	-8721
▁over▁Israel	-8722
▁say▁to▁them	-8723
▁Abantu▁bonna	-8724
▁at▁that▁time	-8725
▁mu▁mwezi▁ogw	-8726
▁obukuubagano	-8727
▁of▁them▁that	-8728
alira▁omusango	-8729
▁The▁number▁of	-8730
▁amakumi▁asatu	-8731
▁that▁the▁Lord	-8732
▁which▁he▁hath	-8733
abaana▁ba▁Amoni	-8734
ebyenjigiriza▁n	-8735
▁What▁should▁be	-8736
▁participate▁in	-8737
▁Abakulembeze▁ba	-8738
▁Abantu▁bajja▁ku	-8739
ees	-8740
mar	-8741
▁ru	-8742
irwe	-8743
tors	-8744
ured	-8745
▁Bba	-8746
▁dro	-8747
▁e▁M	-8748
▁lus	-8749
anger	-8750
atiza	-8751
ekinn	-8752
ikwan	-8753
jeemu	-8754
mbuka	-8755
otten	-8756
tuusa	-8757
▁Heth	-8758
▁Your	-8759
▁skin	-8760
▁yala	-8761
ancies	-8762
empagi	-8763
enjala	-8764
isanga	-8765
ituuni	-8766
omunda	-8767
ummula	-8768
walula	-8769
▁Abisa	-8770
▁Adoni	-8771
▁And▁S	-8772
▁Ibula	-8773
▁agali	-8774
▁alive	-8775
▁bintu	-8776
▁ebina	-8777
▁ekira	-8778
▁mu▁bw	-8779
abiddwa	-8780
aniriza	-8781
eŋŋaano	-8782
oyagala	-8783
rection	-8784
▁O▁king	-8785
▁courts	-8786
▁for▁an	-8787
▁lwange	-8788
▁though	-8789
▁virgin	-8790
bonereza	-8791
ed▁about	-8792
gezigezi	-8793
koleddwa	-8794
▁All▁the	-8795
▁Jericho	-8796
▁The▁new	-8797
▁chamber	-8798
▁ekirala	-8799
▁eri▁aba	-8800
▁foreign	-8801
▁forgive	-8802
▁for▁her	-8803
▁ne▁Yuda	-8804
▁okugoba	-8805
▁station	-8806
▁the▁she	-8807
▁time▁to	-8808
▁who▁had	-8809
kubirizza	-8810
▁Alooni▁n	-8811
▁Damascus	-8812
▁academic	-8813
▁blasphem	-8814
▁cultural	-8815
▁domestic	-8816
▁given▁to	-8817
▁obuyonjo	-8818
▁of▁Syria	-8819
▁omuwendo	-8820
▁right▁to	-8821
▁And▁these	-8822
▁Falaawo▁n	-8823
▁There▁was	-8824
▁abaana▁ab	-8825
▁abatukuvu	-8826
▁kikumi▁mu	-8827
▁mukama▁we	-8828
▁ne▁bakola	-8829
▁the▁south	-8830
▁and▁let▁us	-8831
▁and▁thirty	-8832
▁ekikolebwa	-8833
▁the▁waters	-8834
▁thy▁people	-8835
ing▁together	-8836
▁between▁the	-8837
▁nti▁Kubanga	-8838
▁omusujja▁gw	-8839
▁promised▁to	-8840
▁returned▁to	-8841
▁six▁hundred	-8842
▁in▁the▁field	-8843
▁Katonda▁wange	-8844
▁of▁the▁wicked	-8845
▁omwaka▁ogujja	-8846
ekiweebwayo▁eky	-8847
▁Omukulembeze▁w	-8848
▁ebikumi▁bibiri	-8849
▁ebyokulwanyisa	-8850
▁reigned▁in▁his	-8851
imm	-8852
two	-8853
▁Jj	-8854
▁Lo	-8855
agwo	-8856
aves	-8857
chre	-8858
omye	-8859
ulug	-8860
▁act	-8861
▁fis	-8862
▁luk	-8863
▁mpe	-8864
▁tug	-8865
adian	-8866
aniki	-8867
anyuk	-8868
eless	-8869
enkya	-8870
iruub	-8871
kuume	-8872
usion	-8873
▁Edom	-8874
▁Yowa	-8875
▁baby	-8876
▁didn	-8877
▁kyen	-8878
▁mine	-8879
▁sack	-8880
alwana	-8881
anness	-8882
enkuba	-8883
oludde	-8884
seddwa	-8885
walana	-8886
zimala	-8887
▁A▁new	-8888
▁baddu	-8889
▁bride	-8890
▁equal	-8891
▁exerc	-8892
▁okuwo	-8893
▁spare	-8894
▁steal	-8895
▁worsh	-8896
isseewo	-8897
kuzibwa	-8898
▁Bwe▁ya	-8899
▁For▁if	-8900
▁Ki▁eki	-8901
▁and▁up	-8902
▁associ	-8903
▁bafuta	-8904
▁engule	-8905
▁height	-8906
▁kinene	-8907
▁kulina	-8908
▁my▁God	-8909
▁ne▁kin	-8910
▁served	-8911
▁vaccin	-8912
▁zaakyo	-8913
abaddewo	-8914
alagirwa	-8915
wanirira	-8916
▁Danyeri	-8917
▁amannya	-8918
▁bitaano	-8919
▁ebibira	-8920
▁has▁not	-8921
▁kyammwe	-8922
▁recruit	-8923
▁release	-8924
▁rose▁up	-8925
▁sent▁to	-8926
▁upon▁us	-8927
▁went▁to	-8928
kungaanya	-8929
munyeenye	-8930
s▁of▁gold	-8931
▁Ibulaamu	-8932
▁Jonathan	-8933
▁Wajja▁ku	-8934
▁economic	-8935
▁ezisinga	-8936
▁governor	-8937
▁industri	-8938
▁infected	-8939
▁ku▁mazzi	-8940
▁ku▁muntu	-8941
▁of▁a▁man	-8942
▁positive	-8943
▁possible	-8944
▁purposes	-8945
▁there▁be	-8946
▁the▁best	-8947
▁upon▁you	-8948
aserengeta	-8949
ebyensimbi	-8950
uliziganya	-8951
▁Yonasaani	-8952
▁ebitukuvu	-8953
▁mu▁katale	-8954
▁ne▁balaba	-8955
▁on▁how▁to	-8956
▁relations	-8957
▁shillings	-8958
▁treasures	-8959
▁Kubanga▁bw	-8960
▁The▁health	-8961
▁kya▁ssenyi	-8962
▁ne▁batuuka	-8963
▁omulimu▁gw	-8964
▁paalamenti	-8965
▁throughout	-8966
▁and▁he▁that	-8967
▁many▁people	-8968
▁ebigambo▁eby	-8969
▁thy▁servants	-8970
▁and▁there▁was	-8971
▁bwa▁gavumenti	-8972
▁his▁disciples	-8973
▁Health▁workers	-8974
ayogera▁nti▁Laba	-8975
je	-8976
aly	-8977
egg	-8978
ett	-8979
eya	-8980
lot	-8981
rel	-8982
the	-8983
jeem	-8984
nywe	-8985
uggi	-8986
ures	-8987
▁Ana	-8988
▁Nna	-8989
▁Yab	-8990
▁lwo	-8991
▁tub	-8992
anywa	-8993
erved	-8994
inger	-8995
iseus	-8996
siima	-8997
▁Esau	-8998
▁Sina	-8999
▁maka	-9000
▁mort	-9001
▁ques	-9002
akwata	-9003
cience	-9004
kanani	-9005
kirawo	-9006
yitamu	-9007
▁Abner	-9008
▁alimu	-9009
▁grown	-9010
▁kungi	-9011
▁ku▁nn	-9012
▁kye▁n	-9013
▁sever	-9014
▁train	-9015
▁wekka	-9016
ebyokul	-9017
innyisa	-9018
iririra	-9019
kaabira	-9020
▁Bwe▁ba	-9021
▁Mother	-9022
▁an▁end	-9023
▁as▁one	-9024
▁divide	-9025
▁esinga	-9026
▁for▁he	-9027
▁in▁you	-9028
▁letter	-9029
▁mmanyi	-9030
▁mu▁kyo	-9031
▁nga▁bi	-9032
▁on▁him	-9033
▁perver	-9034
▁punish	-9035
▁talina	-9036
▁yammwe	-9037
ggya▁olw	-9038
▁Ddamasi	-9039
▁at▁hand	-9040
▁basanga	-9041
▁clothes	-9042
▁mpulira	-9043
▁my▁name	-9044
▁okulima	-9045
▁produce	-9046
▁removed	-9047
▁so▁much	-9048
ekika▁kya	-9049
okukozesa	-9050
▁For▁thus	-9051
▁bwe▁buli	-9052
▁in▁peace	-9053
▁kitaabwe	-9054
▁mu▁mpaka	-9055
▁preached	-9056
▁standard	-9057
gambye▁nti	-9058
▁Abamisiri	-9059
▁fulfilled	-9060
▁interpret	-9061
▁omwana▁gw	-9062
▁source▁of	-9063
▁the▁seven	-9064
ed▁with▁the	-9065
oluddekaayi	-9066
▁Obwakabaka	-9067
▁Uganda▁has	-9068
▁ceremonies	-9069
▁ebuvanjuba	-9070
▁employment	-9071
▁kitaawe▁wa	-9072
▁okutangira	-9073
▁three▁days	-9074
▁understood	-9075
ereka▁ssente	-9076
zimbulukuswa	-9077
▁a▁long▁time	-9078
▁abominations	-9079
▁in▁the▁night	-9080
▁in▁the▁temple	-9081
▁obukumi▁bubiri	-9082
▁thou▁shalt▁not	-9083
▁as▁the▁Lord▁had	-9084
▁the▁daughter▁of	-9085
car	-9086
onn	-9087
tte	-9088
yag	-9089
▁Ko	-9090
ames	-9091
atal	-9092
giro	-9093
head	-9094
udea	-9095
yamo	-9096
▁Cul	-9097
▁Hav	-9098
▁Ono	-9099
▁Tax	-9100
▁fly	-9101
▁lir	-9102
▁mor	-9103
▁tum	-9104
agoba	-9105
akwat	-9106
anted	-9107
asles	-9108
epend	-9109
galwa	-9110
gudde	-9111
ighty	-9112
kanzu	-9113
tices	-9114
yeeri	-9115
zeewo	-9116
▁Obed	-9117
▁blam	-9118
▁bumu	-9119
▁conc	-9120
▁ekin	-9121
▁emba	-9122
▁eyat	-9123
▁gano	-9124
▁harm	-9125
▁olun	-9126
▁pure	-9127
▁shed	-9128
▁tend	-9129
▁wast	-9130
ed▁her	-9131
ing▁it	-9132
st▁not	-9133
teenth	-9134
ukaaga	-9135
werali	-9136
zimbye	-9137
▁Is▁it	-9138
▁asses	-9139
▁as▁if	-9140
▁a▁son	-9141
▁balis	-9142
▁defil	-9143
▁deter	-9144
▁ekire	-9145
▁griev	-9146
▁merch	-9147
▁needy	-9148
▁oluna	-9149
▁press	-9150
▁share	-9151
▁speed	-9152
▁spoil	-9153
▁truck	-9154
beeramu	-9155
beerawo	-9156
tion▁of	-9157
▁Balaki	-9158
▁Koboko	-9159
▁abound	-9160
▁and▁is	-9161
▁bright	-9162
▁cooper	-9163
▁ebingi	-9164
▁enkulu	-9165
▁mwe▁ba	-9166
▁okugwa	-9167
▁okukka	-9168
▁reveal	-9169
▁stolen	-9170
▁way▁of	-9171
etaagisa	-9172
kulagira	-9173
▁akatale	-9174
▁a▁woman	-9175
▁greater	-9176
▁in▁vain	-9177
▁ku▁maas	-9178
▁subject	-9179
▁suburbs	-9180
bonaabona	-9181
kwatiddwa	-9182
▁afar▁off	-9183
▁and▁over	-9184
▁apostles	-9185
▁doctrine	-9186
▁his▁life	-9187
▁ku▁baana	-9188
▁shall▁we	-9189
▁teaching	-9190
▁to▁speak	-9191
kuŋŋaanira	-9192
▁Lebanooni	-9193
▁Mukama▁bw	-9194
▁West▁Nile	-9195
▁amaaso▁go	-9196
▁ne▁nnyina	-9197
▁shall▁say	-9198
▁uncircumc	-9199
ebifaananyi	-9200
▁Abayizi▁ba	-9201
▁ebyamaguzi	-9202
▁okuva▁mu▁b	-9203
▁opposition	-9204
▁wamu▁naawe	-9205
▁Ibulayimu▁n	-9206
▁and▁he▁will	-9207
▁bring▁forth	-9208
▁pregnancies	-9209
▁valiant▁men	-9210
ayogera▁nti▁M	-9211
▁ekitundu▁eky	-9212
▁four▁hundred	-9213
▁is▁the▁famil	-9214
▁mu▁pulojekiti	-9215
▁okuddaabiriza	-9216
▁they▁shall▁be	-9217
▁the▁firstborn	-9218
▁that▁which▁was	-9219
iet	-9220
pes	-9221
bear	-9222
esty	-9223
iada	-9224
obwo	-9225
o▁gu	-9226
siba	-9227
tual	-9228
weka	-9229
yiwa	-9230
▁Ami	-9231
▁Jez	-9232
▁Ram	-9233
▁cup	-9234
▁dig	-9235
▁nur	-9236
ebiro	-9237
ifuba	-9238
jjuza	-9239
lekwa	-9240
sanga	-9241
yomba	-9242
▁Bana	-9243
▁ajja	-9244
▁akat	-9245
▁beek	-9246
▁bird	-9247
▁dish	-9248
▁heat	-9249
▁magn	-9250
▁mu▁M	-9251
▁nigh	-9252
▁nnee	-9253
▁teki	-9254
alonda	-9255
anguwa	-9256
biriza	-9257
embeza	-9258
ing▁is	-9259
jagala	-9260
jijira	-9261
kubira	-9262
uneeza	-9263
▁Bonna	-9264
▁along	-9265
▁anaas	-9266
▁egita	-9267
▁it▁up	-9268
▁ku▁ss	-9269
▁music	-9270
▁ndimu	-9271
▁nnina	-9272
▁satis	-9273
▁so▁as	-9274
abakozi	-9275
abirizi	-9276
asamasa	-9277
ddukira	-9278
ekikomo	-9279
emmeeme	-9280
olusozi	-9281
ŋŋamira	-9282
▁Abaami	-9283
▁Balamu	-9284
▁God▁is	-9285
▁Yeriko	-9286
▁Yuda▁n	-9287
▁bulema	-9288
▁ensi▁n	-9289
▁from▁a	-9290
▁ku▁bub	-9291
▁length	-9292
▁lwe▁ya	-9293
▁mu▁mas	-9294
▁olukwe	-9295
▁when▁I	-9296
▁ŋŋenda	-9297
emigaati	-9298
omukaaga	-9299
ondeddwa	-9300
o▁gwange	-9301
yamaguzi	-9302
▁He▁hath	-9303
▁Zeddeki	-9304
▁address	-9305
▁and▁fif	-9306
▁are▁you	-9307
▁condemn	-9308
▁ekisibo	-9309
▁for▁our	-9310
▁kaseera	-9311
▁to▁wife	-9312
okukirawo	-9313
▁And▁this	-9314
▁Thou▁art	-9315
▁be▁baali	-9316
▁ebiseera	-9317
▁kusasula	-9318
▁ku▁mbaga	-9319
▁leads▁to	-9320
▁mu▁mbuga	-9321
▁omusaala	-9322
▁thy▁name	-9323
aweereddwa	-9324
▁basanyufu	-9325
▁classroom	-9326
▁in▁school	-9327
▁ku▁bulamu	-9328
▁okuba▁omu	-9329
▁wa▁Mukama	-9330
omukono▁gwa	-9331
▁The▁leader	-9332
▁a▁thousand	-9333
▁commission	-9334
▁emirimu▁gy	-9335
▁multiplied	-9336
▁the▁Father	-9337
▁went▁forth	-9338
▁in▁the▁name	-9339
▁okugonjoola	-9340
▁thy▁brother	-9341
▁Moluddekaayi	-9342
▁and▁the▁other	-9343
▁And▁the▁people	-9344
▁Nebukadduneeza	-9345
▁ku▁mutimbagano	-9346
▁omukono▁gwange	-9347
▁Northern▁Uganda	-9348
▁out▁of▁the▁hand	-9349
).	-9350
ua	-9351
arp	-9352
bab	-9353
ehu	-9354
ury	-9355
yed	-9356
alwo	-9357
atto	-9358
endi	-9359
gimu	-9360
icip	-9361
iday	-9362
kamu	-9363
lect	-9364
olly	-9365
▁Hes	-9366
▁Pil	-9367
▁Sis	-9368
▁Uli	-9369
▁ena	-9370
▁exh	-9371
▁mod	-9372
▁squ	-9373
▁tey	-9374
akoze	-9375
annyo	-9376
kiise	-9377
stand	-9378
▁Yobu	-9379
▁dama	-9380
▁earn	-9381
▁kumu	-9382
▁latr	-9383
▁loan	-9384
▁teen	-9385
▁unle	-9386
ddembe	-9387
ercial	-9388
eruuyi	-9389
fulube	-9390
iriivu	-9391
olaamu	-9392
weebwe	-9393
zzi▁bw	-9394
▁Baasa	-9395
▁Yeeku	-9396
▁asham	-9397
▁as▁an	-9398
▁boreh	-9399
▁cloth	-9400
▁lye▁l	-9401
▁tempt	-9402
ootball	-9403
yambisa	-9404
yinza▁w	-9405
▁Beseri	-9406
▁Sekemu	-9407
▁beauty	-9408
▁divers	-9409
▁for▁it	-9410
▁katono	-9411
▁loveth	-9412
▁ssaawa	-9413
▁synago	-9414
▁talent	-9415
abalunzi	-9416
kuumenga	-9417
okutaano	-9418
▁She▁was	-9419
▁afflict	-9420
▁bamaama	-9421
▁empower	-9422
▁eri▁abo	-9423
▁ku▁kifo	-9424
▁municip	-9425
▁okuva▁e	-9426
▁omulabe	-9427
▁private	-9428
▁to▁this	-9429
▁trouble	-9430
embalaasi	-9431
obwereere	-9432
▁Ebigambo	-9433
▁He▁shall	-9434
▁Omukungu	-9435
▁and▁slew	-9436
▁is▁still	-9437
▁kabonero	-9438
▁know▁not	-9439
▁okukaaba	-9440
ateekeddwa	-9441
faanana▁ng	-9442
viiriddeko	-9443
▁Omuntu▁bw	-9444
▁Yowaabu▁n	-9445
▁abakulu▁b	-9446
▁carry▁out	-9447
▁cried▁out	-9448
▁household	-9449
▁mugaso▁ki	-9450
▁obulokozi	-9451
▁okumalawo	-9452
▁resources	-9453
▁tebamanyi	-9454
okulwanyisa	-9455
▁If▁any▁man	-9456
▁bring▁them	-9457
▁mu▁bikolwa	-9458
▁mu▁kigambo	-9459
▁of▁Ephraim	-9460
abakulembeze	-9461
ation▁of▁the	-9462
▁The▁leaders	-9463
▁ne▁bakabona	-9464
▁okusinziira	-9465
▁omulimu▁gwa	-9466
▁omulimu▁ogw	-9467
▁Abeesimbyewo	-9468
▁bannayuganda	-9469
▁strange▁gods	-9470
▁the▁son▁of▁M	-9471
▁and▁therefore	-9472
▁ebigambo▁ebyo	-9473
▁it▁is▁written	-9474
▁mu▁kibuga▁kya	-9475
▁ne▁bayimirira	-9476
▁king▁of▁Israel	-9477
▁in▁Christ▁Jesus	-9478
HE	-9479
iel	-9480
kod	-9481
umo	-9482
adoc	-9483
atan	-9484
kebe	-9485
uuyo	-9486
wero	-9487
yasa	-9488
yawo	-9489
▁Aza	-9490
▁Ese	-9491
▁Gir	-9492
▁Lab	-9493
▁Ozi	-9494
▁Tet	-9495
▁cho	-9496
▁ded	-9497
▁esp	-9498
▁pup	-9499
▁sho	-9500
ayima	-9501
ddira	-9502
ggazi	-9503
irisa	-9504
ivule	-9505
onnya	-9506
tuulo	-9507
tuuse	-9508
uluma	-9509
utira	-9510
▁by▁a	-9511
▁diss	-9512
▁lion	-9513
▁prud	-9514
▁reco	-9515
▁robb	-9516
▁void	-9517
angisa	-9518
avaayo	-9519
icient	-9520
ifuula	-9521
person	-9522
tiddwa	-9523
▁For▁I	-9524
▁disab	-9525
▁ebisa	-9526
▁is▁to	-9527
▁lived	-9528
▁spend	-9529
▁tebya	-9530
▁tents	-9531
ebibala	-9532
mulugun	-9533
yigidde	-9534
▁Commun	-9535
▁Isaias	-9536
▁Lekobo	-9537
▁balamu	-9538
▁basatu	-9539
▁cleans	-9540
▁determ	-9541
▁enzigi	-9542
▁growth	-9543
▁harlot	-9544
▁mu▁nze	-9545
▁ne▁mmu	-9546
▁occasi	-9547
▁promot	-9548
▁shield	-9549
▁spring	-9550
▁tribul	-9551
alowooza	-9552
kwerinda	-9553
ubiriizi	-9554
▁Distric	-9555
▁compens	-9556
▁corrupt	-9557
▁essuubi	-9558
▁looking	-9559
▁obutali	-9560
▁pillars	-9561
▁several	-9562
▁ways▁of	-9563
▁yabadde	-9564
▁Kiki▁eki	-9565
▁Okubeera	-9566
▁assembly	-9567
▁came▁out	-9568
▁complete	-9569
▁consumed	-9570
▁does▁not	-9571
▁dwelt▁in	-9572
▁from▁God	-9573
▁had▁done	-9574
▁kabona▁n	-9575
▁meetings	-9576
▁okutuula	-9577
▁practice	-9578
▁thy▁face	-9579
▁Bizinensi	-9580
▁Ddamasiko	-9581
▁It▁is▁not	-9582
▁condition	-9583
▁decisions	-9584
▁emisana▁n	-9585
▁emitala▁w	-9586
▁expensive	-9587
▁from▁thee	-9588
▁ku▁kikula	-9589
▁okusigala	-9590
▁shall▁you	-9591
omu▁nnyumba	-9592
zikirizibwa	-9593
▁and▁he▁was	-9594
▁bamalayika	-9595
▁ebintu▁eby	-9596
▁in▁schools	-9597
▁muganda▁wa	-9598
▁my▁servant	-9599
▁say▁to▁him	-9600
▁shall▁they	-9601
▁that▁dwell	-9602
▁these▁days	-9603
▁Newakubadde	-9604
▁book▁of▁the	-9605
▁mu▁kizikiza	-9606
▁of▁our▁Lord	-9607
▁of▁the▁Jews	-9608
▁Abavubuka▁ba	-9609
▁Omuntu▁yenna	-9610
▁mu▁kkubo▁ery	-9611
▁commanded▁him	-9612
▁mutabani▁wa▁Z	-9613
▁amakumi▁ataano	-9614
▁mu▁nteekateeka	-9615
▁political▁party	-9616
mo	-9617
ps	-9618
eso	-9619
ize	-9620
ugu	-9621
abik	-9622
amut	-9623
ansa	-9624
cies	-9625
istr	-9626
loor	-9627
many	-9628
rain	-9629
rent	-9630
sing	-9631
sive	-9632
wawo	-9633
yanj	-9634
▁Hum	-9635
▁Mar	-9636
▁eka	-9637
▁lad	-9638
▁sed	-9639
▁sow	-9640
ababi	-9641
enced	-9642
ibula	-9643
isiga	-9644
isipa	-9645
kunku	-9646
lembe	-9647
ports	-9648
zaako	-9649
▁Baka	-9650
▁Even	-9651
▁Kuba	-9652
▁Omwe	-9653
▁Pira	-9654
▁bo▁n	-9655
▁crow	-9656
▁kins	-9657
▁munn	-9658
▁muti	-9659
▁zina	-9660
ension	-9661
gulira	-9662
jja▁kw	-9663
usungu	-9664
▁ababi	-9665
▁camps	-9666
▁ekigo	-9667
▁ekika	-9668
▁ewala	-9669
▁goofu	-9670
▁grand	-9671
▁gwayo	-9672
▁okuse	-9673
▁pride	-9674
▁rates	-9675
▁refus	-9676
▁sepul	-9677
▁strik	-9678
▁tread	-9679
▁wheat	-9680
irekemu	-9681
irikale	-9682
zaalisa	-9683
▁Pilate	-9684
▁abapya	-9685
▁at▁his	-9686
▁jjajja	-9687
▁ndyoka	-9688
▁nsonyi	-9689
▁olyoke	-9690
▁omupya	-9691
▁reckon	-9692
▁suppos	-9693
▁tables	-9694
▁tebali	-9695
▁the▁wr	-9696
▁up▁his	-9697
▁violet	-9698
agenda▁n	-9699
isipaali	-9700
okulonda	-9701
o▁gyabwe	-9702
ukiridde	-9703
▁Setaani	-9704
▁acquire	-9705
▁akalulu	-9706
▁bwe▁ndi	-9707
▁created	-9708
▁entiisa	-9709
▁obugazi	-9710
▁okukira	-9711
▁olusuku	-9712
▁olutalo	-9713
▁the▁men	-9714
▁to▁have	-9715
▁to▁kill	-9716
s▁of▁Juda	-9717
▁Abakadde	-9718
▁And▁thou	-9719
▁Twetaaga	-9720
▁akakiiko	-9721
▁and▁keep	-9722
▁and▁told	-9723
▁bennyini	-9724
▁olugendo	-9725
▁tegalina	-9726
▁the▁seed	-9727
▁was▁very	-9728
tendekebwa	-9729
▁Gireyaadi	-9730
▁Obulwadde	-9731
▁These▁are	-9732
▁a▁certain	-9733
▁enkaayana	-9734
▁glorified	-9735
▁mulimu▁ki	-9736
▁mu▁lubuto	-9737
▁okwambala	-9738
▁the▁blood	-9739
▁the▁chief	-9740
▁young▁man	-9741
▁amalwaliro	-9742
▁and▁it▁was	-9743
▁mwaka▁gumu	-9744
▁nti▁Mukama	-9745
▁okulowooza	-9746
▁erinnya▁lyo	-9747
▁ne▁Isiraeri	-9748
▁ne▁bakabaka	-9749
▁okulabirira	-9750
▁should▁have	-9751
▁The▁hospital	-9752
▁The▁refugees	-9753
▁mu▁nsi▁yonna	-9754
▁ne▁bayingira	-9755
▁ne▁kinjijira	-9756
▁obutabanguko	-9757
▁words▁of▁the	-9758
▁buli▁muntu▁ng	-9759
▁into▁the▁city	-9760
▁thou▁shalt▁be	-9761
▁Musa▁ne▁Alooni	-9762
▁Therefore▁thus	-9763
▁ku▁batabani▁ba	-9764
▁on▁the▁sabbath	-9765
yaw	-9766
▁ty	-9767
akol	-9768
atul	-9769
eeto	-9770
itoo	-9771
onta	-9772
oram	-9773
vuba	-9774
vu▁n	-9775
walo	-9776
wuun	-9777
zibe	-9778
▁Ent	-9779
▁Nuu	-9780
▁Pro	-9781
▁fet	-9782
▁hor	-9783
▁nob	-9784
▁sna	-9785
ables	-9786
ala▁n	-9787
budde	-9788
edoni	-9789
ichem	-9790
mundu	-9791
unuch	-9792
▁Ente	-9793
▁Isma	-9794
▁clim	-9795
▁cruc	-9796
▁enee	-9797
▁heap	-9798
▁reed	-9799
▁situ	-9800
▁stir	-9801
▁surv	-9802
▁tega	-9803
Omwana	-9804
adduka	-9805
antuma	-9806
avanga	-9807
gwagwa	-9808
utindo	-9809
▁achie	-9810
▁arrow	-9811
▁besie	-9812
▁boost	-9813
▁compa	-9814
▁guard	-9815
▁ndaba	-9816
▁nnamu	-9817
▁rebel	-9818
▁swear	-9819
▁thank	-9820
▁zombi	-9821
erabira	-9822
eroboza	-9823
ing▁his	-9824
olution	-9825
▁Bethle	-9826
▁Do▁not	-9827
▁Isaaya	-9828
▁Ttuulo	-9829
▁era▁bw	-9830
▁eunuch	-9831
▁famire	-9832
▁fruits	-9833
▁gaakyo	-9834
▁shadow	-9835
▁to▁see	-9836
atandika	-9837
obuyonjo	-9838
▁And▁all	-9839
▁Ensonga	-9840
▁and▁two	-9841
▁bwe▁bit	-9842
▁come▁in	-9843
▁confess	-9844
▁discour	-9845
▁healthy	-9846
▁if▁thou	-9847
▁obutono	-9848
▁patient	-9849
▁prayers	-9850
▁with▁an	-9851
ed▁to▁him	-9852
kkiririza	-9853
▁horsemen	-9854
▁know▁the	-9855
▁ku▁ttale	-9856
▁neighbor	-9857
▁ne▁leero	-9858
▁okukyusa	-9859
▁okuzuula	-9860
▁remained	-9861
▁ssente▁z	-9862
▁the▁sign	-9863
▁And▁the▁s	-9864
▁and▁fifty	-9865
▁as▁far▁as	-9866
▁firstborn	-9867
▁forthwith	-9868
▁separated	-9869
▁the▁cause	-9870
▁to▁people	-9871
omuwendo▁gw	-9872
oyogera▁nti	-9873
va▁mu▁ggulu	-9874
▁awamu▁naye	-9875
▁ebisale▁by	-9876
▁kirongoofu	-9877
▁ku▁lwammwe	-9878
▁mu▁kuzimba	-9879
▁omuweereza	-9880
▁because▁the	-9881
▁come▁to▁the	-9882
▁good▁things	-9883
▁of▁the▁gate	-9884
▁and▁thou▁hast	-9885
▁from▁the▁dead	-9886
▁kyava▁ayogera	-9887
▁that▁he▁might	-9888
eddoboozi▁ddene	-9889
▁ennaku▁nnyingi	-9890
▁one▁to▁another	-9891
▁without▁blemish	-9892
fy	-9893
pr	-9894
▁-	-9895
abag	-9896
adio	-9897
akes	-9898
amal	-9899
anti	-9900
buli	-9901
elch	-9902
ffic	-9903
kema	-9904
kris	-9905
okwa	-9906
onze	-9907
▁Enn	-9908
▁bug	-9909
▁det	-9910
▁ewu	-9911
▁otu	-9912
asaba	-9913
atory	-9914
ebifo	-9915
eries	-9916
geera	-9917
kaali	-9918
orrup	-9919
pande	-9920
ulago	-9921
▁Land	-9922
▁Nabo	-9923
▁Naza	-9924
▁Only	-9925
▁Yali	-9926
▁deed	-9927
▁drew	-9928
▁gino	-9929
▁incl	-9930
▁lamp	-9931
▁list	-9932
▁merc	-9933
▁ne▁T	-9934
▁orph	-9935
▁race	-9936
▁tetu	-9937
▁we▁n	-9938
agibwa	-9939
kebera	-9940
mighty	-9941
mulira	-9942
noonya	-9943
ookera	-9944
ulungu	-9945
usizza	-9946
yonoon	-9947
▁akali	-9948
▁amatu	-9949
▁be▁ya	-9950
▁close	-9951
▁drive	-9952
▁emizi	-9953
▁etern	-9954
▁faces	-9955
▁goats	-9956
▁it▁to	-9957
▁lower	-9958
▁mutwe	-9959
▁ordin	-9960
▁proud	-9961
abikira	-9962
ate▁the	-9963
kolo▁gw	-9964
ression	-9965
▁How▁do	-9966
▁abaavu	-9967
▁anaaku	-9968
▁a▁loud	-9969
▁borrow	-9970
▁by▁him	-9971
▁denied	-9972
▁ekkulu	-9973
▁ewedde	-9974
▁kibuga	-9975
▁ku▁nze	-9976
▁muzizo	-9977
▁okukom	-9978
▁sexual	-9979
▁the▁fl	-9980
▁yaakyo	-9981
▁zzadde	-9982
ated▁the	-9983
yambadde	-9984
▁Eliseus	-9985
▁Ensimbi	-9986
▁He▁said	-9987
▁amongst	-9988
▁bazadde	-9989
▁careful	-9990
▁consult	-9991
▁ddagala	-9992
▁in▁that	-9993
▁million	-9994
▁mu▁Arua	-9995
busuubuzi	-9996
▁and▁then	-9997
▁bakerubi	-9998
▁come▁out	-9999
▁distress	-10000
▁have▁you	-10001
▁his▁face	-10002
▁his▁sons	-10003
▁speaketh	-10004
▁the▁stre	-10005
atuukirira	-10006
ensi▁yonna	-10007
▁Abimelech	-10008
▁Bethlehem	-10009
▁Political	-10010
▁Yekoyaada	-10011
▁allocated	-10012
▁available	-10013
▁byonna▁by	-10014
▁last▁year	-10015
▁omwana▁ow	-10016
▁scattered	-10017
kuumaddembe	-10018
s▁of▁silver	-10019
▁Awo▁bwe▁ba	-10020
▁amateeka▁n	-10021
▁and▁Sports	-10022
▁byetaagisa	-10023
▁mu▁kisenge	-10024
▁okulwana▁n	-10025
▁sanitation	-10026
▁tebasobola	-10027
ekitundu▁eky	-10028
▁People▁lack	-10029
▁People▁will	-10030
▁Politicians	-10031
▁and▁for▁the	-10032
▁increase▁in	-10033
▁Enteekateeka	-10034
▁bannaggwanga	-10035
▁brought▁them	-10036
▁carried▁away	-10037
▁circumcision	-10038
▁in▁the▁place	-10039
ayogera▁nti▁Mu	-10040
▁These▁are▁the	-10041
▁and▁Jerusalem	-10042
▁ebyenjigiriza	-10043
▁endiga▁ennume	-10044
▁okukola▁ennyo	-10045
▁okutendekebwa	-10046
▁the▁son▁of▁Am	-10047
▁in▁the▁days▁of	-10048
aso	-10049
cco	-10050
gol	-10051
▁De	-10052
arly	-10053
indu	-10054
ware	-10055
wato	-10056
yufu	-10057
▁.▁.	-10058
▁Yet	-10059
▁bub	-10060
▁enl	-10061
▁e▁L	-10062
▁veh	-10063
▁vul	-10064
akuwa	-10065
alted	-10066
ample	-10067
baako	-10068
omu▁k	-10069
onstr	-10070
saawo	-10071
tadde	-10072
ukiya	-10073
ulted	-10074
vumbe	-10075
▁Omwa	-10076
▁Sara	-10077
▁cove	-10078
▁ezis	-10079
▁mock	-10080
anaaba	-10081
andles	-10082
bikkul	-10083
bwenga	-10084
emitwe	-10085
essaza	-10086
gabana	-10087
lihood	-10088
liness	-10089
mitted	-10090
okulya	-10091
umirwa	-10092
▁Basan	-10093
▁Being	-10094
▁Kings	-10095
▁and▁p	-10096
▁ebiba	-10097
▁ekola	-10098
▁entry	-10099
▁journ	-10100
▁langu	-10101
▁obusa	-10102
▁okula	-10103
▁okuto	-10104
▁omuti	-10105
▁oyo▁n	-10106
▁queen	-10107
▁quiet	-10108
▁state	-10109
▁teeth	-10110
▁wings	-10111
akubiri	-10112
amasavu	-10113
assaako	-10114
kkirizi	-10115
omukono	-10116
omuwala	-10117
o▁gange	-10118
ulirira	-10119
▁Amiina	-10120
▁Era▁bw	-10121
▁Of▁the	-10122
▁Saying	-10123
▁abeere	-10124
▁animal	-10125
▁a▁very	-10126
▁jjinja	-10127
▁joined	-10128
▁mukulu	-10129
▁nzekka	-10130
▁overth	-10131
▁salary	-10132
▁wealth	-10133
balagira	-10134
eebagala	-10135
kendeeza	-10136
s▁of▁thy	-10137
▁Omutima	-10138
▁all▁thy	-10139
▁amataba	-10140
▁appoint	-10141
▁employe	-10142
▁he▁went	-10143
▁if▁they	-10144
▁instead	-10145
▁jealous	-10146
▁motorcy	-10147
▁okukula	-10148
▁okusiga	-10149
▁saw▁the	-10150
▁yali▁ya	-10151
ebiragiro	-10152
wuliranga	-10153
▁For▁this	-10154
▁I▁am▁not	-10155
▁acquired	-10156
▁bakozesa	-10157
▁devoured	-10158
▁discover	-10159
▁in▁Egypt	-10160
▁medicine	-10161
▁merciful	-10162
▁ne▁zaabu	-10163
▁prophesi	-10164
▁the▁head	-10165
addamu▁nti	-10166
vunaanibwa	-10167
▁And▁again	-10168
▁Mukama▁ow	-10169
▁afflicted	-10170
▁came▁down	-10171
▁ku▁ntikko	-10172
▁ne▁bawala	-10173
▁slaughter	-10174
▁the▁court	-10175
▁the▁field	-10176
▁treatment	-10177
▁which▁the	-10178
▁And▁Samuel	-10179
▁And▁it▁was	-10180
▁astonished	-10181
▁mu▁kaseera	-10182
▁mu▁nsi▁gye	-10183
▁ne▁batuula	-10184
▁okusaasira	-10185
▁okwolekera	-10186
▁to▁prevent	-10187
▁which▁were	-10188
Abakaludaaya	-10189
▁Ebibiina▁by	-10190
▁Lekobowaamu	-10191
▁abaali▁naye	-10192
▁competition	-10193
▁days▁of▁the	-10194
▁okukwatibwa	-10195
▁their▁hands	-10196
eekerateekera	-10197
▁Awo▁ekigambo	-10198
▁The▁children	-10199
▁The▁students	-10200
▁abantu▁bangi	-10201
▁munnaggwanga	-10202
▁mu▁bizinensi	-10203
▁obutaggwaawo	-10204
▁wa▁Yoludaani	-10205
▁God▁of▁Israel	-10206
▁okunoonyereza	-10207
▁commanded▁them	-10208
che	-10209
▁Ns	-10210
held	-10211
itis	-10212
just	-10213
tuka	-10214
yite	-10215
▁Cor	-10216
▁Kal	-10217
▁guk	-10218
▁mad	-10219
▁rej	-10220
▁tom	-10221
anywe	-10222
atema	-10223
ators	-10224
attle	-10225
cepts	-10226
iment	-10227
maaya	-10228
oyo▁a	-10229
ready	-10230
sooka	-10231
zibwe	-10232
▁Comm	-10233
▁etya	-10234
▁golf	-10235
▁kufa	-10236
▁muba	-10237
abambo	-10238
bukutu	-10239
ekkubo	-10240
eteese	-10241
kkanya	-10242
▁image	-10243
▁lyato	-10244
▁muddu	-10245
▁okugg	-10246
▁seeds	-10247
▁sharp	-10248
akawuka	-10249
biriizi	-10250
bisi▁gw	-10251
ided▁to	-10252
omusolo	-10253
omwenda	-10254
station	-10255
▁Amangu	-10256
▁Hebrew	-10257
▁Nafuta	-10258
▁attack	-10259
▁a▁lion	-10260
▁crimin	-10261
▁double	-10262
▁ekkumi	-10263
▁fellow	-10264
▁healed	-10265
▁ku▁mis	-10266
▁lament	-10267
▁ogende	-10268
▁repair	-10269
▁rivers	-10270
▁sizoni	-10271
akaloosa	-10272
akkaanya	-10273
irema▁ku	-10274
waliddwa	-10275
▁Kaakano	-10276
▁Omusawo	-10277
▁and▁are	-10278
▁any▁one	-10279
▁capital	-10280
▁come▁up	-10281
▁deceive	-10282
▁ebikulu	-10283
▁emisolo	-10284
▁knowing	-10285
▁munda▁w	-10286
▁okuvuga	-10287
▁prosper	-10288
▁provoke	-10289
▁seventh	-10290
▁touched	-10291
s▁thereof	-10292
▁Obuyambi	-10293
▁abazadde	-10294
▁cases▁of	-10295
▁ebyo▁bye	-10296
▁finished	-10297
▁mu▁mwoyo	-10298
▁preserve	-10299
▁soldiers	-10300
▁the▁wind	-10301
ekitongole	-10302
ko▁obulemu	-10303
▁abaali▁ba	-10304
▁abakulu▁n	-10305
▁abantu▁be	-10306
▁after▁him	-10307
▁ebintu▁by	-10308
▁encourage	-10309
▁his▁hands	-10310
▁mu▁kulima	-10311
▁mu▁lutalo	-10312
▁obwetaavu	-10313
▁shall▁die	-10314
▁tebaagala	-10315
ayingiranga	-10316
ebyennyanja	-10317
▁Abalimi▁ba	-10318
▁Amangu▁ago	-10319
▁I▁have▁not	-10320
▁contribute	-10321
▁okutabaala	-10322
▁the▁gospel	-10323
▁People▁were	-10324
▁abantu▁bano	-10325
▁bikozesebwa	-10326
▁countenance	-10327
▁door▁of▁the	-10328
▁in▁his▁hand	-10329
▁okuzikiriza	-10330
▁that▁he▁was	-10331
enkulaakulana	-10332
e▁Yerusaalemi	-10333
▁and▁have▁not	-10334
▁bajjajjammwe	-10335
▁kubanga▁yali	-10336
▁ku▁mutwe▁gwe	-10337
▁leaders▁have	-10338
▁midst▁of▁the	-10339
▁answered▁them	-10340
▁communication	-10341
▁mu▁kitabo▁eky	-10342
▁mu▁kulwanyisa	-10343
▁the▁Lord▁will	-10344
ekiweebwayo▁olw	-10345
▁delivered▁them	-10346
oogerera▁waggulu	-10347
▁Buvunaanyizibwa	-10348
▁ebigambo▁byange	-10349
▁that▁they▁might	-10350
eci	-10351
kin	-10352
oph	-10353
ral	-10354
▁Im	-10355
▁Zi	-10356
amwe	-10357
ilst	-10358
ompe	-10359
side	-10360
tory	-10361
unna	-10362
vuma	-10363
▁Ber	-10364
▁Tem	-10365
▁ver	-10366
atend	-10367
estil	-10368
going	-10369
gulwa	-10370
idiba	-10371
itima	-10372
uluba	-10373
ution	-10374
wuuba	-10375
yabwe	-10376
▁Mary	-10377
▁Tyre	-10378
▁bata	-10379
▁emit	-10380
▁proc	-10381
▁task	-10382
▁teku	-10383
abo▁ab	-10384
asured	-10385
avened	-10386
esigam	-10387
gabula	-10388
ongeza	-10389
uubira	-10390
uukuka	-10391
wukana	-10392
▁Abram	-10393
▁ambul	-10394
▁empty	-10395
▁enjoy	-10396
▁green	-10397
▁me▁to	-10398
▁nnaba	-10399
▁of▁us	-10400
▁ogumu	-10401
▁recon	-10402
▁wanka	-10403
▁wonna	-10404
amalala	-10405
ankanya	-10406
ategeka	-10407
enguudo	-10408
gobebwa	-10409
kankana	-10410
kosebwa	-10411
olugoye	-10412
onyanga	-10413
undibwa	-10414
▁Ababbi	-10415
▁I▁come	-10416
▁across	-10417
▁bawala	-10418
▁ekyejo	-10419
▁ensozi	-10420
▁fourth	-10421
▁muleme	-10422
▁sprink	-10423
▁surely	-10424
▁threat	-10425
▁to▁buy	-10426
▁to▁wit	-10427
▁Embeera	-10428
▁affects	-10429
▁already	-10430
▁and▁how	-10431
▁covered	-10432
▁emikisa	-10433
▁individ	-10434
▁ku▁ggwe	-10435
▁mu▁bafu	-10436
▁payment	-10437
▁purpose	-10438
▁revenge	-10439
▁rise▁up	-10440
▁sabbath	-10441
effulungu	-10442
s▁are▁not	-10443
urrection	-10444
▁Almighty	-10445
▁Fear▁not	-10446
▁Pawulo▁n	-10447
▁You▁have	-10448
▁abantu▁b	-10449
▁and▁kill	-10450
▁and▁what	-10451
▁disputes	-10452
▁era▁onoo	-10453
▁for▁they	-10454
▁introduc	-10455
▁in▁every	-10456
▁kiki▁eki	-10457
▁measured	-10458
▁mu▁makya	-10459
▁overcome	-10460
▁patience	-10461
▁that▁she	-10462
▁the▁wife	-10463
anneetuuka	-10464
ddaabiriza	-10465
ulumizibwa	-10466
▁Okuyitako	-10467
▁abantu▁ab	-10468
▁and▁David	-10469
▁ku▁mirimu	-10470
▁mu▁nsonga	-10471
▁okuva▁eri	-10472
▁rising▁up	-10473
▁the▁power	-10474
yigirizibwa	-10475
▁and▁Israel	-10476
▁era▁Mukama	-10477
▁into▁Egypt	-10478
▁nga▁bwe▁ba	-10479
▁And▁when▁he	-10480
▁The▁village	-10481
▁What▁causes	-10482
▁and▁another	-10483
▁as▁a▁result	-10484
▁better▁than	-10485
▁muntu▁yenna	-10486
▁mu▁biro▁eby	-10487
▁njogera▁nti	-10488
▁omutima▁gwe	-10489
▁school▁fees	-10490
▁that▁he▁had	-10491
▁to▁him▁that	-10492
▁uncleanness	-10493
▁a▁loud▁voice	-10494
▁ekikolebwa▁n	-10495
▁examinations	-10496
▁mu▁kitongole	-10497
▁the▁pandemic	-10498
weebwa▁amagezi	-10499
▁importance▁of	-10500
▁ku▁mulyango▁gw	-10501
eg	-10502
fuu	-10503
raw	-10504
wom	-10505
zer	-10506
▁fi	-10507
akim	-10508
atte	-10509
chol	-10510
fici	-10511
iram	-10512
tock	-10513
udes	-10514
vubi	-10515
ziri	-10516
▁Aki	-10517
▁Did	-10518
▁Kay	-10519
▁Lot	-10520
▁Tus	-10521
▁aid	-10522
▁mel	-10523
beefu	-10524
endas	-10525
innye	-10526
koopi	-10527
uliro	-10528
yaavu	-10529
▁Beer	-10530
▁Whom	-10531
▁Work	-10532
▁be▁a	-10533
▁clos	-10534
▁gift	-10535
▁hall	-10536
▁hide	-10537
▁laun	-10538
▁ne▁l	-10539
▁reas	-10540
▁star	-10541
e▁Moyo	-10542
ikkawo	-10543
malawo	-10544
▁Herod	-10545
▁Human	-10546
▁Laake	-10547
▁ennya	-10548
▁gaali	-10549
▁hills	-10550
▁infec	-10551
▁inner	-10552
▁is▁in	-10553
▁lwaki	-10554
▁means	-10555
▁ne▁li	-10556
▁regul	-10557
▁shewn	-10558
▁shout	-10559
▁tower	-10560
▁yokka	-10561
abawala	-10562
effeeza	-10563
entieth	-10564
gemebwa	-10565
olulimi	-10566
ongoose	-10567
zesebwa	-10568
▁Engeri	-10569
▁armour	-10570
▁assist	-10571
▁a▁sign	-10572
▁by▁his	-10573
▁cancer	-10574
▁graven	-10575
▁lwabwe	-10576
▁lwonna	-10577
▁mulina	-10578
▁mu▁ffe	-10579
▁omuddo	-10580
▁whence	-10581
ers▁have	-10582
obutonde	-10583
siimibwa	-10584
waliro▁g	-10585
▁Ki▁ekir	-10586
▁Oba▁nga	-10587
▁Simyoni	-10588
▁atalina	-10589
▁compass	-10590
▁delight	-10591
▁discuss	-10592
▁donated	-10593
▁nange▁n	-10594
▁njawulo	-10595
▁of▁Saul	-10596
▁sources	-10597
▁the▁fif	-10598
fiiriddwa	-10599
kirizibwa	-10600
lemererwa	-10601
▁Ebitundu	-10602
▁The▁team	-10603
▁and▁laid	-10604
▁demonstr	-10605
▁ebibuuzo	-10606
▁forgiven	-10607
▁negative	-10608
▁okubaako	-10609
▁omukungu	-10610
▁to▁avoid	-10611
▁wankaaki	-10612
▁Hospitals	-10613
▁Nafutaali	-10614
▁at▁school	-10615
▁ekyambalo	-10616
▁empeereza	-10617
▁infection	-10618
▁materials	-10619
▁acceptable	-10620
▁banaabanga	-10621
▁buli▁kintu	-10622
▁commercial	-10623
▁diligently	-10624
▁ga▁Katonda	-10625
▁ku▁musaayi	-10626
▁livelihood	-10627
▁mulyoke▁mu	-10628
▁there▁is▁a	-10629
▁there▁were	-10630
▁the▁public	-10631
▁this▁place	-10632
▁thou▁didst	-10633
▁unleavened	-10634
▁was▁called	-10635
▁with▁water	-10636
▁Amasomero▁g	-10637
▁There▁is▁no	-10638
▁bonna▁abali	-10639
▁carried▁out	-10640
▁kwa▁Katonda	-10641
▁nga▁Katonda	-10642
▁okuteekebwa	-10643
▁okutuusa▁lw	-10644
▁okuyigiriza	-10645
▁transferred	-10646
endiga▁ennume	-10647
obwannannyini	-10648
▁Uganda▁erina	-10649
▁ebigambo▁bya	-10650
▁relationship	-10651
▁requested▁to	-10652
▁resurrection	-10653
▁tekinologiya	-10654
▁ten▁thousand	-10655
▁amaaso▁gaabwe	-10656
▁in▁all▁things	-10657
▁mutabani▁we▁n	-10658
▁wa▁Isiraeri▁n	-10659
▁are▁advised▁to	-10660
▁health▁workers	-10661
▁ku▁nkomerero▁y	-10662
▁ne▁Yerusaalemi	-10663
amala▁mwaka▁gumu	-10664
ambuza▁abalwadde	-10665
▁and▁the▁Levites	-10666
▁the▁environment	-10667
act	-10668
iku	-10669
oki	-10670
pat	-10671
yas	-10672
bled	-10673
buko	-10674
daba	-10675
eeyo	-10676
flow	-10677
ging	-10678
go▁n	-10679
ilit	-10680
sias	-10681
tira	-10682
wawa	-10683
zule	-10684
▁Art	-10685
▁Eky	-10686
▁Nep	-10687
▁See	-10688
▁eag	-10689
▁fit	-10690
▁gal	-10691
▁mit	-10692
▁tot	-10693
▁ven	-10694
aster	-10695
ayiti	-10696
ddiza	-10697
erate	-10698
eresi	-10699
imeon	-10700
inion	-10701
koola	-10702
ochai	-10703
o▁gyo	-10704
rible	-10705
saaba	-10706
saako	-10707
zeemu	-10708
▁Make	-10709
▁Seme	-10710
▁ento	-10711
▁eyee	-10712
▁kiku	-10713
▁moon	-10714
▁so▁t	-10715
▁wont	-10716
▁yaba	-10717
agaana	-10718
akaaba	-10719
gana▁n	-10720
ggaali	-10721
ibwako	-10722
mbling	-10723
oowaza	-10724
petual	-10725
s▁have	-10726
▁Beths	-10727
▁Emiti	-10728
▁Isima	-10729
▁a▁lot	-10730
▁bwe▁k	-10731
▁crown	-10732
▁kutya	-10733
▁ku▁nt	-10734
▁looni	-10735
▁scand	-10736
▁spear	-10737
▁using	-10738
akomawo	-10739
amagero	-10740
dda▁olu	-10741
ebikomo	-10742
ennyama	-10743
erekero	-10744
kunguba	-10745
oomooza	-10746
yituuni	-10747
▁Amalec	-10748
▁My▁son	-10749
▁caused	-10750
▁cherub	-10751
▁ebyuma	-10752
▁leaves	-10753
▁maketh	-10754
▁mayest	-10755
▁munene	-10756
▁mu▁bya	-10757
▁nsanvu	-10758
▁okutya	-10759
▁purple	-10760
▁rulers	-10761
▁tekiri	-10762
▁unjust	-10763
▁warned	-10764
andlesti	-10765
ardochai	-10766
ayogedde	-10767
ayonoona	-10768
begabega	-10769
zaalirwa	-10770
▁And▁you	-10771
▁Galilee	-10772
▁Mu▁biro	-10773
▁The▁man	-10774
▁Yowaasi	-10775
▁ashamed	-10776
▁era▁omu	-10777
▁exalted	-10778
▁execute	-10779
▁had▁not	-10780
▁kindled	-10781
▁monitor	-10782
▁on▁them	-10783
▁stretch	-10784
▁student	-10785
abantu▁bo	-10786
ettabaaza	-10787
e▁Busuuli	-10788
▁How▁long	-10789
▁and▁many	-10790
▁be▁bantu	-10791
▁cast▁out	-10792
▁compared	-10793
▁ebikwata	-10794
▁good▁for	-10795
▁multiply	-10796
▁my▁words	-10797
▁ne▁balya	-10798
▁omukadde	-10799
▁omupiira	-10800
▁politics	-10801
▁regional	-10802
▁the▁wild	-10803
olusiisira	-10804
▁Zeddekiya	-10805
▁asked▁him	-10806
▁bwe▁bityo	-10807
▁entambula	-10808
▁for▁the▁f	-10809
▁mukazi▁wa	-10810
▁nnamwandu	-10811
▁omuddu▁we	-10812
▁ourselves	-10813
▁something	-10814
▁substance	-10815
▁supported	-10816
▁twentieth	-10817
▁wamu▁nabo	-10818
▁witnesses	-10819
▁Awo▁Yesu▁n	-10820
▁baganda▁be	-10821
▁before▁you	-10822
▁Bassekabaka	-10823
▁Ne▁basitula	-10824
▁The▁council	-10825
▁ebya▁ffeeza	-10826
▁mu▁kamwa▁ka	-10827
▁okumaliriza	-10828
▁I▁have▁given	-10829
▁These▁things	-10830
▁accomplished	-10831
▁five▁hundred	-10832
▁will▁provide	-10833
afugira▁emyaka	-10834
▁because▁it▁is	-10835
▁savings▁group	-10836
▁The▁headteacher	-10837
▁omwaka▁oguwedde	-10838
▁the▁word▁of▁God	-10839
ewu	-10840
ggo	-10841
owl	-10842
ubi	-10843
uff	-10844
▁Pr	-10845
▁ep	-10846
▁od	-10847
alum	-10848
ayit	-10849
coal	-10850
ebus	-10851
fall	-10852
inso	-10853
lish	-10854
rees	-10855
umbe	-10856
wamu	-10857
yaza	-10858
▁Due	-10859
▁Job	-10860
▁Mug	-10861
▁Noe	-10862
▁THE	-10863
▁efa	-10864
▁led	-10865
▁mur	-10866
▁nji	-10867
▁nte	-10868
▁rap	-10869
▁sun	-10870
ddeko	-10871
gombe	-10872
iring	-10873
isted	-10874
jja▁n	-10875
kaasi	-10876
makya	-10877
o▁gwo	-10878
unafu	-10879
woobe	-10880
▁Aser	-10881
▁Tetu	-10882
▁Yese	-10883
▁bars	-10884
▁biro	-10885
▁essa	-10886
▁grew	-10887
▁inqu	-10888
▁mach	-10889
▁nayo	-10890
▁path	-10891
▁phys	-10892
▁riot	-10893
▁seat	-10894
▁view	-10895
▁yaku	-10896
ansala	-10897
arters	-10898
aviour	-10899
ed▁not	-10900
empisa	-10901
employ	-10902
gaziya	-10903
obwogi	-10904
yitawo	-10905
▁and▁Z	-10906
▁evils	-10907
▁final	-10908
▁immol	-10909
▁kyayo	-10910
▁lands	-10911
▁mu▁tt	-10912
▁nsolo	-10913
▁studi	-10914
▁thorn	-10915
ebirime	-10916
ecially	-10917
obusika	-10918
taddewo	-10919
tegeere	-10920
wanduka	-10921
wulirwa	-10922
zuleeri	-10923
▁And▁we	-10924
▁Muslim	-10925
▁Ne▁bat	-10926
▁basket	-10927
▁bwe▁za	-10928
▁center	-10929
▁day▁of	-10930
▁emingi	-10931
▁hungry	-10932
▁identi	-10933
▁island	-10934
▁judges	-10935
▁member	-10936
▁mukwan	-10937
▁no▁one	-10938
▁oluggi	-10939
▁pursue	-10940
▁toilet	-10941
▁to▁day	-10942
ajja▁eri	-10943
itulibwa	-10944
okusobya	-10945
▁abazira	-10946
▁bonna▁n	-10947
▁embaawo	-10948
▁even▁to	-10949
▁kiseera	-10950
▁my▁soul	-10951
▁of▁Moab	-10952
▁okugaba	-10953
▁okukwat	-10954
▁on▁high	-10955
▁persons	-10956
▁respond	-10957
abuddwamu	-10958
ambulanga	-10959
attabantu	-10960
mwa▁kange	-10961
▁And▁king	-10962
▁Bannansi	-10963
▁Eddagala	-10964
▁Endwadde	-10965
▁The▁king	-10966
▁amagaali	-10967
▁basobole	-10968
▁ebizimbe	-10969
▁of▁brass	-10970
▁okukuŋŋa	-10971
▁shouldst	-10972
▁them▁not	-10973
▁thoughts	-10974
▁to▁dwell	-10975
▁wansi▁wa	-10976
abantu▁aba	-10977
ed▁himself	-10978
oku▁nguudo	-10979
▁Whosoever	-10980
▁and▁being	-10981
▁and▁the▁p	-10982
▁ba▁ssenyi	-10983
▁embeera▁y	-10984
▁from▁them	-10985
▁improving	-10986
▁mu▁kusoma	-10987
▁mu▁nkambi	-10988
▁third▁day	-10989
▁work▁hard	-10990
ali▁omulamu	-10991
iruubirirwa	-10992
▁And▁I▁said	-10993
▁Ki▁ekirina	-10994
▁bakabona▁n	-10995
▁decided▁to	-10996
▁engaged▁in	-10997
▁experience	-10998
▁into▁the▁p	-10999
▁kubanga▁mu	-11000
▁multitudes	-11001
▁ne▁batwala	-11002
▁nze▁Mukama	-11003
▁okuva▁ku▁l	-11004
▁omwezi▁ogu	-11005
▁production	-11006
▁those▁that	-11007
▁for▁all▁the	-11008
▁mu▁weema▁ey	-11009
▁omukono▁gwo	-11010
▁omutindo▁gw	-11011
▁wa▁Mukama▁n	-11012
▁Era▁ebikolwa	-11013
▁Gavumenti▁er	-11014
▁and▁from▁the	-11015
▁eddoboozi▁ly	-11016
▁of▁my▁people	-11017
▁presidential	-11018
▁social▁media	-11019
▁and▁they▁have	-11020
▁and▁they▁were	-11021
▁bya▁gavumenti	-11022
▁ekintu▁kyonna	-11023
▁environmental	-11024
▁mu▁bumenyi▁bw	-11025
walira▁amateeka	-11026
▁mu▁Kristo▁Yesu	-11027
▁ne▁bajjajjaabe	-11028
▁Abantu▁bangi▁ba	-11029
▁And▁immediately	-11030
pl	-11031
ban	-11032
lap	-11033
war	-11034
abwo	-11035
ague	-11036
gole	-11037
gule	-11038
onyo	-11039
rian	-11040
uuka	-11041
wavu	-11042
▁Cur	-11043
▁Gad	-11044
▁Gid	-11045
▁Okw	-11046
▁bla	-11047
▁ide	-11048
▁key	-11049
▁nat	-11050
▁wet	-11051
▁yea	-11052
abafu	-11053
adiyo	-11054
anias	-11055
ayira	-11056
inywe	-11057
izupa	-11058
kedde	-11059
omu▁m	-11060
oolwa	-11061
osola	-11062
yumba	-11063
▁Anti	-11064
▁It▁s	-11065
▁alik	-11066
▁bowe	-11067
▁disc	-11068
▁emer	-11069
▁insp	-11070
▁lina	-11071
▁mira	-11072
▁room	-11073
agalwa	-11074
embaga	-11075
funamu	-11076
ingira	-11077
isaasa	-11078
reness	-11079
s▁sake	-11080
s▁wife	-11081
wuunya	-11082
▁Nze▁n	-11083
▁block	-11084
▁docum	-11085
▁dress	-11086
▁elder	-11087
▁eteri	-11088
▁gaffe	-11089
▁horse	-11090
▁if▁he	-11091
▁odour	-11092
▁perce	-11093
▁relie	-11094
▁stopp	-11095
▁thief	-11096
▁yeeba	-11097
omukisa	-11098
sibibwa	-11099
▁Emmere	-11100
▁Ne▁bal	-11101
▁Roboam	-11102
▁and▁Jo	-11103
▁busika	-11104
▁byagwo	-11105
▁diffic	-11106
▁mukisa	-11107
▁mu▁lus	-11108
▁ne▁mut	-11109
▁repent	-11110
▁terina	-11111
▁the▁ph	-11112
▁the▁pl	-11113
alagaana	-11114
alibwawo	-11115
atizibwa	-11116
bulaniya	-11117
ed▁their	-11118
ikolebwa	-11119
itegeera	-11120
okuyinza	-11121
▁Muganda	-11122
▁matters	-11123
▁obutaba	-11124
▁selling	-11125
▁the▁fat	-11126
▁tulyoke	-11127
▁violent	-11128
▁Amateeka	-11129
▁District	-11130
▁Mu▁mwaka	-11131
▁alipoota	-11132
▁amagumba	-11133
▁and▁five	-11134
▁at▁night	-11135
▁bwe▁yamu	-11136
▁despised	-11137
▁doth▁not	-11138
▁era▁muna	-11139
▁ku▁mitwe	-11140
▁land▁for	-11141
▁of▁water	-11142
▁partners	-11143
▁salaries	-11144
▁the▁soul	-11145
▁to▁build	-11146
▁to▁drink	-11147
▁was▁made	-11148
▁Awo▁ne▁ba	-11149
▁and▁great	-11150
▁and▁stood	-11151
▁converted	-11152
▁east▁side	-11153
▁last▁week	-11154
▁marriages	-11155
▁mu▁etaano	-11156
▁mu▁lusuku	-11157
▁okutukuvu	-11158
▁operation	-11159
▁pregnancy	-11160
▁providing	-11161
▁they▁that	-11162
▁who▁shall	-11163
ed▁violence	-11164
enkanankana	-11165
s▁should▁be	-11166
▁One▁of▁the	-11167
▁due▁to▁the	-11168
▁each▁other	-11169
▁era▁nga▁ba	-11170
▁ne▁kaakano	-11171
▁nga▁talina	-11172
▁structures	-11173
▁would▁have	-11174
ebyalo▁byako	-11175
▁In▁that▁day	-11176
▁came▁to▁him	-11177
▁emirimu▁gya	-11178
▁mu▁nnaku▁ez	-11179
▁naye▁ne▁bat	-11180
▁obuyambi▁bw	-11181
▁omwaka▁guno	-11182
▁people▁have	-11183
▁The▁Ministry	-11184
▁beemulugunya	-11185
▁ku▁ssabbiiti	-11186
▁neighbouring	-11187
▁put▁to▁death	-11188
▁the▁words▁of	-11189
▁mu▁nnyumba▁ey	-11190
▁began▁to▁reign	-11191
▁ssente▁nnyingi	-11192
▁and▁I▁will▁make	-11193
▁for▁a▁holocaust	-11194
▁mu▁enkumi▁bbiri	-11195
ms	-11196
ila	-11197
ilo	-11198
jee	-11199
onk	-11200
ops	-11201
urp	-11202
▁Ef	-11203
▁Ff	-11204
▁hi	-11205
coun	-11206
eega	-11207
erce	-11208
five	-11209
kodd	-11210
kubi	-11211
raud	-11212
uuza	-11213
wesa	-11214
wind	-11215
woom	-11216
▁Est	-11217
▁Ser	-11218
▁Sik	-11219
▁Tuk	-11220
▁git	-11221
▁lug	-11222
▁lul	-11223
▁row	-11224
▁sum	-11225
afuna	-11226
agera	-11227
anaku	-11228
etege	-11229
igans	-11230
imira	-11231
innyo	-11232
irabo	-11233
kiiti	-11234
uthor	-11235
yamya	-11236
▁Adam	-11237
▁bott	-11238
▁deny	-11239
▁edge	-11240
▁ensa	-11241
▁kabi	-11242
▁news	-11243
▁ne▁P	-11244
▁pala	-11245
▁pled	-11246
▁sett	-11247
▁yafa	-11248
abirwa	-11249
abulon	-11250
akyali	-11251
ements	-11252
fulumi	-11253
ibyoni	-11254
ikidde	-11255
obuntu	-11256
omukka	-11257
ondawo	-11258
▁eyamu	-11259
▁games	-11260
▁kulya	-11261
▁kyama	-11262
▁marry	-11263
▁mbiro	-11264
▁murmu	-11265
▁nnali	-11266
▁not▁a	-11267
▁trade	-11268
Abamoli	-11269
akehold	-11270
ed▁down	-11271
endeera	-11272
essions	-11273
koddomi	-11274
kookolo	-11275
nerable	-11276
olukale	-11277
▁advers	-11278
▁afudde	-11279
▁and▁on	-11280
▁bakazi	-11281
▁calves	-11282
▁comfor	-11283
▁design	-11284
▁extend	-11285
▁him▁up	-11286
▁lawful	-11287
▁mbeera	-11288
▁ne▁wat	-11289
▁of▁man	-11290
▁okumul	-11291
▁omwavu	-11292
▁voters	-11293
okutunda	-11294
wandiike	-11295
▁Okukola	-11296
▁Simeeyi	-11297
▁as▁soon	-11298
▁as▁well	-11299
▁centers	-11300
▁educate	-11301
▁era▁bwe	-11302
▁example	-11303
▁he▁took	-11304
▁injured	-11305
▁kiyamba	-11306
▁letters	-11307
▁like▁to	-11308
▁magistr	-11309
▁mugende	-11310
▁musaayi	-11311
▁mu▁Yuda	-11312
▁of▁Sion	-11313
▁organis	-11314
▁parties	-11315
▁promise	-11316
▁see▁the	-11317
▁shut▁up	-11318
▁such▁as	-11319
▁the▁sin	-11320
▁to▁save	-11321
▁traffic	-11322
▁upon▁me	-11323
endasenda	-11324
okwonoona	-11325
▁Cultural	-11326
▁Mutabani	-11327
▁Olukiiko	-11328
▁abaami▁b	-11329
▁an▁altar	-11330
▁are▁very	-11331
▁ceremony	-11332
▁engeri▁y	-11333
▁independ	-11334
▁into▁thy	-11335
▁knew▁not	-11336
▁obusinga	-11337
▁planting	-11338
▁separate	-11339
▁thing▁to	-11340
▁to▁serve	-11341
▁trumpets	-11342
▁workshop	-11343
▁zisobola	-11344
atambulira	-11345
lyango▁gwa	-11346
wandiikira	-11347
zikiririza	-11348
▁abaana▁be	-11349
▁amagezi▁n	-11350
▁bwe▁kwali	-11351
▁come▁down	-11352
▁confusion	-11353
▁going▁out	-11354
▁justified	-11355
▁ku▁bigere	-11356
▁ku▁kibuga	-11357
▁ku▁mikutu	-11358
▁ministers	-11359
▁mu▁babiri	-11360
▁mu▁kifuba	-11361
▁nga▁tanna	-11362
▁okubaggya	-11363
▁ppikipiki	-11364
▁religious	-11365
▁requested	-11366
▁they▁will	-11367
▁will▁take	-11368
ekifaananyi	-11369
▁Son▁of▁God	-11370
▁They▁shall	-11371
▁because▁it	-11372
▁binaabanga	-11373
▁okukolanga	-11374
▁poured▁out	-11375
▁profitable	-11376
▁sacrificed	-11377
▁technology	-11378
▁to▁all▁the	-11379
▁to▁himself	-11380
wandiikiddwa	-11381
▁affected▁by	-11382
▁ebitali▁bya	-11383
▁emisango▁gy	-11384
▁eri▁abo▁aba	-11385
▁of▁him▁that	-11386
▁of▁the▁just	-11387
▁politicians	-11388
▁tribulation	-11389
▁Amalwaliro▁g	-11390
▁on▁the▁earth	-11391
fukako▁amafuta	-11392
▁Wajja▁kubaawo	-11393
▁mosquito▁nets	-11394
▁mu▁bitundu▁by	-11395
▁with▁the▁sword	-11396
s▁responsibility	-11397
▁because▁he▁hath	-11398
▁okukulaakulanya	-11399
▁the▁king▁of▁the	-11400
dy	-11401
ym	-11402
gye	-11403
iwo	-11404
pon	-11405
▁pp	-11406
amya	-11407
atch	-11408
bbwa	-11409
ebit	-11410
enyu	-11411
kolo	-11412
ober	-11413
osis	-11414
ront	-11415
yoom	-11416
▁Och	-11417
▁Yea	-11418
▁aim	-11419
▁gas	-11420
▁hol	-11421
ategi	-11422
gally	-11423
gnant	-11424
imuli	-11425
menya	-11426
myufu	-11427
rahel	-11428
ument	-11429
▁Kyen	-11430
▁Omut	-11431
▁baak	-11432
▁basi	-11433
▁calf	-11434
▁crim	-11435
▁foun	-11436
▁mask	-11437
▁of▁H	-11438
▁seal	-11439
amiivu	-11440
atures	-11441
ebyuma	-11442
edient	-11443
iseewo	-11444
kakasa	-11445
kuyege	-11446
oloola	-11447
olooza	-11448
omutwe	-11449
werera	-11450
▁anaag	-11451
▁byazo	-11452
▁loins	-11453
▁olumu	-11454
▁study	-11455
▁unity	-11456
abalamu	-11457
abasawo	-11458
attibwa	-11459
ayimusa	-11460
eetebwa	-11461
ggyanga	-11462
ment▁of	-11463
omulala	-11464
vuunama	-11465
yingire	-11466
yogedde	-11467
zuukiza	-11468
▁Having	-11469
▁Jjangu	-11470
▁abaava	-11471
▁almost	-11472
▁amanda	-11473
▁burial	-11474
▁depend	-11475
▁deploy	-11476
▁era▁na	-11477
▁finish	-11478
▁kitono	-11479
▁ku▁lul	-11480
▁ne▁mul	-11481
▁nga▁gu	-11482
▁nga▁ya	-11483
▁omugab	-11484
▁put▁in	-11485
▁recogn	-11486
▁such▁a	-11487
▁timber	-11488
▁vanity	-11489
ekkaliya	-11490
itegeeza	-11491
okuzaala	-11492
wombeefu	-11493
▁Azarias	-11494
▁Syrians	-11495
▁delayed	-11496
▁elector	-11497
▁he▁gave	-11498
▁him▁not	-11499
▁kumpi▁n	-11500
▁njogera	-11501
▁the▁per	-11502
▁toilets	-11503
▁we▁were	-11504
▁wonders	-11505
andibadde	-11506
estilence	-11507
omukulu▁w	-11508
omu▁maaso	-11509
s▁of▁them	-11510
▁Holy▁One	-11511
▁Sedecias	-11512
▁abatuuze	-11513
▁and▁gold	-11514
▁and▁hear	-11515
▁and▁walk	-11516
▁endogoyi	-11517
▁fountain	-11518
▁given▁me	-11519
▁going▁to	-11520
▁grievous	-11521
▁money▁to	-11522
▁mu▁nsalo	-11523
▁okutunda	-11524
▁punished	-11525
▁sanctify	-11526
▁to▁David	-11527
▁upon▁thy	-11528
▁with▁its	-11529
▁Ai▁Mukama	-11530
▁Amorrhite	-11531
▁and▁women	-11532
▁awareness	-11533
▁for▁every	-11534
▁mu▁byonna	-11535
▁this▁word	-11536
▁walibaawo	-11537
▁Mukama▁ali	-11538
▁and▁having	-11539
▁before▁God	-11540
▁ebintu▁ebi	-11541
▁especially	-11542
▁university	-11543
s▁of▁the▁air	-11544
▁abomination	-11545
▁chairperson	-11546
▁contributed	-11547
▁in▁order▁to	-11548
▁of▁the▁army	-11549
▁for▁the▁Lord	-11550
▁okuva▁mu▁nsi	-11551
▁ssaddaaka▁ey	-11552
▁you▁have▁not	-11553
abalibwa▁ku▁bo	-11554
▁mu▁kiseera▁ky	-11555
▁you▁shall▁not	-11556
▁And▁he▁said▁to	-11557
▁health▁centers	-11558
▁okugumiikiriza	-11559
▁the▁firstfruit	-11560
▁into▁the▁temple	-11561
▁kkumi▁na▁babiri	-11562
▁of▁the▁Gentiles	-11563
▁the▁inhabitants	-11564
▁Q	-11565
air	-11566
bid	-11567
bir	-11568
eph	-11569
hor	-11570
reg	-11571
yol	-11572
▁Ok	-11573
aali	-11574
edom	-11575
eeya	-11576
ison	-11577
raft	-11578
sobi	-11579
temu	-11580
ulak	-11581
waze	-11582
weri	-11583
▁Nin	-11584
▁Tut	-11585
▁fee	-11586
▁mpa	-11587
akisi	-11588
alimu	-11589
arias	-11590
armel	-11591
boola	-11592
gebwa	-11593
iniya	-11594
iving	-11595
yizza	-11596
ŋŋent	-11597
▁Kiri	-11598
▁Uzzi	-11599
▁anno	-11600
▁as▁I	-11601
▁baka	-11602
▁bill	-11603
▁caus	-11604
▁dung	-11605
▁emph	-11606
▁ener	-11607
▁entr	-11608
▁firm	-11609
▁pity	-11610
▁tebu	-11611
▁whir	-11612
abidde	-11613
alized	-11614
anguya	-11615
enzigi	-11616
icated	-11617
ortage	-11618
▁Bring	-11619
▁Ekifo	-11620
▁Judea	-11621
▁Laama	-11622
▁Nepht	-11623
▁Water	-11624
▁conta	-11625
▁fenna	-11626
▁lungi	-11627
▁na▁ku	-11628
▁nti▁O	-11629
▁radio	-11630
▁tribu	-11631
alirira	-11632
anyulwa	-11633
atients	-11634
erekera	-11635
oluggya	-11636
pangisa	-11637
▁Balaam	-11638
▁absent	-11639
▁babies	-11640
▁beside	-11641
▁colour	-11642
▁empeta	-11643
▁infirm	-11644
▁ku▁mas	-11645
▁ne▁nku	-11646
▁offend	-11647
▁really	-11648
▁rejoic	-11649
▁unless	-11650
atyabaga	-11651
bonerezo	-11652
ebibiina	-11653
irwanako	-11654
koseddwa	-11655
nakuwala	-11656
▁Tuyinza	-11657
▁You▁can	-11658
▁and▁eat	-11659
▁and▁its	-11660
▁asobola	-11661
▁drivers	-11662
▁from▁my	-11663
▁go▁down	-11664
▁invited	-11665
▁learned	-11666
▁manager	-11667
▁muwendo	-11668
▁obulala	-11669
▁offices	-11670
▁okusiba	-11671
▁to▁be▁a	-11672
ekinnansi	-11673
igansimbi	-11674
▁But▁when	-11675
▁Ebiseera	-11676
▁Isakaali	-11677
▁Security	-11678
▁Where▁is	-11679
▁bulwadde	-11680
▁bwe▁ziri	-11681
▁charcoal	-11682
▁enkola▁y	-11683
▁had▁made	-11684
▁husbands	-11685
▁it▁shall	-11686
▁kino▁kye	-11687
▁ne▁bamus	-11688
▁obukadde	-11689
▁of▁Jesus	-11690
▁okusobya	-11691
▁treasure	-11692
ebitongole	-11693
▁Education	-11694
▁Ekirwadde	-11695
▁Mardochai	-11696
▁Midiyaani	-11697
▁Uganda▁is	-11698
▁Zacharias	-11699
▁abundance	-11700
▁agreed▁to	-11701
▁as▁he▁had	-11702
▁come▁from	-11703
▁forgotten	-11704
▁give▁them	-11705
▁mu▁ataano	-11706
▁mu▁bwangu	-11707
▁nakedness	-11708
▁ne▁mukazi	-11709
▁okukakasa	-11710
▁omuzannyo	-11711
▁shall▁the	-11712
▁unto▁thee	-11713
▁Abasuubuzi	-11714
▁abataliiko	-11715
▁and▁upward	-11716
▁department	-11717
▁firstfruit	-11718
▁gwa▁Mukama	-11719
▁ku▁kitanda	-11720
▁ku▁mirembe	-11721
▁man▁of▁God	-11722
▁ne▁boogera	-11723
▁okuwummula	-11724
yigirizwa▁be	-11725
▁Abakungu▁ba	-11726
▁And▁Solomon	-11727
▁all▁nations	-11728
▁and▁all▁his	-11729
▁mu▁baana▁ba	-11730
▁ku▁byobulamu	-11731
▁omukulembeze	-11732
▁out▁of▁their	-11733
▁the▁students	-11734
▁mu▁mutima▁gwe	-11735
▁ne▁bagolokoka	-11736
▁of▁parliament	-11737
▁should▁not▁be	-11738
▁tempered▁with	-11739
▁ebikumi▁bisatu	-11740
▁investigations	-11741
▁okumala▁emyaka	-11742
▁should▁provide	-11743
▁Moses▁and▁Aaron	-11744
▁The▁ministry▁of	-11745
▁mu▁Mukama▁waffe	-11746
▁the▁seventh▁day	-11747
bbo	-11748
onj	-11749
zir	-11750
aith	-11751
ares	-11752
bang	-11753
dadi	-11754
days	-11755
gaso	-11756
heme	-11757
imye	-11758
oces	-11759
okuw	-11760
oomu	-11761
otya	-11762
wogg	-11763
yuta	-11764
▁Rel	-11765
▁Saf	-11766
▁dam	-11767
▁enr	-11768
▁fix	-11769
▁fun	-11770
▁pip	-11771
▁soj	-11772
aggya	-11773
aleme	-11774
ctors	-11775
etent	-11776
ganga	-11777
iffer	-11778
ighth	-11779
ikivu	-11780
iritu	-11781
olled	-11782
place	-11783
pping	-11784
wanna	-11785
weere	-11786
▁As▁a	-11787
▁Leka	-11788
▁Mich	-11789
▁bato	-11790
▁conn	-11791
▁cord	-11792
▁deta	-11793
▁disg	-11794
▁ekiv	-11795
▁gain	-11796
▁holi	-11797
▁lean	-11798
▁mwas	-11799
▁prey	-11800
▁ring	-11801
▁sock	-11802
▁spot	-11803
▁vend	-11804
▁weed	-11805
▁yand	-11806
alidde	-11807
ambuzi	-11808
asooka	-11809
asters	-11810
ddiini	-11811
ekyuma	-11812
gaanye	-11813
kiya▁n	-11814
olyoka	-11815
omanyi	-11816
sachar	-11817
search	-11818
▁But▁I	-11819
▁Jebus	-11820
▁alleg	-11821
▁amala	-11822
▁amasa	-11823
▁broad	-11824
▁chamb	-11825
▁divid	-11826
▁doors	-11827
▁egimu	-11828
▁knock	-11829
▁lambs	-11830
▁major	-11831
▁okube	-11832
▁ruler	-11833
▁schol	-11834
▁us▁to	-11835
▁witch	-11836
amannya	-11837
eddembe	-11838
etteeka	-11839
imiddwa	-11840
jja▁eri	-11841
tandika	-11842
umulula	-11843
weereze	-11844
▁Ffenna	-11845
▁all▁my	-11846
▁altars	-11847
▁and▁Th	-11848
▁beaten	-11849
▁busatu	-11850
▁costly	-11851
▁ddungu	-11852
▁dioces	-11853
▁era▁ye	-11854
▁female	-11855
▁forget	-11856
▁hidden	-11857
▁kya▁ku	-11858
▁mutima	-11859
▁mu▁mag	-11860
▁nga▁zi	-11861
▁omugga	-11862
▁omuggo	-11863
▁online	-11864
▁prefer	-11865
▁put▁on	-11866
▁secure	-11867
▁solemn	-11868
abagamba	-11869
ation▁is	-11870
ifferent	-11871
irugaali	-11872
omugenzi	-11873
omutindo	-11874
s▁of▁his	-11875
wuubibwa	-11876
▁And▁God	-11877
▁Njagala	-11878
▁Semaaya	-11879
▁You▁are	-11880
▁ababiri	-11881
▁courage	-11882
▁ebibiri	-11883
▁ekyokul	-11884
▁herself	-11885
▁humbled	-11886
▁kwogera	-11887
▁naye▁si	-11888
▁okubuna	-11889
▁okuwona	-11890
▁thy▁son	-11891
▁time▁of	-11892
▁told▁to	-11893
▁trained	-11894
▁utterly	-11895
zeyituuni	-11896
▁Ebikolwa	-11897
▁Eggwanga	-11898
▁Nephtali	-11899
▁bokka▁na	-11900
▁bwe▁bali	-11901
▁declared	-11902
▁dwelleth	-11903
▁mu▁lyato	-11904
▁ne▁batya	-11905
▁of▁great	-11906
▁okumenya	-11907
▁on▁every	-11908
▁shoulder	-11909
▁suddenly	-11910
▁terrible	-11911
▁years▁in	-11912
obulenzi▁n	-11913
omu▁kibuga	-11914
▁agreement	-11915
▁and▁order	-11916
▁conceived	-11917
▁ebibukutu	-11918
▁electoral	-11919
▁engoye▁ze	-11920
▁eza▁zaabu	-11921
▁kawumpuli	-11922
▁okunyweza	-11923
▁shall▁see	-11924
▁the▁found	-11925
▁up▁to▁the	-11926
▁was▁taken	-11927
ateekebwawo	-11928
▁Chanaanite	-11929
▁Omuyinza▁w	-11930
▁Zebbulooni	-11931
▁bwe▁yakola	-11932
▁in▁his▁own	-11933
▁ne▁badduka	-11934
▁omuntu▁omu	-11935
▁profession	-11936
▁refused▁to	-11937
▁transgress	-11938
▁your▁hands	-11939
▁I▁will▁make	-11940
▁consecrated	-11941
▁ennyumba▁ye	-11942
▁gwa▁Katonda	-11943
▁his▁servant	-11944
▁obutassaako	-11945
▁okulondoola	-11946
▁yagamba▁nti	-11947
▁Abafalisaayo	-11948
▁lest▁perhaps	-11949
▁ne▁batambula	-11950
▁of▁the▁field	-11951
▁thousand▁men	-11952
▁Ebitongole▁by	-11953
▁eddoboozi▁lya	-11954
▁embuzi▁ennume	-11955
▁Ne▁boogera▁nti	-11956
▁as▁a▁result▁of	-11957
▁bokka▁na▁bokka	-11958
▁cities▁of▁Juda	-11959
▁concerning▁the	-11960
▁mu▁kkuŋŋaaniro	-11961
▁that▁is▁to▁say	-11962
▁of▁the▁deceased	-11963
dr	-11964
wi	-11965
bba	-11966
gan	-11967
vvu	-11968
yeb	-11969
alis	-11970
alos	-11971
ambo	-11972
anes	-11973
eace	-11974
entu	-11975
itch	-11976
ka▁n	-11977
kizo	-11978
long	-11979
oole	-11980
udan	-11981
umye	-11982
▁Out	-11983
▁Pri	-11984
▁eŋŋ	-11985
▁rum	-11986
▁tta	-11987
adium	-11988
akiri	-11989
amatu	-11990
ato▁n	-11991
daala	-11992
ddako	-11993
eebwa	-11994
fujjo	-11995
igira	-11996
imeny	-11997
jjusa	-11998
kodyo	-11999
tikka	-12000
▁Nath	-12001
▁Tuli	-12002
▁Ziba	-12003
▁conv	-12004
▁fury	-12005
▁in▁S	-12006
▁ku▁B	-12007
▁mbee	-12008
▁mu▁B	-12009
▁spar	-12010
▁valu	-12011
▁wo▁n	-12012
akyuka	-12013
ddwako	-12014
ensoma	-12015
fube▁w	-12016
irwako	-12017
mbadde	-12018
onoony	-12019
ulosis	-12020
▁Gabaa	-12021
▁Leero	-12022
▁Money	-12023
▁Sudan	-12024
▁aliko	-12025
▁brick	-12026
▁divin	-12027
▁drawn	-12028
▁egiri	-12029
▁emeka	-12030
▁ephod	-12031
▁gyali	-12032
▁ku▁mm	-12033
▁labor	-12034
▁lions	-12035
▁nabyo	-12036
▁ntono	-12037
▁okulo	-12038
▁oliba	-12039
▁thick	-12040
ekiruyi	-12041
eme▁oku	-12042
endanga	-12043
fikkawo	-12044
ikirivu	-12045
imirira	-12046
kolenga	-12047
komyawo	-12048
nyonnyo	-12049
obozesa	-12050
obukulu	-12051
ubalama	-12052
▁Benaya	-12053
▁Seyiri	-12054
▁Yosiya	-12055
▁amakub	-12056
▁and▁st	-12057
▁barley	-12058
▁caught	-12059
▁debate	-12060
▁disapp	-12061
▁immune	-12062
▁kusoma	-12063
▁lot▁of	-12064
▁okungi	-12065
▁prayed	-12066
▁refuse	-12067
▁safety	-12068
▁taketh	-12069
▁whilst	-12070
▁you▁to	-12071
amutuuma	-12072
angiddwa	-12073
avuunama	-12074
buubuuka	-12075
erekebwa	-12076
gonjoola	-12077
itutions	-12078
kkookolo	-12079
obulunzi	-12080
timba▁bw	-12081
yambibwa	-12082
▁African	-12083
▁Kitaawe	-12084
▁Malyamu	-12085
▁Mothers	-12086
▁Olunaku	-12087
▁amasasi	-12088
▁awaying	-12089
▁bulenzi	-12090
▁bwe▁bwa	-12091
▁bwe▁tut	-12092
▁chances	-12093
▁ebigezo	-12094
▁efforts	-12095
▁immuniz	-12096
▁looketh	-12097
▁mwagala	-12098
▁naye▁ng	-12099
▁nga▁ndi	-12100
▁okunene	-12101
▁olukoba	-12102
▁olulimi	-12103
▁omwenzi	-12104
▁silence	-12105
▁weeping	-12106
aleetanga	-12107
atuukanga	-12108
ebyambalo	-12109
emereddwa	-12110
emizannyo	-12111
omu▁byalo	-12112
onoonanga	-12113
▁How▁does	-12114
▁Issachar	-12115
▁Malayika	-12116
▁amayonjo	-12117
▁and▁come	-12118
▁benefici	-12119
▁besought	-12120
▁buli▁ana	-12121
▁byetaaga	-12122
▁ekisenge	-12123
▁ennyonyi	-12124
▁exercise	-12125
▁from▁one	-12126
▁ku▁luggi	-12127
▁mwana▁wa	-12128
▁ne▁mu▁ku	-12129
▁oblation	-12130
▁obweyamo	-12131
▁okuba▁ng	-12132
▁okuddamu	-12133
▁okumutta	-12134
▁okuvaamu	-12135
▁omugenyi	-12136
▁precepts	-12137
▁required	-12138
▁requires	-12139
▁than▁the	-12140
▁the▁wise	-12141
▁what▁you	-12142
akuŋŋaanya	-12143
anyiziddwa	-12144
ebyobulimi	-12145
yambisibwa	-12146
▁Community	-12147
▁Poliisi▁e	-12148
▁abaddu▁ba	-12149
▁and▁found	-12150
▁believeth	-12151
▁cannot▁be	-12152
▁ebyetaago	-12153
▁it▁to▁the	-12154
▁ne▁byonna	-12155
▁obusobozi	-12156
▁of▁Galaad	-12157
▁of▁people	-12158
▁okulinnya	-12159
▁they▁went	-12160
▁this▁city	-12161
▁to▁school	-12162
▁which▁you	-12163
abasajja▁ab	-12164
omukono▁gwe	-12165
▁Abasiraamu	-12166
▁And▁he▁did	-12167
▁Katonda▁ow	-12168
▁and▁return	-12169
▁ayinza▁oku	-12170
▁ebya▁zaabu	-12171
▁kabaka▁nti	-12172
▁mu▁munaana	-12173
▁to▁protect	-12174
▁vulnerable	-12175
▁Pulogulaamu	-12176
▁and▁without	-12177
▁as▁the▁Lord	-12178
▁beenyigidde	-12179
▁bwe▁yatuuka	-12180
▁mu▁mulyango	-12181
▁my▁covenant	-12182
▁of▁the▁same	-12183
▁olunaku▁olw	-12184
▁yakwatiddwa	-12185
▁The▁teachers	-12186
▁abali▁embuto	-12187
▁deliver▁them	-12188
▁has▁provided	-12189
▁masannyalaze	-12190
▁ne▁bamuziika	-12191
▁ssente▁mmeka	-12192
▁the▁son▁of▁H	-12193
▁this▁present	-12194
boobubudamu▁ba	-12195
▁Awo▁abaana▁ba	-12196
▁The▁officials	-12197
▁ebintu▁byabwe	-12198
▁essanduuko▁ey	-12199
▁health▁sector	-12200
▁muganda▁wange	-12201
▁the▁spread▁of	-12202
▁to▁the▁ground	-12203
ing▁to▁the▁word	-12204
▁financial▁year	-12205
▁ne▁batabani▁be	-12206
▁shall▁be▁taken	-12207
▁that▁he▁should	-12208
▁abaliko▁obulemu	-12209
wh	-12210
eon	-12211
lay	-12212
sia	-12213
tik	-12214
▁Mp	-12215
▁sn	-12216
abbu	-12217
aleb	-12218
back	-12219
cill	-12220
ebon	-12221
ests	-12222
hend	-12223
olic	-12224
osom	-12225
rate	-12226
sely	-12227
toka	-12228
tume	-12229
wood	-12230
▁Bag	-12231
▁Zeb	-12232
▁arr	-12233
▁dom	-12234
▁enh	-12235
▁rid	-12236
▁sad	-12237
allow	-12238
bacco	-12239
benga	-12240
erosi	-12241
esitt	-12242
igion	-12243
ipped	-12244
onero	-12245
oyima	-12246
tific	-12247
useba	-12248
wenda	-12249
yiiya	-12250
▁babe	-12251
▁else	-12252
▁loss	-12253
▁mu▁g	-12254
▁ne▁E	-12255
▁prev	-12256
▁roof	-12257
▁salt	-12258
▁simp	-12259
▁winn	-12260
ayansi	-12261
bakira	-12262
balaga	-12263
endiva	-12264
enjiri	-12265
ensigo	-12266
funira	-12267
jjanga	-12268
mwa▁ko	-12269
obudde	-12270
tudent	-12271
ukidde	-12272
umyufu	-12273
yambye	-12274
▁Achaz	-12275
▁Aseri	-12276
▁Caath	-12277
▁Never	-12278
▁Other	-12279
▁Three	-12280
▁accus	-12281
▁awaka	-12282
▁belly	-12283
▁bwe▁l	-12284
▁catch	-12285
▁ebita	-12286
▁he▁be	-12287
▁nsalo	-12288
▁okuwu	-12289
▁olive	-12290
▁quali	-12291
▁revol	-12292
▁space	-12293
▁value	-12294
▁walls	-12295
▁wuuyo	-12296
atumira	-12297
ekeddwa	-12298
fukibwa	-12299
jjukizo	-12300
omuzizo	-12301
otyo▁bw	-12302
tereeza	-12303
ukirize	-12304
yambuka	-12305
▁Galgal	-12306
▁Kerode	-12307
▁Nathan	-12308
▁Samuso	-12309
▁afford	-12310
▁and▁Ab	-12311
▁attain	-12312
▁byombi	-12313
▁defile	-12314
▁devils	-12315
▁eighth	-12316
▁ekipya	-12317
▁enjeru	-12318
▁eriiso	-12319
▁forces	-12320
▁fulfil	-12321
▁girdle	-12322
▁interv	-12323
▁kikulu	-12324
▁kyakyo	-12325
▁mu▁bul	-12326
▁mu▁nny	-12327
▁nature	-12328
▁of▁oil	-12329
▁okubas	-12330
▁pillar	-12331
▁plants	-12332
▁sayiri	-12333
▁status	-12334
▁to▁suc	-12335
▁travel	-12336
▁up▁thy	-12337
▁use▁of	-12338
ebidduka	-12339
ed▁to▁me	-12340
ers▁were	-12341
fiiridde	-12342
galamira	-12343
okukuuma	-12344
okumanya	-12345
s▁of▁God	-12346
yoogaano	-12347
▁Gidyoni	-12348
▁Zabulon	-12349
▁baafuna	-12350
▁bataano	-12351
▁bwe▁twa	-12352
▁charged	-12353
▁consump	-12354
▁desired	-12355
▁despise	-12356
▁ekitabo	-12357
▁ekituli	-12358
▁emabega	-12359
▁further	-12360
▁he▁sent	-12361
▁kumakya	-12362
▁kumanya	-12363
▁parable	-12364
▁players	-12365
▁so▁tewa	-12366
▁talanta	-12367
▁upright	-12368
erculosis	-12369
ituusa▁wa	-12370
obubonero	-12371
▁Awo▁ne▁n	-12372
▁Muwulire	-12373
▁Ne▁ndaba	-12374
▁Remember	-12375
▁The▁susp	-12376
▁The▁word	-12377
▁admitted	-12378
▁adultery	-12379
▁evidence	-12380
▁having▁a	-12381
▁kingdoms	-12382
▁ku▁kintu	-12383
▁ku▁mugga	-12384
▁kyebaava	-12385
▁mu▁mpuku	-12386
▁next▁day	-12387
▁okulungi	-12388
▁omuntu▁a	-12389
▁restored	-12390
▁strategi	-12391
▁that▁can	-12392
▁till▁the	-12393
▁used▁for	-12394
▁yayogera	-12395
omwezi▁ogw	-12396
▁ambulance	-12397
▁cast▁them	-12398
▁era▁ndiba	-12399
▁given▁him	-12400
▁mu▁nguudo	-12401
▁provinces	-12402
▁the▁great	-12403
▁the▁wrath	-12404
▁vineyards	-12405
abasajja▁be	-12406
ennyumba▁ye	-12407
essomero▁ya	-12408
▁How▁do▁you	-12409
▁O▁Lord▁God	-12410
▁brought▁me	-12411
▁ekya▁zaabu	-12412
▁end▁of▁the	-12413
▁ku▁luguudo	-12414
▁living▁cre	-12415
▁mu▁luguudo	-12416
▁ogwa▁kkono	-12417
▁shall▁be▁a	-12418
▁son▁of▁man	-12419
▁top▁of▁the	-12420
▁Era▁olikola	-12421
▁Yonasaani▁n	-12422
▁ayogera▁nti	-12423
▁bwe▁baamala	-12424
▁called▁upon	-12425
▁do▁not▁have	-12426
▁nga▁tebanna	-12427
▁omukono▁gwa	-12428
vumbe▁eddungi	-12429
▁Keezeekiya▁n	-12430
▁and▁it▁shall	-12431
▁and▁upon▁the	-12432
▁buli▁kaseera	-12433
▁ennaku▁ssatu	-12434
▁entered▁into	-12435
▁given▁to▁the	-12436
▁he▁shall▁not	-12437
▁mu▁kukkiriza	-12438
▁obwa▁bulijjo	-12439
▁okusisinkana	-12440
▁to▁the▁house	-12441
dda▁oluvuganya	-12442
▁The▁Lord▁hath	-12443
▁awayingirirwa	-12444
▁bannamawulire	-12445
▁emmeeme▁yange	-12446
▁from▁the▁face	-12447
▁ku▁lunaku▁lwe	-12448
▁ku▁nnyumba▁ya	-12449
▁of▁his▁father	-12450
▁seven▁hundred	-12451
▁And▁there▁were	-12452
▁that▁thou▁hast	-12453
▁And▁he▁answered	-12454
▁kubanga▁Katonda	-12455
▁that▁thou▁mayst	-12456
▁wa▁disitulikiti	-12457
20	-12458
kn	-12459
mut	-12460
mye	-12461
non	-12462
▁Ap	-12463
▁rh	-12464
eman	-12465
iimu	-12466
oloo	-12467
reep	-12468
time	-12469
udge	-12470
wako	-12471
weer	-12472
zina	-12473
▁Law	-12474
▁nne	-12475
alice	-12476
anene	-12477
asias	-12478
awona	-12479
dde▁n	-12480
ganiz	-12481
iramb	-12482
itate	-12483
iture	-12484
kyafu	-12485
kyewa	-12486
ommod	-12487
s▁son	-12488
usted	-12489
where	-12490
wonga	-12491
zzi▁b	-12492
▁Ekyo	-12493
▁Firi	-12494
▁Isai	-12495
▁Keep	-12496
▁O▁ye	-12497
▁basa	-12498
▁biba	-12499
▁buck	-12500
▁bury	-12501
▁cold	-12502
▁heed	-12503
▁rebu	-12504
▁reno	-12505
▁ruin	-12506
▁veil	-12507
asimba	-12508
ategee	-12509
ennava	-12510
isuula	-12511
kalakk	-12512
kulula	-12513
lected	-12514
ogenda	-12515
okutya	-12516
tegana	-12517
wadays	-12518
yebusi	-12519
▁Again	-12520
▁Amaka	-12521
▁Urias	-12522
▁abata	-12523
▁amata	-12524
▁ashes	-12525
▁begun	-12526
▁doesn	-12527
▁ebigo	-12528
▁nakyo	-12529
▁ne▁Ab	-12530
▁prove	-12531
▁shoot	-12532
▁sworn	-12533
▁temul	-12534
▁twice	-12535
▁unbel	-12536
▁wa▁ku	-12537
▁weeks	-12538
akamala	-12539
alagula	-12540
alosalo	-12541
ebinnya	-12542
embeeyi	-12543
iraanye	-12544
jjukiza	-12545
kosezza	-12546
okulaba	-12547
olekera	-12548
olunaku	-12549
ompyuta	-12550
peereza	-12551
tenatal	-12552
tendesi	-12553
uulibwa	-12554
▁Abaddu	-12555
▁And▁Jo	-12556
▁Basani	-12557
▁Nammwe	-12558
▁Sidoni	-12559
▁balala	-12560
▁bishop	-12561
▁combat	-12562
▁compas	-12563
▁comput	-12564
▁easily	-12565
▁him▁to	-12566
▁is▁one	-12567
▁kufuna	-12568
▁ku▁bul	-12569
▁league	-12570
▁mu▁mat	-12571
▁nga▁ga	-12572
▁okugob	-12573
▁paying	-12574
▁soever	-12575
▁terror	-12576
▁to▁our	-12577
▁upon▁a	-12578
aweereza	-12579
buulidde	-12580
kungulwa	-12581
obuyambi	-12582
onoonese	-12583
sujja▁gw	-12584
uubirira	-12585
▁Nze▁ndi	-12586
▁We▁need	-12587
▁abatann	-12588
▁all▁men	-12589
▁and▁Abi	-12590
▁conserv	-12591
▁counted	-12592
▁did▁you	-12593
▁dropout	-12594
▁ekigere	-12595
▁elected	-12596
▁emirala	-12597
▁eyali▁a	-12598
▁funding	-12599
▁he▁made	-12600
▁of▁many	-12601
▁okulaga	-12602
▁omuggya	-12603
▁outside	-12604
▁prevail	-12605
▁reserve	-12606
▁she▁had	-12607
▁to▁seek	-12608
▁use▁the	-12609
▁whereof	-12610
lications	-12611
obuwangwa	-12612
zimbiddwa	-12613
▁Football	-12614
▁Okutuusa	-12615
▁Pregnant	-12616
▁Uganda▁e	-12617
▁abantu▁n	-12618
▁accommod	-12619
▁akaseera	-12620
▁balwadde	-12621
▁borehole	-12622
▁bringeth	-12623
▁bwe▁guli	-12624
▁bwe▁kuli	-12625
▁byetaago	-12626
▁dwelling	-12627
▁ekitanda	-12628
▁for▁I▁am	-12629
▁is▁there	-12630
▁mu▁bintu	-12631
▁nange▁nd	-12632
▁nga▁ggwe	-12633
▁nti▁Ggwe	-12634
▁numbered	-12635
▁obagambe	-12636
▁of▁those	-12637
▁personal	-12638
▁position	-12639
▁rejected	-12640
▁unemploy	-12641
▁upon▁her	-12642
▁you▁also	-12643
aliggwaawo	-12644
atunuulira	-12645
azirwanako	-12646
omubisi▁gw	-12647
▁And▁I▁saw	-12648
▁And▁their	-12649
▁abaddu▁bo	-12650
▁came▁into	-12651
▁employees	-12652
▁era▁ndiku	-12653
▁following	-12654
▁libations	-12655
▁many▁days	-12656
▁mu▁bbanga	-12657
▁mu▁ntaana	-12658
▁ne▁Yakobo	-12659
▁obwereere	-12660
▁okukolera	-12661
▁out▁of▁my	-12662
▁presently	-12663
▁sometimes	-12664
▁za▁Uganda	-12665
kalakkalira	-12666
kuŋŋaanyiza	-12667
▁Abavuzi▁ba	-12668
▁Amorrhites	-12669
▁And▁he▁was	-12670
▁Candidates	-12671
▁The▁doctor	-12672
▁ebitongole	-12673
▁kubanga▁ye	-12674
▁meeting▁to	-12675
▁ne▁baddayo	-12676
▁to▁destroy	-12677
Abafalisaayo	-12678
▁Most▁people	-12679
▁and▁he▁died	-12680
▁ebyennyanja	-12681
▁mutuukirivu	-12682
▁mu▁Samaliya	-12683
▁ne▁bafuluma	-12684
▁okutwalibwa	-12685
▁on▁the▁road	-12686
▁there▁was▁a	-12687
▁the▁Levites	-12688
ed▁the▁people	-12689
▁Abasomesa▁ba	-12690
▁Naye▁kaakano	-12691
▁What▁kind▁of	-12692
▁followed▁him	-12693
▁immune▁virus	-12694
▁ku▁lunaku▁lw	-12695
▁mobile▁money	-12696
▁mu▁byobulimi	-12697
▁ne▁bajja▁eri	-12698
▁shall▁perish	-12699
▁Abakrisitaayo	-12700
▁You▁shall▁not	-12701
▁baganda▁bange	-12702
▁improve▁their	-12703
▁mu▁nnyumba▁yo	-12704
▁of▁the▁bridge	-12705
▁okumanyisibwa	-12706
▁on▁the▁ground	-12707
▁that▁had▁been	-12708
▁Of▁the▁sons▁of	-12709
▁accountability	-12710
▁and▁he▁reigned	-12711
▁obulamu▁bwange	-12712
▁at▁the▁district	-12713
▁exceeding▁great	-12714
▁family▁planning	-12715
▁of▁Jesus▁Christ	-12716
▁the▁high▁priest	-12717
ech	-12718
ler	-12719
kali	-12720
kumu	-12721
life	-12722
mall	-12723
onny	-12724
stru	-12725
s▁on	-12726
umbi	-12727
yona	-12728
▁Mun	-12729
▁Nes	-12730
▁Net	-12731
▁Teb	-12732
▁dew	-12733
▁los	-12734
▁pie	-12735
▁sse	-12736
abire	-12737
amata	-12738
awasa	-12739
ddemu	-12740
ereng	-12741
erevu	-12742
girwa	-12743
irime	-12744
itute	-12745
lings	-12746
obusa	-12747
ozias	-12748
tuuko	-12749
woola	-12750
yigga	-12751
yiggo	-12752
▁Aman	-12753
▁Mera	-12754
▁Mika	-12755
▁amen	-12756
▁coat	-12757
▁ease	-12758
▁ende	-12759
▁feel	-12760
▁grie	-12761
▁midw	-12762
▁oint	-12763
▁park	-12764
▁vest	-12765
aba▁ng	-12766
ambuze	-12767
ekyejo	-12768
ggumba	-12769
ically	-12770
ishing	-12771
neenya	-12772
undiro	-12773
zibawo	-12774
zzaamu	-12775
▁Corin	-12776
▁Emath	-12777
▁Eseza	-12778
▁Those	-12779
▁alaba	-12780
▁cedar	-12781
▁chose	-12782
▁enfor	-12783
▁hated	-12784
▁initi	-12785
▁is▁my	-12786
▁makes	-12787
▁memor	-12788
▁motiv	-12789
▁mpola	-12790
▁nga▁m	-12791
▁okugi	-12792
▁okugu	-12793
▁olabe	-12794
▁oleme	-12795
▁omuka	-12796
▁solic	-12797
▁throw	-12798
▁weary	-12799
▁whirl	-12800
dduluba	-12801
ebitabo	-12802
ing▁men	-12803
keŋŋent	-12804
kolinso	-12805
kusense	-12806
lowooza	-12807
▁Be▁not	-12808
▁Gedeon	-12809
▁Kalebu	-12810
▁No▁one	-12811
▁age▁of	-12812
▁also▁a	-12813
▁barren	-12814
▁behalf	-12815
▁choice	-12816
▁direct	-12817
▁entono	-12818
▁era▁ow	-12819
▁eri▁ab	-12820
▁excell	-12821
▁holies	-12822
▁in▁God	-12823
▁kaniki	-12824
▁ku▁kul	-12825
▁mu▁kas	-12826
▁mu▁mis	-12827
▁nnyoko	-12828
▁obutta	-12829
▁of▁any	-12830
▁of▁law	-12831
▁thee▁a	-12832
akakiiko	-12833
golokoka	-12834
ing▁down	-12835
kyusibwa	-12836
ulugunya	-12837
yigganya	-12838
yigirize	-12839
▁Amasias	-12840
▁Hesebon	-12841
▁It▁is▁a	-12842
▁I▁speak	-12843
▁abasatu	-12844
▁amakubo	-12845
▁batunda	-12846
▁contain	-12847
▁convers	-12848
▁curtain	-12849
▁cutting	-12850
▁embrace	-12851
▁enviiri	-12852
▁forsake	-12853
▁kinsman	-12854
▁kye▁nna	-12855
▁may▁not	-12856
▁network	-12857
▁nga▁bee	-12858
▁okubawa	-12859
▁omunene	-12860
▁passeth	-12861
▁praised	-12862
▁regions	-12863
▁reports	-12864
▁the▁car	-12865
▁tugende	-12866
▁unto▁us	-12867
▁wedding	-12868
abantu▁be	-12869
ateekebwa	-12870
eggye▁lye	-12871
gobererwa	-12872
ira▁ddala	-12873
▁Abasuuli	-12874
▁Now▁when	-12875
▁Ochozias	-12876
▁Omukyala	-12877
▁The▁land	-12878
▁Ttiimu▁y	-12879
▁abalenzi	-12880
▁abasumba	-12881
▁cleansed	-12882
▁distance	-12883
▁ekikompe	-12884
▁eri▁mmwe	-12885
▁hardened	-12886
▁muwulire	-12887
▁pleasure	-12888
▁ssentebe	-12889
▁took▁the	-12890
▁wants▁to	-12891
▁weetaaga	-12892
ddulubaale	-12893
ing▁people	-12894
omu▁bbanga	-12895
tification	-12896
yongeranga	-12897
▁Eddoboozi	-12898
▁ennyiriri	-12899
▁have▁done	-12900
▁ku▁nsonda	-12901
▁manner▁of	-12902
▁mu▁Kristo	-12903
▁mu▁bbanka	-12904
▁nange▁ndi	-12905
▁of▁Pharao	-12906
▁okukebera	-12907
▁okwegomba	-12908
▁sepulchre	-12909
▁waggulu▁w	-12910
▁zaabwe▁ez	-12911
ko▁enkomera	-12912
▁Behold▁the	-12913
▁Besirekemu	-12914
▁and▁silver	-12915
▁bangi▁nnyo	-12916
▁bwonna▁obw	-12917
▁mu▁kabenje	-12918
▁mu▁musanvu	-12919
▁omuwala▁wa	-12920
▁their▁land	-12921
▁the▁scribe	-12922
▁the▁strong	-12923
▁wanaabanga	-12924
akola▁ebyali	-12925
▁And▁he▁that	-12926
▁And▁he▁took	-12927
▁and▁destroy	-12928
▁in▁the▁hand	-12929
▁ku▁Isiraeri	-12930
▁land▁of▁the	-12931
▁mirembe▁gya	-12932
▁mwogera▁nti	-12933
▁ne▁bannabbi	-12934
▁obulamu▁bwo	-12935
▁okukuumibwa	-12936
▁okuzimbibwa	-12937
▁the▁sabbath	-12938
▁ziteekeddwa	-12939
▁bwe▁yayogera	-12940
▁clothed▁with	-12941
▁command▁thee	-12942
▁ekigambo▁eky	-12943
▁mu▁nsi▁zonna	-12944
▁omuddu▁wange	-12945
▁the▁families	-12946
▁wiiki▁ewedde	-12947
▁and▁I▁will▁be	-12948
▁and▁shall▁not	-12949
▁from▁the▁hand	-12950
▁international	-12951
▁stretched▁out	-12952
▁that▁he▁would	-12953
▁to▁the▁police	-12954
ekibiina▁kyonna	-12955
▁kubanga▁tewali	-12956
▁of▁the▁priests	-12957
zikiririza▁ddala	-12958
▁Abazadde▁balina	-12959
▁all▁the▁days▁of	-12960
▁before▁the▁king	-12961
▁eri▁ennyumba▁ya	-12962
▁nga▁njogera▁nti	-12963
▁sent▁messengers	-12964
enc	-12965
iar	-12966
inc	-12967
rog	-12968
uga	-12969
uge	-12970
▁Ac	-12971
▁Co	-12972
▁ef	-12973
biya	-12974
core	-12975
enza	-12976
grad	-12977
know	-12978
kuze	-12979
lets	-12980
odge	-12981
onot	-12982
ptom	-12983
utti	-12984
▁Eya	-12985
▁May	-12986
▁Sem	-12987
▁Yam	-12988
▁cri	-12989
▁gum	-12990
▁jjo	-12991
▁kin	-12992
▁nzi	-12993
▁pet	-12994
▁pil	-12995
achel	-12996
alema	-12997
anced	-12998
bamba	-12999
eyita	-13000
jooga	-13001
kenga	-13002
midde	-13003
ollam	-13004
tieth	-13005
wenge	-13006
zuuno	-13007
▁Poor	-13008
▁Will	-13009
▁adop	-13010
▁arch	-13011
▁bind	-13012
▁duti	-13013
▁expi	-13014
▁hypo	-13015
▁kiss	-13016
▁palm	-13017
▁roar	-13018
▁sail	-13019
▁suff	-13020
▁warm	-13021
▁wept	-13022
ansira	-13023
asiima	-13024
eetako	-13025
enguka	-13026
everal	-13027
ggyeko	-13028
iction	-13029
ikwata	-13030
jogera	-13031
though	-13032
tobazi	-13033
watuka	-13034
▁Alaba	-13035
▁Amasa	-13036
▁Mikka	-13037
▁Nedda	-13038
▁Saala	-13039
▁advoc	-13040
▁and▁D	-13041
▁begin	-13042
▁below	-13043
▁bosom	-13044
▁byako	-13045
▁bye▁b	-13046
▁do▁it	-13047
▁fever	-13048
▁focus	-13049
▁honey	-13050
▁lacks	-13051
▁muken	-13052
▁nti▁S	-13053
▁omuwa	-13054
▁sites	-13055
▁steps	-13056
▁tresp	-13057
▁upper	-13058
▁withd	-13059
▁wrang	-13060
abalina	-13061
amaliba	-13062
antiini	-13063
anyweza	-13064
atunula	-13065
baddewo	-13066
ebisibo	-13067
ectives	-13068
ed▁thee	-13069
obulabe	-13070
patitis	-13071
yiikivu	-13072
yinzika	-13073
▁Accord	-13074
▁Master	-13075
▁bbeeyi	-13076
▁course	-13077
▁ebbiri	-13078
▁emigga	-13079
▁engabo	-13080
▁flocks	-13081
▁floods	-13082
▁fornic	-13083
▁humble	-13084
▁loaves	-13085
▁muliba	-13086
▁mu▁bus	-13087
▁mwe▁ya	-13088
▁nkaaga	-13089
▁proced	-13090
▁rebuke	-13091
▁spices	-13092
▁wulira	-13093
abalenzi	-13094
abirwamu	-13095
andidate	-13096
eddagala	-13097
ennimiro	-13098
okubeera	-13099
ukkirira	-13100
▁He▁made	-13101
▁Several	-13102
▁climate	-13103
▁commend	-13104
▁emphasi	-13105
▁enfuufu	-13106
▁ensi▁ey	-13107
▁esobola	-13108
▁kizaala	-13109
▁kugenda	-13110
▁kuleeta	-13111
▁kungulu	-13112
▁laadiyo	-13113
▁lyammwe	-13114
▁mayonjo	-13115
▁of▁Edom	-13116
▁old▁man	-13117
▁ongoing	-13118
▁pleased	-13119
▁reached	-13120
▁teenage	-13121
▁them▁in	-13122
▁the▁cur	-13123
▁uncover	-13124
ebyenfuna	-13125
ekizikiza	-13126
kiikirira	-13127
▁Abalunzi	-13128
▁Bajja▁ku	-13129
▁For▁they	-13130
▁Investig	-13131
▁Laakeeri	-13132
▁The▁army	-13133
▁agasinga	-13134
▁an▁angel	-13135
▁baasabye	-13136
▁become▁a	-13137
▁by▁night	-13138
▁creation	-13139
▁defeated	-13140
▁gajja▁ku	-13141
▁gave▁him	-13142
▁kusalawo	-13143
▁latrines	-13144
▁learners	-13145
▁lujja▁ku	-13146
▁measures	-13147
▁mu▁ttaka	-13148
▁obubenje	-13149
▁of▁peace	-13150
▁of▁these	-13151
▁okugirya	-13152
▁our▁Lord	-13153
▁perished	-13154
▁religion	-13155
▁sensitiz	-13156
▁shepherd	-13157
▁the▁pill	-13158
▁urged▁to	-13159
▁with▁God	-13160
▁your▁own	-13161
kola▁obubi	-13162
▁Different	-13163
▁My▁father	-13164
▁Religious	-13165
▁Ttiimu▁ya	-13166
▁Women▁are	-13167
▁You▁shall	-13168
▁abawagizi	-13169
▁abazannyi	-13170
▁amazzi▁ag	-13171
▁and▁three	-13172
▁bwe▁gwali	-13173
▁comforted	-13174
▁conducted	-13175
▁consulted	-13176
▁it▁is▁not	-13177
▁mukenenya	-13178
▁mu▁mitima	-13179
▁mu▁mulimu	-13180
▁ne▁kabaka	-13181
▁okutereka	-13182
▁otherwise	-13183
▁the▁world	-13184
▁this▁land	-13185
▁this▁time	-13186
▁trying▁to	-13187
abawandiisi	-13188
forestation	-13189
kungubagira	-13190
obulamu▁bwe	-13191
▁Awo▁abantu	-13192
▁The▁priest	-13193
▁bitterness	-13194
▁buried▁him	-13195
▁compassion	-13196
▁ebintu▁bye	-13197
▁ebitaliimu	-13198
▁nga▁basibe	-13199
▁okubeerawo	-13200
▁settlement	-13201
▁this▁thing	-13202
▁People▁need	-13203
▁and▁against	-13204
▁asobola▁oku	-13205
▁bajjajjaffe	-13206
▁bakwatiddwa	-13207
▁circumcised	-13208
▁continually	-13209
▁examination	-13210
▁expected▁to	-13211
▁nga▁bakyali	-13212
▁omutima▁gwo	-13213
▁opportunity	-13214
▁side▁of▁the	-13215
▁so▁tewaliba	-13216
▁Gavumenti▁te	-13217
▁Mu▁biro▁ebyo	-13218
▁and▁the▁name	-13219
▁baana▁baabwe	-13220
▁children▁are	-13221
▁institutions	-13222
▁mu▁kifo▁kino	-13223
▁mu▁kutumbula	-13224
▁nga▁tebalina	-13225
▁pass▁through	-13226
▁there▁was▁no	-13227
▁the▁prophets	-13228
▁will▁be▁held	-13229
▁you▁shall▁be	-13230
▁What▁is▁the▁p	-13231
▁and▁the▁earth	-13232
▁ekigambo▁kino	-13233
▁mu▁mbeera▁mbi	-13234
▁ne▁balyoka▁ba	-13235
▁obuweereza▁bw	-13236
▁okuba▁obusika	-13237
▁the▁number▁of	-13238
▁waggulu▁ennyo	-13239
▁Disitulikiti▁e	-13240
▁Leaders▁should	-13241
▁emirundi▁ebiri	-13242
▁every▁one▁that	-13243
▁princes▁of▁the	-13244
obuvunaanyizibwa	-13245
▁and▁there▁is▁no	-13246
gar	-13247
kat	-13248
lex	-13249
nel	-13250
son	-13251
ziz	-13252
▁Dr	-13253
bage	-13254
eete	-13255
esig	-13256
esth	-13257
etta	-13258
gabi	-13259
icle	-13260
ivil	-13261
kuse	-13262
lies	-13263
mble	-13264
mizi	-13265
oosi	-13266
ored	-13267
simu	-13268
tifi	-13269
zimu	-13270
▁Sit	-13271
▁bra	-13272
▁dim	-13273
▁sso	-13274
amali	-13275
amine	-13276
gerwa	-13277
ggulo	-13278
isama	-13279
obuta	-13280
okuva	-13281
omubi	-13282
pture	-13283
ulimu	-13284
weeyo	-13285
zaayo	-13286
▁Bali	-13287
▁Coun	-13288
▁Geth	-13289
▁Good	-13290
▁Naam	-13291
▁So▁n	-13292
▁Very	-13293
▁Yona	-13294
▁baal	-13295
▁bigg	-13296
▁chap	-13297
▁coup	-13298
▁dism	-13299
▁duke	-13300
▁fans	-13301
▁gala	-13302
▁kira	-13303
▁slow	-13304
▁song	-13305
▁so▁g	-13306
▁terr	-13307
▁toli	-13308
abaali	-13309
antine	-13310
bility	-13311
ddwawo	-13312
eekera	-13313
ekanga	-13314
eoples	-13315
ezaabu	-13316
ggalwa	-13317
ikanga	-13318
itical	-13319
lokozi	-13320
lyanga	-13321
mother	-13322
obodde	-13323
umanga	-13324
werako	-13325
▁Achit	-13326
▁A▁man	-13327
▁Girls	-13328
▁Maama	-13329
▁chast	-13330
▁check	-13331
▁coach	-13332
▁dried	-13333
▁dying	-13334
▁eyaba	-13335
▁loose	-13336
▁meant	-13337
▁mu▁ky	-13338
▁mu▁nt	-13339
▁nga▁k	-13340
▁oblig	-13341
▁omuli	-13342
▁seeth	-13343
ababiri	-13344
abalimi	-13345
ayitawo	-13346
banga▁n	-13347
ekitalo	-13348
embeera	-13349
esthood	-13350
imalawo	-13351
ishment	-13352
jeemera	-13353
omusana	-13354
ongedde	-13355
umiriza	-13356
wanidde	-13357
yonaani	-13358
▁Byonna	-13359
▁For▁we	-13360
▁Gabaon	-13361
▁announ	-13362
▁at▁any	-13363
▁a▁fire	-13364
▁bbaasi	-13365
▁breath	-13366
▁but▁if	-13367
▁eating	-13368
▁ebyoto	-13369
▁finger	-13370
▁giveth	-13371
▁is▁now	-13372
▁leaven	-13373
▁likely	-13374
▁matern	-13375
▁ne▁baz	-13376
▁nga▁li	-13377
▁okuvum	-13378
▁on▁her	-13379
▁poorly	-13380
▁pupils	-13381
▁saving	-13382
▁ssanyu	-13383
▁tebiri	-13384
▁the▁cr	-13385
▁to▁sin	-13386
▁wander	-13387
▁zimala	-13388
amuddamu	-13389
ekiseera	-13390
endereza	-13391
olesebwa	-13392
taagibwa	-13393
▁Hethite	-13394
▁Now▁the	-13395
▁Omuwala	-13396
▁and▁now	-13397
▁bakyala	-13398
▁bulimba	-13399
▁bwe▁kya	-13400
▁bwe▁mwa	-13401
▁changed	-13402
▁ebbanja	-13403
▁eddaala	-13404
▁era▁mul	-13405
▁fifteen	-13406
▁glorify	-13407
▁kika▁ki	-13408
▁ku▁bifo	-13409
▁mukyala	-13410
▁mu▁kiro	-13411
▁nabo▁ba	-13412
▁obutaka	-13413
▁omuzira	-13414
▁proceed	-13415
▁reasons	-13416
▁willing	-13417
▁younger	-13418
agoberera	-13419
ateekanga	-13420
indikibwa	-13421
keberebwa	-13422
struction	-13423
zuuliddwa	-13424
▁Kabaka▁w	-13425
▁O▁Israel	-13426
▁at▁the▁s	-13427
▁bo▁bonna	-13428
▁bya▁Yuda	-13429
▁captives	-13430
▁facility	-13431
▁give▁you	-13432
▁handmaid	-13433
▁him▁into	-13434
▁made▁him	-13435
▁make▁the	-13436
▁mukono▁g	-13437
▁mu▁baana	-13438
▁obukwata	-13439
▁occasion	-13440
▁of▁every	-13441
▁okukwasa	-13442
▁oluyimba	-13443
▁omugaati	-13444
▁proclaim	-13445
▁ready▁to	-13446
▁research	-13447
▁she▁hath	-13448
▁the▁west	-13449
▁you▁that	-13450
andlestick	-13451
onyaabonya	-13452
▁ai▁kabaka	-13453
▁bangi▁aba	-13454
▁buildings	-13455
▁campaigns	-13456
▁endowooza	-13457
▁in▁Christ	-13458
▁is▁a▁very	-13459
▁ku▁bbugwe	-13460
▁much▁more	-13461
▁mukoddomi	-13462
▁mu▁busibe	-13463
▁mu▁mazima	-13464
▁okusitula	-13465
▁omwana▁wo	-13466
▁receiving	-13467
▁testament	-13468
▁whirlwind	-13469
▁with▁your	-13470
ebyokulonda	-13471
▁afterwards	-13472
▁bingi▁nnyo	-13473
▁buli▁mwezi	-13474
▁erinnya▁ly	-13475
▁girl▁child	-13476
▁have▁mercy	-13477
▁mu▁mbuga▁z	-13478
▁neighbours	-13479
▁ne▁baddamu	-13480
▁ne▁baleeta	-13481
▁ne▁wabaawo	-13482
▁of▁his▁own	-13483
▁with▁great	-13484
ubiriizi▁olw	-13485
▁Omuyigiriza	-13486
▁and▁he▁hath	-13487
▁consumption	-13488
▁ekifisseewo	-13489
▁ennyumba▁ey	-13490
▁people▁were	-13491
▁required▁to	-13492
▁Abusaalomu▁n	-13493
▁The▁deceased	-13494
▁in▁thy▁sight	-13495
▁mu▁mikono▁gy	-13496
▁mu▁mirimu▁gy	-13497
▁naye▁kaakano	-13498
▁olubereberye	-13499
▁And▁the▁angel	-13500
▁Awo▁Samwiri▁n	-13501
▁I▁have▁spoken	-13502
▁and▁they▁that	-13503
▁eddoboozi▁lye	-13504
▁ku▁muwendo▁gw	-13505
▁men▁of▁Israel	-13506
▁mu▁linnya▁lya	-13507
▁that▁I▁should	-13508
▁unto▁this▁day	-13509
▁Kubanga▁Mukama	-13510
▁amateeka▁gange	-13511
▁into▁captivity	-13512
▁in▁our▁village	-13513
▁of▁the▁Lord▁is	-13514
▁slept▁with▁his	-13515
▁the▁wilderness	-13516
▁before▁the▁face	-13517
▁other▁countries	-13518
▁over▁the▁Jordan	-13519
;)	-13520
ns	-13521
rr	-13522
bec	-13523
e▁S	-13524
oob	-13525
▁20	-13526
▁Br	-13527
abor	-13528
awul	-13529
bery	-13530
embi	-13531
enee	-13532
fare	-13533
isse	-13534
kere	-13535
kuku	-13536
lema	-13537
ooki	-13538
othy	-13539
quet	-13540
tikk	-13541
uals	-13542
uper	-13543
uusi	-13544
zard	-13545
zi▁w	-13546
▁Baa	-13547
▁Hev	-13548
▁Ind	-13549
▁Mac	-13550
▁Nak	-13551
▁Red	-13552
▁Tul	-13553
▁Zad	-13554
▁als	-13555
▁a▁n	-13556
▁kam	-13557
▁mir	-13558
▁pub	-13559
▁unl	-13560
▁woe	-13561
abatu	-13562
akasi	-13563
alako	-13564
amaka	-13565
arest	-13566
emesa	-13567
estiv	-13568
e▁Bes	-13569
fuuwa	-13570
gassi	-13571
gugun	-13572
istle	-13573
rance	-13574
saale	-13575
sanze	-13576
ya▁by	-13577
yoles	-13578
▁Teba	-13579
▁alig	-13580
▁am▁I	-13581
▁angu	-13582
▁astr	-13583
▁bark	-13584
▁brim	-13585
▁ejja	-13586
▁erad	-13587
▁ezik	-13588
▁item	-13589
▁kano	-13590
▁lies	-13591
▁mubi	-13592
▁pool	-13593
▁stub	-13594
▁west	-13595
▁yawa	-13596
afuuka	-13597
ataano	-13598
crimin	-13599
empewo	-13600
endule	-13601
enkumi	-13602
itambi	-13603
muziga	-13604
romise	-13605
uleeza	-13606
urpose	-13607
zinesi	-13608
▁And▁H	-13609
▁Asafu	-13610
▁Asaph	-13611
▁Awo▁K	-13612
▁Nuuwa	-13613
▁Roads	-13614
▁ababa	-13615
▁advis	-13616
▁agree	-13617
▁bitya	-13618
▁can▁I	-13619
▁decre	-13620
▁greed	-13621
▁herds	-13622
▁instr	-13623
▁kwayo	-13624
▁kye▁k	-13625
▁ninth	-13626
▁nneme	-13627
▁okwer	-13628
▁oluli	-13629
▁porch	-13630
▁riche	-13631
▁shows	-13632
▁veter	-13633
▁weigh	-13634
amasaza	-13635
amilies	-13636
ampaign	-13637
balanga	-13638
bugagga	-13639
bunyisa	-13640
esigama	-13641
ewuunya	-13642
fuganga	-13643
gendera	-13644
iciency	-13645
irukiya	-13646
iryanga	-13647
obwanna	-13648
okukwat	-13649
oldiers	-13650
o▁gonna	-13651
theless	-13652
ulumiza	-13653
vuddeko	-13654
▁Firipo	-13655
▁Merali	-13656
▁Omuddu	-13657
▁Rachel	-13658
▁Waliyo	-13659
▁anaayo	-13660
▁betray	-13661
▁bwe▁bu	-13662
▁by▁day	-13663
▁coasts	-13664
▁crimes	-13665
▁ekyuma	-13666
▁ensawo	-13667
▁essira	-13668
▁kifuba	-13669
▁middle	-13670
▁ne▁Abi	-13671
▁oyo▁ye	-13672
▁palace	-13673
▁savour	-13674
▁search	-13675
▁to▁use	-13676
▁you▁do	-13677
anctuary	-13678
buuzibwa	-13679
engeri▁y	-13680
gendanga	-13681
ifaanana	-13682
kuumibwa	-13683
ving▁the	-13684
wangaala	-13685
wuliriza	-13686
▁Banaias	-13687
▁Of▁what	-13688
▁Schools	-13689
▁amatabi	-13690
▁and▁who	-13691
▁breasts	-13692
▁cholera	-13693
▁diocese	-13694
▁ebimera	-13695
▁ebisibo	-13696
▁eternal	-13697
▁explain	-13698
▁eyalina	-13699
▁fishing	-13700
▁give▁me	-13701
▁highest	-13702
▁kwagala	-13703
▁mu▁bika	-13704
▁natural	-13705
▁ne▁waba	-13706
▁okubuul	-13707
▁okuggya	-13708
▁omulamb	-13709
▁passing	-13710
▁tell▁me	-13711
▁the▁por	-13712
▁the▁spo	-13713
▁treated	-13714
Abanoonyi	-13715
abaddu▁be	-13716
afuluma▁n	-13717
amaanyi▁g	-13718
amaaso▁ge	-13719
ambikibwa	-13720
birizibwa	-13721
onoonyesa	-13722
orruption	-13723
▁Art▁thou	-13724
▁Jezrahel	-13725
▁Kkookolo	-13726
▁Patients	-13727
▁abagenyi	-13728
▁abakuumi	-13729
▁amalungi	-13730
▁and▁them	-13731
▁drinking	-13732
▁ekizimbe	-13733
▁emisaala	-13734
▁entukuvu	-13735
▁existing	-13736
▁glorious	-13737
▁gujja▁ku	-13738
▁his▁head	-13739
▁is▁being	-13740
▁kasasiro	-13741
▁ku▁kyalo	-13742
▁means▁of	-13743
▁moreover	-13744
▁mu▁kyama	-13745
▁mu▁makub	-13746
▁name▁was	-13747
▁nga▁bamu	-13748
▁okudduka	-13749
▁okugatta	-13750
▁omukuumi	-13751
▁priority	-13752
▁properly	-13753
▁straight	-13754
▁thy▁soul	-13755
▁told▁him	-13756
▁tomorrow	-13757
▁with▁joy	-13758
▁zeetaaga	-13759
obujulirwa	-13760
tema▁emiti	-13761
unguwalira	-13762
yingiranga	-13763
▁Bwe▁batyo	-13764
▁They▁will	-13765
▁The▁local	-13766
▁abeerenga	-13767
▁bwe▁bwali	-13768
▁crucified	-13769
▁gave▁them	-13770
▁ga▁Mukama	-13771
▁investors	-13772
▁in▁charge	-13773
▁kutandika	-13774
▁ku▁mmeeza	-13775
▁muwala▁we	-13776
▁ne▁bayita	-13777
▁nnongoofu	-13778
▁personnel	-13779
▁sackcloth	-13780
▁sorrowful	-13781
▁the▁third	-13782
▁wonderful	-13783
balukawo▁kw	-13784
ekitundu▁ky	-13785
erera▁ddala	-13786
omu▁kitundu	-13787
▁Abakrisito	-13788
▁Blessed▁be	-13789
▁During▁the	-13790
▁Kaabuyonjo	-13791
▁Katonda▁wo	-13792
▁Minisitule	-13793
▁Tuyinza▁ku	-13794
▁Why▁should	-13795
▁Yekoyakimu	-13796
▁Yeremiya▁n	-13797
▁beeyongera	-13798
▁conference	-13799
▁considered	-13800
▁desolation	-13801
▁empologoma	-13802
▁his▁mother	-13803
▁lwa▁Mukama	-13804
▁mu▁buyinza	-13805
▁of▁Samaria	-13806
▁of▁Solomon	-13807
▁of▁justice	-13808
▁of▁our▁God	-13809
▁okutuuka▁e	-13810
▁the▁fourth	-13811
▁within▁the	-13812
▁He▁answered	-13813
▁I▁have▁done	-13814
▁Mwana▁wange	-13815
▁and▁we▁will	-13816
▁basic▁needs	-13817
▁kubanga▁nze	-13818
▁many▁things	-13819
▁mu▁bavubuka	-13820
▁okulaba▁nga	-13821
▁omubiri▁gwe	-13822
▁tabernacles	-13823
▁the▁project	-13824
as▁the▁son▁of	-13825
ebintu▁byabwe	-13826
ggya▁mu▁nsi▁y	-13827
▁Mu▁mwaka▁ogw	-13828
▁all▁the▁land	-13829
▁among▁people	-13830
▁are▁they▁not	-13831
▁bye▁yalagira	-13832
▁enkyukakyuka	-13833
▁e▁byetaagisa	-13834
▁mu▁byobufuzi	-13835
▁ne▁babuulira	-13836
▁okwegayirira	-13837
▁when▁I▁shall	-13838
▁And▁there▁was	-13839
▁And▁they▁were	-13840
▁And▁when▁they	-13841
▁Muganda▁wange	-13842
▁and▁the▁house	-13843
▁ebiwaawaatiro	-13844
▁health▁center	-13845
▁ku▁pulojekiti	-13846
▁law▁and▁order	-13847
▁men▁that▁were	-13848
▁mu▁luggya▁olw	-13849
▁mu▁mutima▁gwo	-13850
▁ne▁bakuŋŋaana	-13851
▁number▁of▁the	-13852
▁take▁away▁the	-13853
▁uncircumcised	-13854
▁Ekitongole▁eki	-13855
▁Nebukadduleeza	-13856
▁and▁there▁were	-13857
▁commanded▁thee	-13858
▁and▁he▁shall▁be	-13859
▁buvunaanyizibwa	-13860
▁should▁be▁given	-13861
▁to▁the▁hospital	-13862
ni	-13863
alk	-13864
ifi	-13865
lac	-13866
lam	-13867
odi	-13868
sii	-13869
ybe	-13870
▁Pl	-13871
ales	-13872
ania	-13873
ayig	-13874
engo	-13875
esub	-13876
iter	-13877
kasi	-13878
ooth	-13879
opot	-13880
udas	-13881
unds	-13882
zita	-13883
▁Bel	-13884
▁Bus	-13885
▁Ffe	-13886
▁Mer	-13887
▁Yek	-13888
▁und	-13889
amuel	-13890
craft	-13891
daabu	-13892
ekire	-13893
emned	-13894
eseza	-13895
fumbi	-13896
imbye	-13897
kooye	-13898
kubye	-13899
okasi	-13900
padde	-13901
sians	-13902
stone	-13903
three	-13904
uring	-13905
usabu	-13906
utege	-13907
vanga	-13908
yokya	-13909
yonsa	-13910
▁Akas	-13911
▁Both	-13912
▁Lest	-13913
▁Ne▁n	-13914
▁Tell	-13915
▁abid	-13916
▁alir	-13917
▁alit	-13918
▁baku	-13919
▁bibi	-13920
▁easy	-13921
▁kuva	-13922
▁line	-13923
▁ne▁s	-13924
▁port	-13925
▁pull	-13926
▁tear	-13927
▁ward	-13928
afudde	-13929
amutta	-13930
antiki	-13931
anuuse	-13932
ariath	-13933
asaasa	-13934
atyo▁n	-13935
emigga	-13936
engoye	-13937
enturi	-13938
etuuka	-13939
ikaala	-13940
ko▁nti	-13941
onyeza	-13942
oseewo	-13943
s▁that	-13944
▁Gerus	-13945
▁Helci	-13946
▁Koola	-13947
▁Media	-13948
▁The▁c	-13949
▁abafu	-13950
▁and▁B	-13951
▁and▁O	-13952
▁a▁day	-13953
▁bands	-13954
▁bwe▁n	-13955
▁fekka	-13956
▁folly	-13957
▁front	-13958
▁genda	-13959
▁horns	-13960
▁liber	-13961
▁masks	-13962
▁munno	-13963
▁pluck	-13964
▁scorn	-13965
▁spons	-13966
▁ssava	-13967
▁storm	-13968
▁tebal	-13969
▁twali	-13970
aliya▁n	-13971
asobola	-13972
asulira	-13973
ayirira	-13974
ddukana	-13975
ennanga	-13976
fulumye	-13977
guuliro	-13978
kanyaza	-13979
keranga	-13980
kkirize	-13981
omugavu	-13982
omuzira	-13983
onotono	-13984
ookedde	-13985
servant	-13986
ulumivu	-13987
vunaana	-13988
▁He▁has	-13989
▁Kamani	-13990
▁Madian	-13991
▁appeal	-13992
▁are▁in	-13993
▁as▁yet	-13994
▁author	-13995
▁beheld	-13996
▁bukugu	-13997
▁concub	-13998
▁despis	-13999
▁entalo	-14000
▁except	-14001
▁gwe▁mu	-14002
▁in▁its	-14003
▁ku▁kwe	-14004
▁ku▁nju	-14005
▁kyangu	-14006
▁latter	-14007
▁lubuto	-14008
▁mu▁kis	-14009
▁notice	-14010
▁not▁in	-14011
▁ntiisa	-14012
▁okukol	-14013
▁orders	-14014
▁tender	-14015
▁way▁to	-14016
abambowa	-14017
abazaana	-14018
amugamba	-14019
kwatirwa	-14020
okwogera	-14021
regation	-14022
tegekera	-14023
usabuusa	-14024
▁And▁let	-14025
▁But▁now	-14026
▁Doctors	-14027
▁Sinaayi	-14028
▁Timothy	-14029
▁abaggya	-14030
▁achieve	-14031
▁bagenda	-14032
▁bwe▁mul	-14033
▁captive	-14034
▁current	-14035
▁effects	-14036
[...]
