{
  "version": "1.0",
  "truncation": null,
  "padding": null,
  "added_tokens": [
    {
      "id": 0,
      "content": "<unk>",
      "single_word": false,
      "lstrip": false,
      "rstrip": false,
      "normalized": false,
      "special": true
    },
    {
      "id": 1,
      "content": "<s>",
      "single_word": false,
      "lstrip": false,
      "rstrip": false,
      "normalized": false,
      "special": true
    },
    {
      "id": 2,
      "content": "</s>",
      "single_word": false,
      "lstrip": false,
      "rstrip": false,
      "normalized": false,
      "special": true
    },
    {
      "id": 3,
      "content": "<pad>",
      "single_word": false,
      "lstrip": false,
      "rstrip": false,
      "normalized": false,
      "special": true
    },
    {
      "id": 4,
      "content": "<mask>",
      "single_word": false,
      "lstrip": true,
      "rstrip": false,
      "normalized": true,
      "special": true
    },
    {
      "id": 40000,
      "content": "ace_Arab",
      "single_word": false,
      "lstrip": false,
      "rstrip": false,
      "normalized": false,
      "special": true
    },
    {
      "id": 40001,
      "content": "ace_Latn",
      "single_word": false,
      "lstrip": false,
      "rstrip": false,
      "normalized": false,
      "special": true
    },
    {
      "id": 40002,
      "content": "acm_Arab",
      "single_word": false,
      "lstrip": false,
      "rstrip": false,
      "normalized": false,
      "special": true
    },
    {
      "id": 40003,
      "content": "acq_Arab",
      "single_word": false,
      "lstrip": false,
      "rstrip": false,
      "normalized": false,
      "special": true
    },
    {
      "id": 40004,
      "content": "aeb_Arab",
      "single_word": false,
      "lstrip": false,
      "rstrip": false,
      "normalized": false,
      "special": true
    },
    {
      "id": 40005,
      "content": "afr_Latn",
      "single_word": false,
      "lstrip": false,
      "rstrip": false,
      "normalized": false,
      "special": true
    },
    {
      "id": 40006,
      "content": "ajp_Arab",
      "single_word": false,
      "lstrip": false,
      "rstrip": false,
      "normalized": false,
      "special": true
    },
    {
      "id": 40007,
      "content": "aka_Latn",
      "single_word": false,
      "lstrip": false,
      "rstrip": false,
      "normalized": false,
      "special": true
    },
    {
      "id": 40008,
      "content": "amh_Ethi",
      "single_word": false,
      "lstrip": false,
      "rstrip": false,
      "normalized": false,
      "special": true
    },
    {
      "id": 40009,
      "content": "apc_Arab",
      "single_word": false,
      "lstrip": false,
      "rstrip": false,
      "normalized": false,
      "special": true
    },
    {
      "id": 40010,
      "content": "arb_Arab",
      "single_word": false,
      "lstrip": false,
      "rstrip": false,
      "normalized": false,
      "special": true
    },
    {
      "id": 40011,
      "content": "ars_Arab",
      "single_word": false,
      "lstrip": false,
      "rstrip": false,
      "normalized": false,
      "special": true
    },
    {
      "id": 40012,
      "content": "ary_Arab",
      "single_word": false,
      "lstrip": false,
      "rstrip": false,
      "normalized": false,
      "special": true
    },
    {
      "id": 40013,
      "content": "arz_Arab",
      "single_word": false,
      "lstrip": false,
      "rstrip": false,
      "normalized": false,
      "special": true
    },
    {
      "id": 40014,
      "content": "asm_Beng",
      "single_word": false,
      "lstrip": false,
      "rstrip": false,
      "normalized": false,
      "special": true
    },
    {
      "id": 40015,
      "content": "ast_Latn",
      "single_word": false,
      "lstrip": false,
      "rstrip": false,
      "normalized": false,
      "special": true
    },
    {
      "id": 40016,
      "content": "awa_Deva",
      "single_word": false,
      "lstrip": false,
      "rstrip": false,
      "normalized": false,
      "special": true
    },
    {
      "id": 40017,
      "content": "ayr_Latn",
      "single_word": false,
      "lstrip": false,
      "rstrip": false,
      "normalized": false,
      "special": true
    },
    {
      "id": 40018,
      "content": "azb_Arab",
      "single_word": false,
      "lstrip": false,
      "rstrip": false,
      "normalized": false,
      "special": true
    },
    {
      "id": 40019,
      "content": "azj_Latn",
      "single_word": false,
      "lstrip": false,
      "rstrip": false,
      "normalized": false,
      "special": true
    },
    {
      "id": 40020,
      "content": "bak_Cyrl",
      "single_word": false,
      "lstrip": false,
      "rstrip": false,
      "normalized": false,
      "special": true
    },
    {
      "id": 40021,
      "content": "bam_Latn",
      "single_word": false,
      "lstrip": false,
      "rstrip": false,
      "normalized": false,
      "special": true
    },
    {
      "id": 40022,
      "content": "ban_Latn",
      "single_word": false,
      "lstrip": false,
      "rstrip": false,
      "normalized": false,
      "special": true
    },
    {
      "id": 40023,
      "content": "bel_Cyrl",
      "single_word": false,
      "lstrip": false,
      "rstrip": false,
      "normalized": false,
      "special": true
    },
    {
      "id": 40024,
      "content": "bem_Latn",
      "single_word": false,
      "lstrip": false,
      "rstrip": false,
      "normalized": false,
      "special": true
    },
    {
      "id": 40025,
      "content": "ben_Beng",
      "single_word": false,
      "lstrip": false,
      "rstrip": false,
      "normalized": false,
      "special": true
    },
    {
      "id": 40026,
      "content": "bho_Deva",
      "single_word": false,
      "lstrip": false,
      "rstrip": false,
      "normalized": false,
      "special": true
    },
    {
      "id": 40027,
      "content": "bjn_Arab",
      "single_word": false,
      "lstrip": false,
      "rstrip": false,
      "normalized": false,
      "special": true
    },
    {
      "id": 40028,
      "content": "bjn_Latn",
      "single_word": false,
      "lstrip": false,
      "rstrip": false,
      "normalized": false,
      "special": true
    },
    {
      "id": 40029,
      "content": "bod_Tibt",
      "single_word": false,
      "lstrip": false,
      "rstrip": false,
      "normalized": false,
      "special": true
    },
    {
      "id": 40030,
      "content": "bos_Latn",
      "single_word": false,
      "lstrip": false,
      "rstrip": false,
      "normalized": false,
      "special": true
    },
    {
      "id": 40031,
      "content": "bug_Latn",
      "single_word": false,
      "lstrip": false,
      "rstrip": false,
      "normalized": false,
      "special": true
    },
    {
      "id": 40032,
      "content": "bul_Cyrl",
      "single_word": false,
      "lstrip": false,
      "rstrip": false,
      "normalized": false,
      "special": true
    },
    {
      "id": 40033,
      "content": "cat_Latn",
      "single_word": false,
      "lstrip": false,
      "rstrip": false,
      "normalized": false,
      "special": true
    },
    {
      "id": 40034,
      "content": "ceb_Latn",
      "single_word": false,
      "lstrip": false,
      "rstrip": false,
      "normalized": false,
      "special": true
    },
    {
      "id": 40035,
      "content": "ces_Latn",
      "single_word": false,
      "lstrip": false,
      "rstrip": false,
      "normalized": false,
      "special": true
    },
    {
      "id": 40036,
      "content": "cjk_Latn",
      "single_word": false,
      "lstrip": false,
      "rstrip": false,
      "normalized": false,
      "special": true
    },
    {
      "id": 40037,
      "content": "ckb_Arab",
      "single_word": false,
      "lstrip": false,
      "rstrip": false,
      "normalized": false,
      "special": true
    },
    {
      "id": 40038,
      "content": "crh_Latn",
      "single_word": false,
      "lstrip": false,
      "rstrip": false,
      "normalized": false,
      "special": true
    },
    {
      "id": 40039,
      "content": "cym_Latn",
      "single_word": false,
      "lstrip": false,
      "rstrip": false,
      "normalized": false,
      "special": true
    },
    {
      "id": 40040,
      "content": "dan_Latn",
      "single_word": false,
      "lstrip": false,
      "rstrip": false,
      "normalized": false,
      "special": true
    },
    {
      "id": 40041,
      "content": "deu_Latn",
      "single_word": false,
      "lstrip": false,
      "rstrip": false,
      "normalized": false,
      "special": true
    },
    {
      "id": 40042,
      "content": "dik_Latn",
      "single_word": false,
      "lstrip": false,
      "rstrip": false,
      "normalized": false,
      "special": true
    },
    {
      "id": 40043,
      "content": "dyu_Latn",
      "single_word": false,
      "lstrip": false,
      "rstrip": false,
      "normalized": false,
      "special": true
    },
    {
      "id": 40044,
      "content": "dzo_Tibt",
      "single_word": false,
      "lstrip": false,
      "rstrip": false,
      "normalized": false,
      "special": true
    },
    {
      "id": 40045,
      "content": "ell_Grek",
      "single_word": false,
      "lstrip": false,
      "rstrip": false,
      "normalized": false,
      "special": true
    },
    {
      "id": 40046,
      "content": "eng_Latn",
      "single_word": false,
      "lstrip": false,
      "rstrip": false,
      "normalized": false,
      "special": true
    },
    {
      "id": 40047,
      "content": "epo_Latn",
      "single_word": false,
      "lstrip": false,
      "rstrip": false,
      "normalized": false,
      "special": true
    },
    {
      "id": 40048,
      "content": "est_Latn",
      "single_word": false,
      "lstrip": false,
      "rstrip": false,
      "normalized": false,
      "special": true
    },
    {
      "id": 40049,
      "content": "eus_Latn",
      "single_word": false,
      "lstrip": false,
      "rstrip": false,
      "normalized": false,
      "special": true
    },
    {
      "id": 40050,
      "content": "ewe_Latn",
      "single_word": false,
      "lstrip": false,
      "rstrip": false,
      "normalized": false,
      "special": true
    },
    {
      "id": 40051,
      "content": "fao_Latn",
      "single_word": false,
      "lstrip": false,
      "rstrip": false,
      "normalized": false,
      "special": true
    },
    {
      "id": 40052,
      "content": "pes_Arab",
      "single_word": false,
      "lstrip": false,
      "rstrip": false,
      "normalized": false,
      "special": true
    },
    {
      "id": 40053,
      "content": "fij_Latn",
      "single_word": false,
      "lstrip": false,
      "rstrip": false,
      "normalized": false,
      "special": true
    },
    {
      "id": 40054,
      "content": "fin_Latn",
      "single_word": false,
      "lstrip": false,
      "rstrip": false,
      "normalized": false,
      "special": true
    },
    {
      "id": 40055,
      "content": "fon_Latn",
      "single_word": false,
      "lstrip": false,
      "rstrip": false,
      "normalized": false,
      "special": true
    },
    {
      "id": 40056,
      "content": "fra_Latn",
      "single_word": false,
      "lstrip": false,
      "rstrip": false,
      "normalized": false,
      "special": true
    },
    {
      "id": 40057,
      "content": "fur_Latn",
      "single_word": false,
      "lstrip": false,
      "rstrip": false,
      "normalized": false,
      "special": true
    },
    {
      "id": 40058,
      "content": "fuv_Latn",
      "single_word": false,
      "lstrip": false,
      "rstrip": false,
      "normalized": false,
      "special": true
    },
    {
      "id": 40059,
      "content": "gla_Latn",
      "single_word": false,
      "lstrip": false,
      "rstrip": false,
      "normalized": false,
      "special": true
    },
    {
      "id": 40060,
      "content": "gle_Latn",
      "single_word": false,
      "lstrip": false,
      "rstrip": false,
      "normalized": false,
      "special": true
    },
    {
      "id": 40061,
      "content": "glg_Latn",
      "single_word": false,
      "lstrip": false,
      "rstrip": false,
      "normalized": false,
      "special": true
    },
    {
      "id": 40062,
      "content": "grn_Latn",
      "single_word": false,
      "lstrip": false,
      "rstrip": false,
      "normalized": false,
      "special": true
    },
    {
      "id": 40063,
      "content": "guj_Gujr",
      "single_word": false,
      "lstrip": false,
      "rstrip": false,
      "normalized": false,
      "special": true
    },
    {
      "id": 40064,
      "content": "hat_Latn",
      "single_word": false,
      "lstrip": false,
      "rstrip": false,
      "normalized": false,
      "special": true
    },
    {
      "id": 40065,
      "content": "hau_Latn",
      "single_word": false,
      "lstrip": false,
      "rstrip": false,
      "normalized": false,
      "special": true
    },
    {
      "id": 40066,
      "content": "heb_Hebr",
      "single_word": false,
      "lstrip": false,
      "rstrip": false,
      "normalized": false,
      "special": true
    },
    {
      "id": 40067,
      "content": "hin_Deva",
      "single_word": false,
      "lstrip": false,
      "rstrip": false,
      "normalized": false,
      "special": true
    },
    {
      "id": 40068,
      "content": "hne_Deva",
      "single_word": false,
      "lstrip": false,
      "rstrip": false,
      "normalized": false,
      "special": true
    },
    {
      "id": 40069,
      "content": "hrv_Latn",
      "single_word": false,
      "lstrip": false,
      "rstrip": false,
      "normalized": false,
      "special": true
    },
    {
      "id": 40070,
      "content": "hun_Latn",
      "single_word": false,
      "lstrip": false,
      "rstrip": false,
      "normalized": false,
      "special": true
    },
    {
      "id": 40071,
      "content": "hye_Armn",
      "single_word": false,
      "lstrip": false,
      "rstrip": false,
      "normalized": false,
      "special": true
    },
    {
      "id": 40072,
      "content": "ibo_Latn",
      "single_word": false,
      "lstrip": false,
      "rstrip": false,
      "normalized": false,
      "special": true
    },
    {
      "id": 40073,
      "content": "ilo_Latn",
      "single_word": false,
      "lstrip": false,
      "rstrip": false,
      "normalized": false,
      "special": true
    },
    {
      "id": 40074,
      "content": "ind_Latn",
      "single_word": false,
      "lstrip": false,
      "rstrip": false,
      "normalized": false,
      "special": true
    },
    {
      "id": 40075,
      "content": "isl_Latn",
      "single_word": false,
      "lstrip": false,
      "rstrip": false,
      "normalized": false,
      "special": true
    },
    {
      "id": 40076,
      "content": "ita_Latn",
      "single_word": false,
      "lstrip": false,
      "rstrip": false,
      "normalized": false,
      "special": true
    },
    {
      "id": 40077,
      "content": "jav_Latn",
      "single_word": false,
      "lstrip": false,
      "rstrip": false,
      "normalized": false,
      "special": true
    },
    {
      "id": 40078,
      "content": "jpn_Jpan",
      "single_word": false,
      "lstrip": false,
      "rstrip": false,
      "normalized": false,
      "special": true
    },
    {
      "id": 40079,
      "content": "kab_Latn",
      "single_word": false,
      "lstrip": false,
      "rstrip": false,
      "normalized": false,
      "special": true
    },
    {
      "id": 40080,
      "content": "kac_Latn",
      "single_word": false,
      "lstrip": false,
      "rstrip": false,
      "normalized": false,
      "special": true
    },
    {
      "id": 40081,
      "content": "kam_Latn",
      "single_word": false,
      "lstrip": false,
      "rstrip": false,
      "normalized": false,
      "special": true
    },
    {
      "id": 40082,
      "content": "kan_Knda",
      "single_word": false,
      "lstrip": false,
      "rstrip": false,
      "normalized": false,
      "special": true
    },
    {
      "id": 40083,
      "content": "kas_Arab",
      "single_word": false,
      "lstrip": false,
      "rstrip": false,
      "normalized": false,
      "special": true
    },
    {
      "id": 40084,
      "content": "kas_Deva",
      "single_word": false,
      "lstrip": false,
      "rstrip": false,
      "normalized": false,
      "special": true
    },
    {
      "id": 40085,
      "content": "kat_Geor",
      "single_word": false,
      "lstrip": false,
      "rstrip": false,
      "normalized": false,
      "special": true
    },
    {
      "id": 40086,
      "content": "knc_Arab",
      "single_word": false,
      "lstrip": false,
      "rstrip": false,
      "normalized": false,
      "special": true
    },
    {
      "id": 40087,
      "content": "knc_Latn",
      "single_word": false,
      "lstrip": false,
      "rstrip": false,
      "normalized": false,
      "special": true
    },
    {
      "id": 40088,
      "content": "kaz_Cyrl",
      "single_word": false,
      "lstrip": false,
      "rstrip": false,
      "normalized": false,
      "special": true
    },
    {
      "id": 40089,
      "content": "kbp_Latn",
      "single_word": false,
      "lstrip": false,
      "rstrip": false,
      "normalized": false,
      "special": true
    },
    {
      "id": 40090,
      "content": "kea_Latn",
      "single_word": false,
      "lstrip": false,
      "rstrip": false,
      "normalized": false,
      "special": true
    },
    {
      "id": 40091,
      "content": "khm_Khmr",
      "single_word": false,
      "lstrip": false,
      "rstrip": false,
      "normalized": false,
      "special": true
    },
    {
      "id": 40092,
      "content": "kik_Latn",
      "single_word": false,
      "lstrip": false,
      "rstrip": false,
      "normalized": false,
      "special": true
    },
    {
      "id": 40093,
      "content": "kin_Latn",
      "single_word": false,
      "lstrip": false,
      "rstrip": false,
      "normalized": false,
      "special": true
    },
    {
      "id": 40094,
      "content": "kir_Cyrl",
      "single_word": false,
      "lstrip": false,
      "rstrip": false,
      "normalized": false,
      "special": true
    },
    {
      "id": 40095,
      "content": "kmb_Latn",
      "single_word": false,
      "lstrip": false,
      "rstrip": false,
      "normalized": false,
      "special": true
    },
    {
      "id": 40096,
      "content": "kon_Latn",
      "single_word": false,
      "lstrip": false,
      "rstrip": false,
      "normalized": false,
      "special": true
    },
    {
      "id": 40097,
      "content": "kor_Hang",
      "single_word": false,
      "lstrip": false,
      "rstrip": false,
      "normalized": false,
      "special": true
    },
    {
      "id": 40098,
      "content": "kmr_Latn",
      "single_word": false,
      "lstrip": false,
      "rstrip": false,
      "normalized": false,
      "special": true
    },
    {
      "id": 40099,
      "content": "lao_Laoo",
      "single_word": false,
      "lstrip": false,
      "rstrip": false,
      "normalized": false,
      "special": true
    },
    {
      "id": 40100,
      "content": "lvs_Latn",
      "single_word": false,
      "lstrip": false,
      "rstrip": false,
      "normalized": false,
      "special": true
    },
    {
      "id": 40101,
      "content": "lij_Latn",
      "single_word": false,
      "lstrip": false,
      "rstrip": false,
      "normalized": false,
      "special": true
    },
    {
      "id": 40102,
      "content": "lim_Latn",
      "single_word": false,
      "lstrip": false,
      "rstrip": false,
      "normalized": false,
      "special": true
    },
    {
      "id": 40103,
      "content": "lin_Latn",
      "single_word": false,
      "lstrip": false,
      "rstrip": false,
      "normalized": false,
      "special": true
    },
    {
      "id": 40104,
      "content": "lit_Latn",
      "single_word": false,
      "lstrip": false,
      "rstrip": false,
      "normalized": false,
      "special": true
    },
    {
      "id": 40105,
      "content": "lmo_Latn",
      "single_word": false,
      "lstrip": false,
      "rstrip": false,
      "normalized": false,
      "special": true
    },
    {
      "id": 40106,
      "content": "ltg_Latn",
      "single_word": false,
      "lstrip": false,
      "rstrip": false,
      "normalized": false,
      "special": true
    },
    {
      "id": 40107,
      "content": "ltz_Latn",
      "single_word": false,
      "lstrip": false,
      "rstrip": false,
      "normalized": false,
      "special": true
    },
    {
      "id": 40108,
      "content": "lua_Latn",
      "single_word": false,
      "lstrip": false,
      "rstrip": false,
      "normalized": false,
      "special": true
    },
    {
      "id": 40109,
      "content": "lug_Latn",
      "single_word": false,
      "lstrip": false,
      "rstrip": false,
      "normalized": false,
      "special": true
    },
    {
      "id": 40110,
      "content": "luo_Latn",
      "single_word": false,
      "lstrip": false,
      "rstrip": false,
      "normalized": false,
      "special": true
    },
    {
      "id": 40111,
      "content": "lus_Latn",
      "single_word": false,
      "lstrip": false,
      "rstrip": false,
      "normalized": false,
      "special": true
    },
    {
      "id": 40112,
      "content": "mag_Deva",
      "single_word": false,
      "lstrip": false,
      "rstrip": false,
      "normalized": false,
      "special": true
    },
    {
      "id": 40113,
      "content": "mai_Deva",
      "single_word": false,
      "lstrip": false,
      "rstrip": false,
      "normalized": false,
      "special": true
    },
    {
      "id": 40114,
      "content": "mal_Mlym",
      "single_word": false,
      "lstrip": false,
      "rstrip": false,
      "normalized": false,
      "special": true
    },
    {
      "id": 40115,
      "content": "mar_Deva",
      "single_word": false,
      "lstrip": false,
      "rstrip": false,
      "normalized": false,
      "special": true
    },
    {
      "id": 40116,
      "content": "min_Latn",
      "single_word": false,
      "lstrip": false,
      "rstrip": false,
      "normalized": false,
      "special": true
    },
    {
      "id": 40117,
      "content": "mkd_Cyrl",
      "single_word": false,
      "lstrip": false,
      "rstrip": false,
      "normalized": false,
      "special": true
    },
    {
      "id": 40118,
      "content": "plt_Latn",
      "single_word": false,
      "lstrip": false,
      "rstrip": false,
      "normalized": false,
      "special": true
    },
    {
      "id": 40119,
      "content": "mlt_Latn",
      "single_word": false,
      "lstrip": false,
      "rstrip": false,
      "normalized": false,
      "special": true
    },
    {
      "id": 40120,
      "content": "mni_Beng",
      "single_word": false,
      "lstrip": false,
      "rstrip": false,
      "normalized": false,
      "special": true
    },
    {
      "id": 40121,
      "content": "khk_Cyrl",
      "single_word": false,
      "lstrip": false,
      "rstrip": false,
      "normalized": false,
      "special": true
    },
    {
      "id": 40122,
      "content": "mos_Latn",
      "single_word": false,
      "lstrip": false,
      "rstrip": false,
      "normalized": false,
      "special": true
    },
    {
      "id": 40123,
      "content": "mri_Latn",
      "single_word": false,
      "lstrip": false,
      "rstrip": false,
      "normalized": false,
      "special": true
    },
    {
      "id": 40124,
      "content": "zsm_Latn",
      "single_word": false,
      "lstrip": false,
      "rstrip": false,
      "normalized": false,
      "special": true
    },
    {
      "id": 40125,
      "content": "mya_Mymr",
      "single_word": false,
      "lstrip": false,
      "rstrip": false,
      "normalized": false,
      "special": true
    },
    {
      "id": 40126,
      "content": "nld_Latn",
      "single_word": false,
      "lstrip": false,
      "rstrip": false,
      "normalized": false,
      "special": true
    },
    {
      "id": 40127,
      "content": "nno_Latn",
      "single_word": false,
      "lstrip": false,
      "rstrip": false,
      "normalized": false,
      "special": true
    },
    {
      "id": 40128,
      "content": "nob_Latn",
      "single_word": false,
      "lstrip": false,
      "rstrip": false,
      "normalized": false,
      "special": true
    },
    {
      "id": 40129,
      "content": "npi_Deva",
      "single_word": false,
      "lstrip": false,
      "rstrip": false,
      "normalized": false,
      "special": true
    },
    {
      "id": 40130,
      "content": "nso_Latn",
      "single_word": false,
      "lstrip": false,
      "rstrip": false,
      "normalized": false,
      "special": true
    },
    {
      "id": 40131,
      "content": "nus_Latn",
      "single_word": false,
      "lstrip": false,
      "rstrip": false,
      "normalized": false,
      "special": true
    },
    {
      "id": 40132,
      "content": "nya_Latn",
      "single_word": false,
      "lstrip": false,
      "rstrip": false,
      "normalized": false,
      "special": true
    },
    {
      "id": 40133,
      "content": "oci_Latn",
      "single_word": false,
      "lstrip": false,
      "rstrip": false,
      "normalized": false,
      "special": true
    },
    {
      "id": 40134,
      "content": "gaz_Latn",
      "single_word": false,
      "lstrip": false,
      "rstrip": false,
      "normalized": false,
      "special": true
    },
    {
      "id": 40135,
      "content": "ory_Orya",
      "single_word": false,
      "lstrip": false,
      "rstrip": false,
      "normalized": false,
      "special": true
    },
    {
      "id": 40136,
      "content": "pag_Latn",
      "single_word": false,
      "lstrip": false,
      "rstrip": false,
      "normalized": false,
      "special": true
    },
    {
      "id": 40137,
      "content": "pan_Guru",
      "single_word": false,
      "lstrip": false,
      "rstrip": false,
      "normalized": false,
      "special": true
    },
    {
      "id": 40138,
      "content": "pap_Latn",
      "single_word": false,
      "lstrip": false,
      "rstrip": false,
      "normalized": false,
      "special": true
    },
    {
      "id": 40139,
      "content": "pol_Latn",
      "single_word": false,
      "lstrip": false,
      "rstrip": false,
      "normalized": false,
      "special": true
    },
    {
      "id": 40140,
      "content": "por_Latn",
      "single_word": false,
      "lstrip": false,
      "rstrip": false,
      "normalized": false,
      "special": true
    },
    {
      "id": 40141,
      "content": "prs_Arab",
      "single_word": false,
      "lstrip": false,
      "rstrip": false,
      "normalized": false,
      "special": true
    },
    {
      "id": 40142,
      "content": "pbt_Arab",
      "single_word": false,
      "lstrip": false,
      "rstrip": false,
      "normalized": false,
      "special": true
    },
    {
      "id": 40143,
      "content": "quy_Latn",
      "single_word": false,
      "lstrip": false,
      "rstrip": false,
      "normalized": false,
      "special": true
    },
    {
      "id": 40144,
      "content": "ron_Latn",
      "single_word": false,
      "lstrip": false,
      "rstrip": false,
      "normalized": false,
      "special": true
    },
    {
      "id": 40145,
      "content": "run_Latn",
      "single_word": false,
      "lstrip": false,
      "rstrip": false,
      "normalized": false,
      "special": true
    },
    {
      "id": 40146,
      "content": "rus_Cyrl",
      "single_word": false,
      "lstrip": false,
      "rstrip": false,
      "normalized": false,
      "special": true
    },
    {
      "id": 40147,
      "content": "sag_Latn",
      "single_word": false,
      "lstrip": false,
      "rstrip": false,
      "normalized": false,
      "special": true
    },
    {
      "id": 40148,
      "content": "san_Deva",
      "single_word": false,
      "lstrip": false,
      "rstrip": false,
      "normalized": false,
      "special": true
    },
    {
      "id": 40149,
      "content": "sat_Beng",
      "single_word": false,
      "lstrip": false,
      "rstrip": false,
      "normalized": false,
      "special": true
    },
    {
      "id": 40150,
      "content": "scn_Latn",
      "single_word": false,
      "lstrip": false,
      "rstrip": false,
      "normalized": false,
      "special": true
    },
    {
      "id": 40151,
      "content": "shn_Mymr",
      "single_word": false,
      "lstrip": false,
      "rstrip": false,
      "normalized": false,
      "special": true
    },
    {
      "id": 40152,
      "content": "sin_Sinh",
      "single_word": false,
      "lstrip": false,
      "rstrip": false,
      "normalized": false,
      "special": true
    },
    {
      "id": 40153,
      "content": "slk_Latn",
      "single_word": false,
      "lstrip": false,
      "rstrip": false,
      "normalized": false,
      "special": true
    },
    {
      "id": 40154,
      "content": "slv_Latn",
      "single_word": false,
      "lstrip": false,
      "rstrip": false,
      "normalized": false,
      "special": true
    },
    {
      "id": 40155,
      "content": "smo_Latn",
      "single_word": false,
      "lstrip": false,
      "rstrip": false,
      "normalized": false,
      "special": true
    },
    {
      "id": 40156,
      "content": "sna_Latn",
      "single_word": false,
      "lstrip": false,
      "rstrip": false,
      "normalized": false,
      "special": true
    },
    {
      "id": 40157,
      "content": "snd_Arab",
      "single_word": false,
      "lstrip": false,
      "rstrip": false,
      "normalized": false,
      "special": true
    },
    {
      "id": 40158,
      "content": "som_Latn",
      "single_word": false,
      "lstrip": false,
      "rstrip": false,
      "normalized": false,
      "special": true
    },
    {
      "id": 40159,
      "content": "sot_Latn",
      "single_word": false,
      "lstrip": false,
      "rstrip": false,
      "normalized": false,
      "special": true
    },
    {
      "id": 40160,
      "content": "spa_Latn",
      "single_word": false,
      "lstrip": false,
      "rstrip": false,
      "normalized": false,
      "special": true
    },
    {
      "id": 40161,
      "content": "als_Latn",
      "single_word": false,
      "lstrip": false,
      "rstrip": false,
      "normalized": false,
      "special": true
    },
    {
      "id": 40162,
      "content": "srd_Latn",
      "single_word": false,
      "lstrip": false,
      "rstrip": false,
      "normalized": false,
      "special": true
    },
    {
      "id": 40163,
      "content": "srp_Cyrl",
      "single_word": false,
      "lstrip": false,
      "rstrip": false,
      "normalized": false,
      "special": true
    },
    {
      "id": 40164,
      "content": "ssw_Latn",
      "single_word": false,
      "lstrip": false,
      "rstrip": false,
      "normalized": false,
      "special": true
    },
    {
      "id": 40165,
      "content": "sun_Latn",
      "single_word": false,
      "lstrip": false,
      "rstrip": false,
      "normalized": false,
      "special": true
    },
    {
      "id": 40166,
      "content": "swe_Latn",
      "single_word": false,
      "lstrip": false,
      "rstrip": false,
      "normalized": false,
      "special": true
    },
    {
      "id": 40167,
      "content": "swh_Latn",
      "single_word": false,
      "lstrip": false,
      "rstrip": false,
      "normalized": false,
      "special": true
    },
    {
      "id": 40168,
      "content": "szl_Latn",
      "single_word": false,
      "lstrip": false,
      "rstrip": false,
      "normalized": false,
      "special": true
    },
    {
      "id": 40169,
      "content": "tam_Taml",
      "single_word": false,
      "lstrip": false,
      "rstrip": false,
      "normalized": false,
      "special": true
    },
    {
      "id": 40170,
      "content": "tat_Cyrl",
      "single_word": false,
      "lstrip": false,
      "rstrip": false,
      "normalized": false,
      "special": true
    },
    {
      "id": 40171,
      "content": "tel_Telu",
      "single_word": false,
      "lstrip": false,
      "rstrip": false,
      "normalized": false,
      "special": true
    },
    {
      "id": 40172,
      "content": "tgk_Cyrl",
      "single_word": false,
      "lstrip": false,
      "rstrip": false,
      "normalized": false,
      "special": true
    },
    {
      "id": 40173,
      "content": "tgl_Latn",
      "single_word": false,
      "lstrip": false,
      "rstrip": false,
      "normalized": false,
      "special": true
    },
    {
      "id": 40174,
      "content": "tha_Thai",
      "single_word": false,
      "lstrip": false,
      "rstrip": false,
      "normalized": false,
      "special": true
    },
    {
      "id": 40175,
      "content": "tir_Ethi",
      "single_word": false,
      "lstrip": false,
      "rstrip": false,
      "normalized": false,
      "special": true
    },
    {
      "id": 40176,
      "content": "taq_Latn",
      "single_word": false,
      "lstrip": false,
      "rstrip": false,
      "normalized": false,
      "special": true
    },
    {
      "id": 40177,
      "content": "taq_Tfng",
      "single_word": false,
      "lstrip": false,
      "rstrip": false,
      "normalized": false,
      "special": true
    },
    {
      "id": 40178,
      "content": "tpi_Latn",
      "single_word": false,
      "lstrip": false,
      "rstrip": false,
      "normalized": false,
      "special": true
    },
    {
      "id": 40179,
      "content": "tsn_Latn",
      "single_word": false,
      "lstrip": false,
      "rstrip": false,
      "normalized": false,
      "special": true
    },
    {
      "id": 40180,
      "content": "tso_Latn",
      "single_word": false,
      "lstrip": false,
      "rstrip": false,
      "normalized": false,
      "special": true
    },
    {
      "id": 40181,
      "content": "tuk_Latn",
      "single_word": false,
      "lstrip": false,
      "rstrip": false,
      "normalized": false,
      "special": true
    },
    {
      "id": 40182,
      "content": "tum_Latn",
      "single_word": false,
      "lstrip": false,
      "rstrip": false,
      "normalized": false,
      "special": true
    },
    {
      "id": 40183,
      "content": "tur_Latn",
      "single_word": false,
      "lstrip": false,
      "rstrip": false,
      "normalized": false,
      "special": true
    },
    {
      "id": 40184,
      "content": "twi_Latn",
      "single_word": false,
      "lstrip": false,
      "rstrip": false,
      "normalized": false,
      "special": true
    },
    {
      "id": 40185,
      "content": "tzm_Tfng",
      "single_word": false,
      "lstrip": false,
      "rstrip": false,
      "normalized": false,
      "special": true
    },
    {
      "id": 40186,
      "content": "uig_Arab",
      "single_word": false,
      "lstrip": false,
      "rstrip": false,
      "normalized": false,
      "special": true
    },
    {
      "id": 40187,
      "content": "ukr_Cyrl",
      "single_word": false,
      "lstrip": false,
      "rstrip": false,
      "normalized": false,
      "special": true
    },
    {
      "id": 40188,
      "content": "umb_Latn",
      "single_word": false,
      "lstrip": false,
      "rstrip": false,
      "normalized": false,
      "special": true
    },
    {
      "id": 40189,
      "content": "urd_Arab",
      "single_word": false,
      "lstrip": false,
      "rstrip": false,
      "normalized": false,
      "special": true
    },
    {
      "id": 40190,
      "content": "uzn_Latn",
      "single_word": false,
      "lstrip": false,
      "rstrip": false,
      "normalized": false,
      "special": true
    },
    {
      "id": 40191,
      "content": "vec_Latn",
      "single_word": false,
      "lstrip": false,
      "rstrip": false,
      "normalized": false,
      "special": true
    },
    {
      "id": 40192,
      "content": "vie_Latn",
      "single_word": false,
      "lstrip": false,
      "rstrip": false,
      "normalized": false,
      "special": true
    },
    {
      "id": 40193,
      "content": "war_Latn",
      "single_word": false,
      "lstrip": false,
      "rstrip": false,
      "normalized": false,
      "special": true
    },
    {
      "id": 40194,
      "content": "wol_Latn",
      "single_word": false,
      "lstrip": false,
      "rstrip": false,
      "normalized": false,
      "special": true
    },
    {
      "id": 40195,
      "content": "xho_Latn",
      "single_word": false,
      "lstrip": false,
      "rstrip": false,
      "normalized": false,
      "special": true
    },
    {
      "id": 40196,
      "content": "ydd_Hebr",
      "single_word": false,
      "lstrip": false,
      "rstrip": false,
      "normalized": false,
      "special": true
    },
    {
      "id": 40197,
      "content": "yor_Latn",
      "single_word": false,
      "lstrip": false,
      "rstrip": false,
      "normalized": false,
      "special": true
    },
    {
      "id": 40198,
      "content": "yue_Hant",
      "single_word": false,
      "lstrip": false,
      "rstrip": false,
      "normalized": false,
      "special": true
    },
    {
      "id": 40199,
      "content": "zho_Hans",
      "single_word": false,
      "lstrip": false,
      "rstrip": false,
      "normalized": false,
      "special": true
    },
    {
      "id": 40200,
      "content": "zho_Hant",
      "single_word": false,
      "lstrip": false,
      "rstrip": false,
      "normalized": false,
      "special": true
    },
    {
      "id": 40201,
      "content": "zul_Latn",
      "single_word": false,
      "lstrip": false,
      "rstrip": false,
      "normalized": false,
      "special": true
    }
  ],
  "normalizer": {
    "type": "NFKC"
  },
  "pre_tokenizer": {
    "type": "Metaspace",
    "replacement": "▁",
    "prepend_scheme": "always",
    "split": true
  },
  "post_processor": {
    "type": "TemplateProcessing",
    "single": [
      {
        "SpecialToken": {
          "id": "eng_Latn",
          "type_id": 0
        }
      },
      {
        "Sequence": {
          "id": "A",
          "type_id": 0
        }
      },
      {
        "SpecialToken": {
          "id": "</s>",
          "type_id": 0
        }
      }
    ],
    "pair": [
      {
        "SpecialToken": {
          "id": "eng_Latn",
          "type_id": 0
        }
      },
      {
        "Sequence": {
          "id": "A",
          "type_id": 0
        }
      },
      {
        "Sequence": {
          "id": "B",
          "type_id": 0
        }
      },
      {
        "SpecialToken": {
          "id": "</s>",
          "type_id": 0
        }
      }
    ],
    "special_tokens": {
      "</s>": {
        "id": "</s>",
        "ids": [
          2
        ],
        "tokens": [
          "</s>"
        ]
      },
      "eng_Latn": {
        "id": "eng_Latn",
        "ids": [
          40046
        ],
        "tokens": [
          "eng_Latn"
        ]
      }
    }
  },
  "decoder": {
    "type": "Metaspace",
    "replacement": "▁",
    "prepend_scheme": "always",
    "split": true
  },
  "model": {
    "type": "BPE",
    "dropout": null,
    "unk_token": "<unk>",
    "continuing_subword_prefix": null,
    "end_of_word_suffix": null,
    "fuse_unk": false,
    "byte_fallback": false,
    "ignore_merges": false,
    "vocab": {
      "<unk>": 0,
      "<s>": 1,
      "</s>": 2,
      "<pad>": 3,
      "<mask>": 4,
      "\n": 5,
      "\r": 6,
      "!": 7,
      "\"": 8,
      "&": 9,
      "'": 10,
      "(": 11,
      ")": 12,
      ",": 13,
      "-": 14,
      ".": 15,
      "/": 16,
      "0": 17,
      "1": 18,
      "2": 19,
      "3": 20,
      "5": 21,
      "7": 22,
      "8": 23,
      "9": 24,
      ":": 25,
      ";": 26,
      "<": 27,
      "=": 28,
      ">": 29,
      "?": 30,
      "A": 31,
      "B": 32,
      "C": 33,
      "D": 34,
      "E": 35,
      "F": 36,
      "G": 37,
      "H": 38,
      "I": 39,
      "J": 40,
      "K": 41,
      "L": 42,
      "M": 43,
      "N": 44,
      "O": 45,
      "P": 46,
      "Q": 47,
      "R": 48,
      "S": 49,
      "T": 50,
      "U": 51,
      "V": 52,
      "W": 53,
      "Y": 54,
      "Z": 55,
      "\\": 56,
      "]": 57,
      "`": 58,
      "a": 59,
      "b": 60,
      "c": 61,
      "d": 62,
      "e": 63,
      "f": 64,
      "g": 65,
      "h": 66,
      "i": 67,
      "j": 68,
      "k": 69,
      "l": 70,
      "m": 71,
      "n": 72,
      "o": 73,
      "p": 74,
      "q": 75,
      "r": 76,
      "s": 77,
      "t": 78,
      "u": 79,
      "v": 80,
      "w": 81,
      "x": 82,
      "y": 83,
      "z": 84,
      "£": 85,
      "·": 86,
      "À": 87,
      "Â": 88,
      "Ŋ": 89,
      "ŋ": 90,
      "́": 91,
      "–": 92,
      "’": 93,
      "▁": 94,
      "�": 95,
      "▁t": 96,
      "an": 97,
      "\r\n": 98,
      "he": 99,
      "▁o": 100,
      "▁b": 101,
      "▁n": 102,
      ".\r\n": 103,
      "er": 104,
      "▁a": 105,
      "▁the": 106,
      "in": 107,
      "mu": 108,
      "ku": 109,
      "al": 110,
      "▁e": 111,
      "▁s": 112,
      "▁w": 113,
      "ir": 114,
      "on": 115,
      "at": 116,
      "en": 117,
      "ba": 118,
      "ga": 119,
      "and": 120,
      "is": 121,
      "it": 122,
      "wa": 123,
      "ka": 124,
      "re": 125,
      "▁m": 126,
      "▁mu": 127,
      "ul": 128,
      "ya": 129,
      "▁h": 130,
      "▁of": 131,
      "es": 132,
      "▁k": 133,
      "▁and": 134,
      "▁A": 135,
      "ed": 136,
      "or": 137,
      "▁c": 138,
      "▁f": 139,
      "▁g": 140,
      "we": 141,
      "yo": 142,
      "▁to": 143,
      "▁oku": 144,
      "▁l": 145,
      "as": 146,
      "▁p": 147,
      "▁th": 148,
      "▁d": 149,
      "▁n'": 150,
      "ol": 151,
      "un": 152,
      "ing": 153,
      "om": 154,
      "▁ku": 155,
      "▁in": 156,
      "ye": 157,
      "ab": 158,
      "ma": 159,
      "us": 160,
      "zi": 161,
      "▁be": 162,
      "▁ba": 163,
      "za": 164,
      "ti": 165,
      "▁ne": 166,
      "era": 167,
      "tu": 168,
      "ar": 169,
      "ira": 170,
      "bu": 171,
      "il": 172,
      "wo": 173,
      "im": 174,
      "▁T": 175,
      "dd": 176,
      "ala": 177,
      "▁he": 178,
      "▁M": 179,
      "le": 180,
      "▁I": 181,
      "w'": 182,
      "bi": 183,
      "anga": 184,
      "ee": 185,
      "ut": 186,
      "iri": 187,
      "▁sh": 188,
      "ot": 189,
      "am": 190,
      "▁en": 191,
      "ali": 192,
      "y'": 193,
      "ay": 194,
      "ge": 195,
      "ent": 196,
      "ve": 197,
      "ic": 198,
      "bwa": 199,
      "▁ek": 200,
      "da": 201,
      "▁E": 202,
      "▁An": 203,
      "ana": 204,
      "na": 205,
      "all": 206,
      "ko": 207,
      "▁And": 208,
      "id": 209,
      "ur": 210,
      "ro": 211,
      "▁The": 212,
      "▁K": 213,
      "▁ab": 214,
      "▁that": 215,
      "▁omu": 216,
      "em": 217,
      "▁al": 218,
      "um": 219,
      "▁B": 220,
      "▁N": 221,
      "uka": 222,
      "ig": 223,
      "▁O": 224,
      "et": 225,
      "▁S": 226,
      "▁for": 227,
      "ad": 228,
      "▁is": 229,
      "ere": 230,
      "▁n'a": 231,
      "▁L": 232,
      "▁aba": 233,
      "e,": 234,
      "ver": 235,
      "ord": 236,
      "yi": 237,
      "el": 238,
      "▁eb": 239,
      "▁re": 240,
      "ak": 241,
      "eri": 242,
      "st": 243,
      "▁shall": 244,
      "▁yo": 245,
      "ith": 246,
      "oo": 247,
      "▁ol": 248,
      "jj": 249,
      "dde": 250,
      "ra": 251,
      "ula": 252,
      "si": 253,
      "ati": 254,
      "▁wh": 255,
      "sa": 256,
      "ina": 257,
      "ow": 258,
      "ik": 259,
      "be": 260,
      "?\r\n": 261,
      "ill": 262,
      "▁G": 263,
      "▁nga": 264,
      "▁nti": 265,
      "ta": 266,
      "▁are": 267,
      "her": 268,
      "▁Y": 269,
      "▁not": 270,
      "ce": 271,
      "ek": 272,
      "gi": 273,
      "und": 274,
      "▁his": 275,
      "▁em": 276,
      "s.\r\n": 277,
      "▁wa": 278,
      "▁bwe": 279,
      "▁with": 280,
      "ze": 281,
      "onna": 282,
      "vu": 283,
      "▁on": 284,
      "▁ya": 285,
      "▁ha": 286,
      "if": 287,
      "oku": 288,
      "up": 289,
      "op": 290,
      "ola": 291,
      "antu": 292,
      "th": 293,
      "▁sa": 294,
      "▁Muka": 295,
      "omu": 296,
      "▁Mukama": 297,
      "s,": 298,
      "ny": 299,
      "ou": 300,
      "▁him": 301,
      "▁W": 302,
      "gam": 303,
      "ob": 304,
      "ch": 305,
      "▁they": 306,
      "▁Lord": 307,
      "aba": 308,
      "eb": 309,
      "▁ng": 310,
      "o.\r\n": 311,
      "▁ye": 312,
      "▁have": 313,
      "e.\r\n": 314,
      "jja": 315,
      "▁an": 316,
      "▁them": 317,
      "uli": 318,
      "iti": 319,
      "gu": 320,
      "▁was": 321,
      "▁com": 322,
      "▁by": 323,
      "▁J": 324,
      "▁era": 325,
      "ri": 326,
      "ht": 327,
      "▁you": 328,
      "▁ka": 329,
      "to": 330,
      "▁all": 331,
      "fu": 332,
      "▁obu": 333,
      "banga": 334,
      "▁it": 335,
      "▁Aba": 336,
      "ange": 337,
      "▁ng'": 338,
      "▁as": 339,
      "od": 340,
      "os": 341,
      "▁P": 342,
      "ore": 343,
      "eop": 344,
      "▁ch": 345,
      "▁na": 346,
      "ation": 347,
      "gera": 348,
      "eople": 349,
      "ani": 350,
      "▁will": 351,
      "rom": 352,
      "gg": 353,
      "▁their": 354,
      "▁up": 355,
      "ter": 356,
      "▁st": 357,
      "▁Is": 358,
      "onda": 359,
      "▁ki": 360,
      "uk": 361,
      "▁Ab": 362,
      "end": 363,
      "▁H": 364,
      "ec": 365,
      "▁v": 366,
      "▁ga": 367,
      ":\r\n": 368,
      "▁from": 369,
      "▁ok": 370,
      "bo": 371,
      "la": 372,
      "ers": 373,
      "isa": 374,
      "ug": 375,
      "est": 376,
      "▁bw'": 377,
      "▁y": 378,
      "▁ebi": 379,
      "va": 380,
      "▁te": 381,
      "▁thou": 382,
      "use": 383,
      "oul": 384,
      "ath": 385,
      "▁ob": 386,
      "▁ma": 387,
      "ebwa": 388,
      "▁thy": 389,
      "▁man": 390,
      "anda": 391,
      "ess": 392,
      "ong": 393,
      "ment": 394,
      "atonda": 395,
      "atu": 396,
      "▁z": 397,
      "▁D": 398,
      "▁my": 399,
      "li": 400,
      "ono": 401,
      "ff": 402,
      "una": 403,
      "▁people": 404,
      "▁am": 405,
      "▁go": 406,
      "ould": 407,
      "ity": 408,
      "▁Katonda": 409,
      "▁God": 410,
      "▁ama": 411,
      "aw": 412,
      "▁con": 413,
      "▁so": 414,
      "ud": 415,
      "▁dis": 416,
      "▁eri": 417,
      "ly": 418,
      "▁pro": 419,
      "baka": 420,
      "iro": 421,
      "▁there": 422,
      "anyi": 423,
      "go": 424,
      "ich": 425,
      "▁r": 426,
      "▁were": 427,
      "▁we": 428,
      "av": 429,
      "▁olw'": 430,
      "ate": 431,
      "▁nn": 432,
      "ant": 433,
      "▁said": 434,
      "gamba": 435,
      "ayo": 436,
      "▁whe": 437,
      "▁Awo": 438,
      "▁at": 439,
      "▁sp": 440,
      "ano": 441,
      "ild": 442,
      "▁F": 443,
      "ast": 444,
      "edd": 445,
      "usa": 446,
      "▁eki": 447,
      "iriza": 448,
      "▁bu": 449,
      "mwe": 450,
      "ren": 451,
      "so": 452,
      "▁C": 453,
      "ight": 454,
      "▁le": 455,
      "kul": 456,
      "ok": 457,
      "se": 458,
      "ganda": 459,
      "▁kubanga": 460,
      "ungi": 461,
      "es.\r\n": 462,
      "▁de": 463,
      "▁bal": 464,
      "▁U": 465,
      "▁which": 466,
      "amu": 467,
      "▁should": 468,
      "▁out": 469,
      "▁son": 470,
      "fore": 471,
      "▁Omu": 472,
      "▁okus": 473,
      "▁naye": 474,
      "ki": 475,
      "isi": 476,
      "▁king": 477,
      "te": 478,
      "▁do": 479,
      "▁co": 480,
      "any": 481,
      "▁kya": 482,
      "ale": 483,
      "▁w'": 484,
      "mi": 485,
      "ama": 486,
      "umba": 487,
      "ood": 488,
      "ag": 489,
      "wanga": 490,
      "ub": 491,
      "abwe": 492,
      "iv": 493,
      "▁day": 494,
      "ero": 495,
      "olo": 496,
      "kola": 497,
      "one": 498,
      "tr": 499,
      "irira": 500,
      "ted": 501,
      "▁za": 502,
      "▁bat": 503,
      "uc": 504,
      "yam": 505,
      "▁Wh": 506,
      "bwe": 507,
      "anya": 508,
      "▁this": 509,
      "eth": 510,
      "▁buli": 511,
      "▁N'": 512,
      "▁kit": 513,
      "ame": 514,
      "ntu": 515,
      "eeka": 516,
      "▁un": 517,
      "very": 518,
      "ake": 519,
      "ac": 520,
      "aso": 521,
      "ome": 522,
      "▁me": 523,
      "es,": 524,
      "enti": 525,
      "▁Era": 526,
      "▁se": 527,
      "▁aga": 528,
      "▁but": 529,
      "obu": 530,
      "▁ac": 531,
      "▁ho": 532,
      "▁j": 533,
      "▁child": 534,
      "▁er": 535,
      "ive": 536,
      "enda": 537,
      "di": 538,
      "▁Uganda": 539,
      "out": 540,
      "▁when": 541,
      "ulo": 542,
      "▁bya": 543,
      "ulu": 544,
      "eek": 545,
      "▁had": 546,
      "undu": 547,
      "▁wor": 548,
      "ann": 549,
      "alo": 550,
      "awo": 551,
      "iraeri": 552,
      "▁abantu": 553,
      "oni": 554,
      "▁hath": 555,
      "▁bi": 556,
      "▁og": 557,
      "ulira": 558,
      "▁y'": 559,
      "▁kye": 560,
      "▁Abantu": 561,
      "▁Isiraeri": 562,
      "ind": 563,
      "▁one": 564,
      "wala": 565,
      "qu": 566,
      "▁Na": 567,
      "▁bas": 568,
      "▁into": 569,
      "nyumba": 570,
      "ise": 571,
      "rael": 572,
      "▁ez": 573,
      "▁upon": 574,
      "kumi": 575,
      "▁Israel": 576,
      "inga": 577,
      "ona": 578,
      "▁kabaka": 579,
      "▁say": 580,
      "tion": 581,
      "ire": 582,
      "▁He": 583,
      "our": 584,
      "uda": 585,
      "▁her": 586,
      "▁children": 587,
      "▁ss": 588,
      "ang": 589,
      "old": 590,
      "red": 591,
      "▁your": 592,
      "▁(": 593,
      "▁n'aba": 594,
      "irwa": 595,
      "▁hear": 596,
      "▁Th": 597,
      "▁om": 598,
      "▁hand": 599,
      "▁bwa": 600,
      "biri": 601,
      "▁land": 602,
      "▁thing": 603,
      ";\r\n": 604,
      ",\r\n": 605,
      "▁off": 606,
      "▁us": 607,
      "lem": 608,
      "esa": 609,
      "▁again": 610,
      "gambo": 611,
      "ika": 612,
      "uma": 613,
      "▁eby'": 614,
      "kol": 615,
      "ddwa": 616,
      "▁pre": 617,
      "▁Ne": 618,
      "y.\r\n": 619,
      "▁mut": 620,
      "▁okul": 621,
      "ther": 622,
      "kulu": 623,
      "▁nsi": 624,
      "fa": 625,
      "abani": 626,
      "wana": 627,
      "bula": 628,
      "ita": 629,
      "uu": 630,
      "ts": 631,
      "▁gw'": 632,
      "ause": 633,
      "▁awa": 634,
      "▁or": 635,
      "pp": 636,
      "▁okuba": 637,
      "▁gg": 638,
      "ibwa": 639,
      "▁who": 640,
      "zza": 641,
      "▁bye": 642,
      "inn": 643,
      "▁ex": 644,
      "▁bec": 645,
      "ck": 646,
      "▁ser": 647,
      "▁bonna": 648,
      "▁maaso": 649,
      "zibwa": 650,
      "ed,": 651,
      "▁also": 652,
      "▁by'": 653,
      "ris": 654,
      "ather": 655,
      "▁mul": 656,
      "ond": 657,
      "i,": 658,
      "▁But": 659,
      "▁okwe": 660,
      "ool": 661,
      "yin": 662,
      "▁Oku": 663,
      "ice": 664,
      "ught": 665,
      "▁Ku": 666,
      "▁n'oku": 667,
      "'s": 668,
      "ja": 669,
      "ven": 670,
      "▁kn": 671,
      "▁has": 672,
      "▁Naye": 673,
      "▁okutu": 674,
      "ci": 675,
      "▁gye": 676,
      "alt": 677,
      "▁work": 678,
      "intu": 679,
      "▁dd": 680,
      "▁b'": 681,
      "mu.\r\n": 682,
      "▁br": 683,
      "ber": 684,
      "▁For": 685,
      "▁ar": 686,
      "▁okut": 687,
      "ateeka": 688,
      "ans": 689,
      "ed.\r\n": 690,
      "wali": 691,
      "▁nnyo": 692,
      "kuba": 693,
      "▁thee": 694,
      "zim": 695,
      "▁okuva": 696,
      "▁gwa": 697,
      "alem": 698,
      "ereza": 699,
      "eddwa": 700,
      "alina": 701,
      "sel": 702,
      "o,": 703,
      "other": 704,
      "ss": 705,
      "▁eky'": 706,
      "vern": 707,
      "▁ey'": 708,
      "ebi": 709,
      "▁she": 710,
      "▁ky": 711,
      "enga": 712,
      "▁before": 713,
      "▁men": 714,
      "▁n'ab": 715,
      "wadde": 716,
      "wer": 717,
      "▁ky'": 718,
      "aka": 719,
      "embe": 720,
      "sajja": 721,
      "umenti": 722,
      "aga": 723,
      "▁shalt": 724,
      "wat": 725,
      "▁gwe": 726,
      "yogera": 727,
      "kono": 728,
      "▁against": 729,
      "▁no": 730,
      "▁En": 731,
      "buga": 732,
      "▁ens": 733,
      "▁comm": 734,
      "▁byonna": 735,
      "own": 736,
      "▁serv": 737,
      "reat": 738,
      "▁acc": 739,
      "▁over": 740,
      "weebwa": 741,
      "▁ag": 742,
      "▁come": 743,
      "▁ro": 744,
      "beera": 745,
      "▁lo": 746,
      "wal": 747,
      "ents": 748,
      "vernment": 749,
      "abu": 750,
      "▁may": 751,
      "▁par": 752,
      "▁pr": 753,
      "ole": 754,
      "▁enn": 755,
      "ala.\r\n": 756,
      "ful": 757,
      "ky": 758,
      "zzi": 759,
      "▁Am": 760,
      "eki": 761,
      "ide": 762,
      "▁our": 763,
      "ens": 764,
      "ous": 765,
      "▁bo": 766,
      "ayogera": 767,
      "ule": 768,
      "ade": 769,
      "wan": 770,
      "▁tr": 771,
      "▁Ch": 772,
      "ako": 773,
      "ell": 774,
      "i.\r\n": 775,
      "ffe": 776,
      "ort": 777,
      "▁im": 778,
      "▁mo": 779,
      "▁because": 780,
      "naku": 781,
      "▁coun": 782,
      "ect": 783,
      "▁Kubanga": 784,
      "ass": 785,
      "▁year": 786,
      "kun": 787,
      "ap": 788,
      "ŋŋ": 789,
      "▁came": 790,
      "rd": 791,
      "▁There": 792,
      "▁oba": 793,
      "▁government": 794,
      "san": 795,
      "y,": 796,
      "▁si": 797,
      "▁ez'": 798,
      "▁abaana": 799,
      "▁af": 800,
      "▁What": 801,
      "unaku": 802,
      "▁ndi": 803,
      "▁ban": 804,
      "▁aka": 805,
      "▁ear": 806,
      "▁pol": 807,
      "kulem": 808,
      "enj": 809,
      "▁been": 810,
      "▁ab'": 811,
      "imu": 812,
      "▁z'": 813,
      "▁olu": 814,
      "itundu": 815,
      "ke": 816,
      "▁balina": 817,
      "▁every": 818,
      "ka.\r\n": 819,
      "aba,": 820,
      "ll": 821,
      "lo": 822,
      "▁made": 823,
      "▁n'eb": 824,
      "▁word": 825,
      "obola": 826,
      "mun": 827,
      "▁n'omu": 828,
      "▁can": 829,
      "▁pla": 830,
      "yinza": 831,
      "▁said:": 832,
      "awe": 833,
      "les": 834,
      "wn": 835,
      "chool": 836,
      "▁him,": 837,
      "▁mutabani": 838,
      "t,": 839,
      "▁house": 840,
      "asa": 841,
      "▁People": 842,
      "▁okug": 843,
      "ifo": 844,
      "▁emp": 845,
      "▁if": 846,
      "kk": 847,
      "ign": 848,
      "▁bre": 849,
      "▁wat": 850,
      "▁fa": 851,
      "abe": 852,
      "▁R": 853,
      "andi": 854,
      "▁father": 855,
      "▁kwa": 856,
      "kom": 857,
      "gala": 858,
      "▁gy'": 859,
      "itu": 860,
      "wen": 861,
      "iranga": 862,
      "kazi": 863,
      "ulungi": 864,
      "a,": 865,
      "▁things": 866,
      "ying": 867,
      "▁bl": 868,
      "▁Lord,": 869,
      "ente": 870,
      "▁tim": 871,
      "ish": 872,
      "▁ana": 873,
      "▁eya": 874,
      "innya": 875,
      "▁ogw'": 876,
      "▁gu": 877,
      "▁know": 878,
      "hed": 879,
      "▁good": 880,
      "▁school": 881,
      "iko": 882,
      "yig": 883,
      "▁pl": 884,
      "▁lead": 885,
      "ict": 886,
      "oth": 887,
      "▁about": 888,
      "▁Eb": 889,
      "▁lya": 890,
      "ose": 891,
      "▁ebyo": 892,
      "▁abal": 893,
      "▁saith": 894,
      "▁bali": 895,
      "▁went": 896,
      "kya": 897,
      "funa": 898,
      "ensi": 899,
      "abo": 900,
      "kulembe": 901,
      "▁end": 902,
      "▁great": 903,
      "igh": 904,
      "hold": 905,
      "▁need": 906,
      "erera": 907,
      "onyi": 908,
      "ine": 909,
      "▁str": 910,
      "▁Z": 911,
      "orn": 912,
      "▁res": 913,
      "▁any": 914,
      "▁saying": 915,
      "▁what": 916,
      "itul": 917,
      "▁n'amu": 918,
      "▁bro": 919,
      "kulembeze": 920,
      "▁way": 921,
      "▁yali": 922,
      "ike": 923,
      "a.\r\n": 924,
      "ie": 925,
      "yo.\r\n": 926,
      "▁edd": 927,
      "ance": 928,
      "▁fe": 929,
      "▁kw'": 930,
      "▁kwe": 931,
      "eeza": 932,
      "▁nd": 933,
      "▁down": 934,
      "▁ey": 935,
      "alth": 936,
      "▁after": 937,
      "▁omul": 938,
      "bul": 939,
      "of": 940,
      "jo": 941,
      "▁teb": 942,
      "tain": 943,
      "duc": 944,
      "ph": 945,
      "asi": 946,
      "▁pri": 947,
      "ggya": 948,
      "ty": 949,
      "inis": 950,
      "yo,": 951,
      "uth": 952,
      "▁Mu": 953,
      "ulamu": 954,
      "irembe": 955,
      "su": 956,
      "▁ad": 957,
      "▁Jer": 958,
      "▁lw'": 959,
      "▁lunaku": 960,
      "biina": 961,
      "eet": 962,
      "▁g'": 963,
      "▁imp": 964,
      "▁more": 965,
      "ink": 966,
      "▁n'ek": 967,
      "eta": 968,
      "▁nny": 969,
      "▁abo": 970,
      "emp": 971,
      "omero": 972,
      "bala": 973,
      "▁did": 974,
      "ddu": 975,
      "▁let": 976,
      "▁these": 977,
      "▁bus": 978,
      "▁bajja": 979,
      "gezi": 980,
      "ip": 981,
      "▁unto": 982,
      "▁take": 983,
      "zo": 984,
      "imba": 985,
      "anny": 986,
      "▁lwa": 987,
      "ld": 988,
      "▁make": 989,
      "▁Ba": 990,
      "▁Yer": 991,
      "kka": 992,
      "ino": 993,
      "▁per": 994,
      "▁prop": 995,
      "itulik": 996,
      "ree": 997,
      "▁fo": 998,
      "urn": 999,
      "ence": 1000,
      "▁nnyumba": 1001,
      "itulikiti": 1002,
      "ing.\r\n": 1003,
      "itt": 1004,
      "ase": 1005,
      "▁muntu": 1006,
      "▁Yes": 1007,
      "ene": 1008,
      "▁Daw": 1009,
      "▁Dawud": 1010,
      "▁nor": 1011,
      "ated": 1012,
      "▁hast": 1013,
      "buka": 1014,
      "ook": 1015,
      "aya": 1016,
      "▁comp": 1017,
      "umi": 1018,
      "▁eg": 1019,
      "▁lu": 1020,
      "imbi": 1021,
      "ust": 1022,
      "▁ali": 1023,
      "som": 1024,
      "▁et": 1025,
      "ukiri": 1026,
      "oli": 1027,
      "▁bamu": 1028,
      "▁ow'": 1029,
      "▁wange": 1030,
      "▁many": 1031,
      "▁give": 1032,
      "ick": 1033,
      "▁ggwe": 1034,
      "▁thee,": 1035,
      "▁distr": 1036,
      "ves": 1037,
      "▁him:": 1038,
      "bal": 1039,
      "▁ns": 1040,
      "▁fir": 1041,
      "▁inc": 1042,
      "wandi": 1043,
      "esus": 1044,
      "▁cl": 1045,
      "bona": 1046,
      "▁me,": 1047,
      "yon": 1048,
      "▁n'agamba": 1049,
      "fi": 1050,
      "abbi": 1051,
      "under": 1052,
      "▁abat": 1053,
      "▁other": 1054,
      "on,": 1055,
      "zi.\r\n": 1056,
      "y\r\n": 1057,
      "s:": 1058,
      "wange": 1059,
      "▁two": 1060,
      "▁We": 1061,
      "anc": 1062,
      "tur": 1063,
      "▁Be": 1064,
      "ingi": 1065,
      "▁zi": 1066,
      "▁kitundu": 1067,
      "▁Dav": 1068,
      "▁David": 1069,
      "▁wom": 1070,
      "ure": 1071,
      "ach": 1072,
      "ungu": 1073,
      "▁They": 1074,
      "▁obut": 1075,
      "limu": 1076,
      "▁Jesus": 1077,
      "▁tak": 1078,
      "▁mun": 1079,
      "irimu": 1080,
      "▁gro": 1081,
      "emi": 1082,
      "koz": 1083,
      "▁ekyo": 1084,
      "pa": 1085,
      "▁giv": 1086,
      "ruc": 1087,
      "genda": 1088,
      "▁del": 1089,
      "▁among": 1090,
      "▁command": 1091,
      "uba": 1092,
      "▁lif": 1093,
      "ite": 1094,
      "yaka": 1095,
      "able": 1096,
      "ini": 1097,
      "ansi": 1098,
      "▁call": 1099,
      "arm": 1100,
      "▁nze": 1101,
      "▁Em": 1102,
      "▁Yesu": 1103,
      "kula": 1104,
      "▁servant": 1105,
      "pt": 1106,
      "won": 1107,
      "iver": 1108,
      "▁district": 1109,
      "eeta": 1110,
      "▁see": 1111,
      "▁them,": 1112,
      "imi": 1113,
      "▁In": 1114,
      "ations": 1115,
      "▁under": 1116,
      "aliwo": 1117,
      "▁mmwe": 1118,
      "mmwe": 1119,
      "▁des": 1120,
      "ing,": 1121,
      "ward": 1122,
      "▁God,": 1123,
      "▁sons": 1124,
      "▁very": 1125,
      "endo": 1126,
      "▁set": 1127,
      "led": 1128,
      "▁earth": 1129,
      "▁Dawudi": 1130,
      "▁Some": 1131,
      "ya.\r\n": 1132,
      "kubadde": 1133,
      "ither": 1134,
      "▁wo": 1135,
      "▁oyo": 1136,
      "self": 1137,
      "▁okuk": 1138,
      "▁some": 1139,
      "mu,": 1140,
      "▁put": 1141,
      "awulo": 1142,
      "vi": 1143,
      "▁city": 1144,
      "▁app": 1145,
      "▁Le": 1146,
      "abantu": 1147,
      "kabaka": 1148,
      "▁gya": 1149,
      "weebwayo": 1150,
      "▁mwe": 1151,
      "iki": 1152,
      "ities": 1153,
      "ist": 1154,
      "▁law": 1155,
      "▁sc": 1156,
      "▁okum": 1157,
      "en,": 1158,
      "▁zonna": 1159,
      "▁water": 1160,
      "▁teba": 1161,
      "kuvu": 1162,
      "wakubadde": 1163,
      "iga": 1164,
      "▁Ek": 1165,
      "abanga": 1166,
      "▁Ph": 1167,
      "▁gav": 1168,
      "▁priest": 1169,
      "ved": 1170,
      "▁health": 1171,
      "▁dr": 1172,
      "▁omuntu": 1173,
      "edde": 1174,
      "▁ev": 1175,
      "waka": 1176,
      "▁po": 1177,
      "zik": 1178,
      "▁baabwe": 1179,
      "▁Mo": 1180,
      "▁olw'oku": 1181,
      "▁ans": 1182,
      "▁therefore": 1183,
      "ard": 1184,
      "▁away": 1185,
      "ukirivu": 1186,
      "on.\r\n": 1187,
      "eng": 1188,
      "▁ak": 1189,
      "ung": 1190,
      "▁Gav": 1191,
      "▁like": 1192,
      "woo": 1193,
      "▁Gavumenti": 1194,
      "▁wr": 1195,
      "▁lye": 1196,
      "▁Yuda": 1197,
      "▁wamu": 1198,
      "ggulu": 1199,
      "▁Uganda.\r\n": 1200,
      "▁brought": 1201,
      "▁Musa": 1202,
      "ango": 1203,
      "▁whom": 1204,
      "gga": 1205,
      "▁answer": 1206,
      "▁n'em": 1207,
      "▁bak": 1208,
      "▁eat": 1209,
      "uki": 1210,
      "anja": 1211,
      "▁gavumenti": 1212,
      "are": 1213,
      "▁jud": 1214,
      "ness": 1215,
      "mul": 1216,
      "▁stu": 1217,
      "yizi": 1218,
      "yamba": 1219,
      "▁bw'ayogera": 1220,
      "ongoo": 1221,
      "▁It": 1222,
      "ya,": 1223,
      "▁offer": 1224,
      "▁where": 1225,
      "ru": 1226,
      "▁ekit": 1227,
      "▁newakubadde": 1228,
      "dda": 1229,
      "zimba": 1230,
      "▁So": 1231,
      "gira": 1232,
      "▁them:": 1233,
      "ving": 1234,
      "als": 1235,
      "▁spe": 1236,
      "dom": 1237,
      "▁forth": 1238,
      "▁own": 1239,
      "▁ra": 1240,
      "▁n'ayogera": 1241,
      "▁Mukama,": 1242,
      "▁given": 1243,
      "▁ebya": 1244,
      "▁being": 1245,
      "lec": 1246,
      "eep": 1247,
      "for": 1248,
      "weereza": 1249,
      "▁n'at": 1250,
      "ari": 1251,
      "ces": 1252,
      ")\r\n": 1253,
      "▁bab": 1254,
      "ayi": 1255,
      "bon": 1256,
      "▁wak": 1257,
      "▁ly'": 1258,
      "atuuka": 1259,
      "▁mukono": 1260,
      "irus": 1261,
      "▁dest": 1262,
      "usalem": 1263,
      "gy": 1264,
      "▁obwa": 1265,
      "▁bantu": 1266,
      "▁sin": 1267,
      "▁Jerusalem": 1268,
      "▁nam": 1269,
      "zebwa": 1270,
      "▁spok": 1271,
      "▁Juda": 1272,
      "▁Yerusa": 1273,
      "ised": 1274,
      "▁saying:": 1275,
      "▁mone": 1276,
      "▁n'ama": 1277,
      "▁Ol": 1278,
      "ording": 1279,
      "▁commun": 1280,
      "▁Yerusaalem": 1281,
      "▁ssente": 1282,
      "ufu": 1283,
      "▁kifo": 1284,
      "wo.\r\n": 1285,
      "▁abamu": 1286,
      "taka": 1287,
      "alaba": 1288,
      "▁bangi": 1289,
      "▁Mos": 1290,
      "▁Chris": 1291,
      "▁new": 1292,
      "low": 1293,
      "eranga": 1294,
      "▁car": 1295,
      "▁li": 1296,
      "▁cons": 1297,
      "▁w'e": 1298,
      "anj": 1299,
      "▁ennaku": 1300,
      "agala": 1301,
      "▁you,": 1302,
      "enna": 1303,
      "ors": 1304,
      "irungi": 1305,
      "▁n'e": 1306,
      "amp": 1307,
      "▁him.\r\n": 1308,
      "tim": 1309,
      "tuukirivu": 1310,
      "▁ensi": 1311,
      "e\r\n": 1312,
      "zanga": 1313,
      "ggwanga": 1314,
      "▁hous": 1315,
      "ŋŋa": 1316,
      "aught": 1317,
      "▁pres": 1318,
      "isiri": 1319,
      "▁Te": 1320,
      "▁Jo": 1321,
      "▁prov": 1322,
      "gether": 1323,
      "▁How": 1324,
      "kan": 1325,
      "irina": 1326,
      "▁fam": 1327,
      "▁place": 1328,
      "kubo": 1329,
      "itiibwa": 1330,
      "▁wakati": 1331,
      "ea": 1332,
      "▁together": 1333,
      "osp": 1334,
      "▁kul": 1335,
      "▁Kale": 1336,
      "▁If": 1337,
      "wulira": 1338,
      "▁okun": 1339,
      "▁cor": 1340,
      "▁omwana": 1341,
      "▁head": 1342,
      "▁rece": 1343,
      "▁Whe": 1344,
      "▁according": 1345,
      "▁now": 1346,
      "▁su": 1347,
      "ep": 1348,
      "▁than": 1349,
      "▁okuku": 1350,
      "▁tre": 1351,
      "ero.\r\n": 1352,
      "ry": 1353,
      "▁sup": 1354,
      "▁Abal": 1355,
      "▁sent": 1356,
      "▁thereof": 1357,
      "tima": 1358,
      "obo": 1359,
      "▁laba,": 1360,
      "▁first": 1361,
      "angu": 1362,
      "▁lwe": 1363,
      "▁pass": 1364,
      "emb": 1365,
      "eekeddwa": 1366,
      "▁countr": 1367,
      "▁bring": 1368,
      "▁obulungi": 1369,
      "▁n'obu": 1370,
      "▁rep": 1371,
      "▁days": 1372,
      "aku": 1373,
      "▁ge": 1374,
      "▁ekya": 1375,
      "lp": 1376,
      "▁high": 1377,
      "▁bul": 1378,
      "▁es": 1379,
      "▁mas": 1380,
      "woyo": 1381,
      "▁okukola": 1382,
      "▁heav": 1383,
      "bye": 1384,
      "▁disitulikiti": 1385,
      "▁qu": 1386,
      "▁yee": 1387,
      "Aba": 1388,
      "er,": 1389,
      "ebyo": 1390,
      "mere": 1391,
      "yita": 1392,
      "enge": 1393,
      "wonna": 1394,
      "oug": 1395,
      "▁n'ebi": 1396,
      "ko.\r\n": 1397,
      "lic": 1398,
      "abaana": 1399,
      "▁mar": 1400,
      "kungu": 1401,
      "cle": 1402,
      "▁dwe": 1403,
      "ggye": 1404,
      "▁Israel,": 1405,
      "▁ly": 1406,
      "▁them.\r\n": 1407,
      "ue": 1408,
      "onga": 1409,
      "▁kale": 1410,
      "vubuka": 1411,
      "alira": 1412,
      "wa.\r\n": 1413,
      "▁gl": 1414,
      "▁Obu": 1415,
      "▁hund": 1416,
      "▁mp": 1417,
      "▁exp": 1418,
      "▁cont": 1419,
      "▁hundred": 1420,
      "wendo": 1421,
      "▁n'en": 1422,
      "▁help": 1423,
      "▁Egy": 1424,
      "▁kut": 1425,
      "bi.\r\n": 1426,
      "ation.\r\n": 1427,
      "▁time": 1428,
      "▁speak": 1429,
      "fer": 1430,
      "sanvu": 1431,
      "▁bet": 1432,
      "tiv": 1433,
      "ugh": 1434,
      "▁offic": 1435,
      "iseera": 1436,
      "▁di": 1437,
      "wul": 1438,
      "wata": 1439,
      "bira": 1440,
      "oin": 1441,
      "wuka": 1442,
      "▁.\r\n": 1443,
      "kam": 1444,
      "struc": 1445,
      "▁okutuusa": 1446,
      "▁ennyumba": 1447,
      "kkiriza": 1448,
      "esebwa": 1449,
      "▁thro": 1450,
      "▁beg": 1451,
      "▁nna": 1452,
      "▁done": 1453,
      "▁deliver": 1454,
      "▁stud": 1455,
      "ture": 1456,
      "ddamu": 1457,
      "bwe.\r\n": 1458,
      "age": 1459,
      "▁nate": 1460,
      "▁destro": 1461,
      "▁omus": 1462,
      "usi": 1463,
      "wo,": 1464,
      "▁abas": 1465,
      "▁called": 1466,
      "▁ebintu": 1467,
      "acher": 1468,
      "▁prophe": 1469,
      "▁ff": 1470,
      "par": 1471,
      "vel": 1472,
      "▁heard": 1473,
      "▁another": 1474,
      "turn": 1475,
      "▁name": 1476,
      "▁sec": 1477,
      "▁op": 1478,
      "▁As": 1479,
      "▁found": 1480,
      "▁okw": 1481,
      "▁supp": 1482,
      "▁baali": 1483,
      "▁kita": 1484,
      "ons": 1485,
      "ally": 1486,
      "yim": 1487,
      "▁nange": 1488,
      "zaala": 1489,
      "ers.\r\n": 1490,
      "▁Sa": 1491,
      "oc": 1492,
      "▁okuwa": 1493,
      "▁pos": 1494,
      "oma": 1495,
      "alu": 1496,
      "▁nt": 1497,
      "ana.\r\n": 1498,
      "oozi": 1499,
      "zadde": 1500,
      "▁zaabwe": 1501,
      "sango": 1502,
      "waliro": 1503,
      "erwa": 1504,
      "ambula": 1505,
      "▁took": 1506,
      "▁Ebi": 1507,
      "uring": 1508,
      "anyizibwa": 1509,
      "▁wansi": 1510,
      "▁sw": 1511,
      "▁tri": 1512,
      "ongole": 1513,
      "ew": 1514,
      "▁ekigambo": 1515,
      "ospit": 1516,
      "▁waggulu": 1517,
      "▁Bab": 1518,
      "▁liv": 1519,
      "iro.\r\n": 1520,
      "waawo": 1521,
      "▁mon": 1522,
      "bibwa": 1523,
      "ity.\r\n": 1524,
      "▁destroy": 1525,
      "▁boo": 1526,
      "▁then": 1527,
      "▁erinnya": 1528,
      "tle": 1529,
      "▁minis": 1530,
      "me": 1531,
      "enyi": 1532,
      "▁Misiri": 1533,
      "▁rest": 1534,
      "▁byo": 1535,
      "▁num": 1536,
      "▁evil": 1537,
      "▁money": 1538,
      "▁enj": 1539,
      "▁kyonna": 1540,
      "ble": 1541,
      "▁tu": 1542,
      "▁aff": 1543,
      "iru": 1544,
      "vanny": 1545,
      "ical": 1546,
      "▁Bwe": 1547,
      "▁leaders": 1548,
      "ilt": 1549,
      "▁without": 1550,
      "▁ebigambo": 1551,
      "▁Thou": 1552,
      "gul": 1553,
      "alk": 1554,
      "▁muka": 1555,
      "▁daught": 1556,
      "▁kus": 1557,
      "ikono": 1558,
      "tege": 1559,
      "vannyuma": 1560,
      "▁Om": 1561,
      "kyala": 1562,
      "fut": 1563,
      "▁return": 1564,
      "▁get": 1565,
      "abi": 1566,
      "gula": 1567,
      "ganya": 1568,
      "outh": 1569,
      "oon": 1570,
      "▁abali": 1571,
      "ousand": 1572,
      "▁ddala": 1573,
      "▁thousand": 1574,
      "kozi": 1575,
      "▁batabani": 1576,
      "ged": 1577,
      "▁ze": 1578,
      "▁might": 1579,
      "▁Bw'": 1580,
      "▁right": 1581,
      "kozesa": 1582,
      "iness": 1583,
      "▁Lord.\r\n": 1584,
      "zima": 1585,
      "form": 1586,
      "er.\r\n": 1587,
      "▁wee": 1588,
      "an,": 1589,
      "▁muna": 1590,
      "▁gat": 1591,
      "▁Ye": 1592,
      "ting": 1593,
      "▁awo": 1594,
      "▁Who": 1595,
      "▁moun": 1596,
      "t.\r\n": 1597,
      "▁baka": 1598,
      "▁kill": 1599,
      "▁Buli": 1600,
      "▁bann": 1601,
      "esi": 1602,
      "▁through": 1603,
      "▁ind": 1604,
      "gal": 1605,
      "▁Yo": 1606,
      "▁yonna": 1607,
      "tend": 1608,
      "▁God.\r\n": 1609,
      "▁famil": 1610,
      "ume": 1611,
      "▁mba": 1612,
      "▁number": 1613,
      "er\r\n": 1614,
      "oloko": 1615,
      "▁Abaana": 1616,
      "▁ag'": 1617,
      "ese": 1618,
      "somesa": 1619,
      "▁temp": 1620,
      "▁fund": 1621,
      "boo": 1622,
      "▁would": 1623,
      "enya": 1624,
      "▁ery'": 1625,
      "kisa": 1626,
      "▁Now": 1627,
      "oboozi": 1628,
      "▁even": 1629,
      "▁ess": 1630,
      "yali": 1631,
      "▁people.\r\n": 1632,
      "fum": 1633,
      "▁Abakulembeze": 1634,
      "▁how": 1635,
      "▁n'ol": 1636,
      "ed:": 1637,
      "▁obus": 1638,
      "irit": 1639,
      "▁tw": 1640,
      "▁cast": 1641,
      "ce,": 1642,
      "buda": 1643,
      "ukira": 1644,
      "eace": 1645,
      "▁n'o": 1646,
      "▁Laba,": 1647,
      "▁death": 1648,
      "▁mus": 1649,
      "▁obw'": 1650,
      "zann": 1651,
      "enny": 1652,
      "▁muli": 1653,
      "▁dise": 1654,
      "thren": 1655,
      "mala": 1656,
      "▁arm": 1657,
      "▁emyaka": 1658,
      "akano": 1659,
      "wu": 1660,
      "▁Kris": 1661,
      "▁youth": 1662,
      "etaaga": 1663,
      "ject": 1664,
      "baawo": 1665,
      "▁mother": 1666,
      "ried": 1667,
      "▁fol": 1668,
      "▁brethren": 1669,
      "▁three": 1670,
      "ary": 1671,
      "▁enny": 1672,
      "▁bana": 1673,
      "▁nation": 1674,
      "▁baa": 1675,
      "▁hospit": 1676,
      "t\r\n": 1677,
      "▁ezi": 1678,
      "▁educ": 1679,
      "cip": 1680,
      "▁keep": 1681,
      "ile": 1682,
      "▁ebis": 1683,
      "▁yenna": 1684,
      "▁glor": 1685,
      "▁peace": 1686,
      "gwa": 1687,
      "yoke": 1688,
      "▁bee": 1689,
      "▁well": 1690,
      "▁la": 1691,
      "▁conf": 1692,
      "▁Behold": 1693,
      "ange,": 1694,
      "uganda": 1695,
      "ever": 1696,
      "▁turn": 1697,
      "ekiti": 1698,
      "ys": 1699,
      "▁n’": 1700,
      "unda": 1701,
      "▁vo": 1702,
      "gob": 1703,
      "jekiti": 1704,
      "zu": 1705,
      "itud": 1706,
      "za.\r\n": 1707,
      "ayimu": 1708,
      "▁prin": 1709,
      "▁ent": 1710,
      "▁taken": 1711,
      "▁kyo": 1712,
      "yoka": 1713,
      "▁okumu": 1714,
      "▁n'al": 1715,
      "ning": 1716,
      "wati": 1717,
      "abula": 1718,
      "▁baku": 1719,
      "▁She": 1720,
      "▁Mukama.\r\n": 1721,
      "kwe": 1722,
      "ines": 1723,
      "▁abasajja": 1724,
      "▁elec": 1725,
      "row": 1726,
      "▁police": 1727,
      "iridde": 1728,
      "▁kabona": 1729,
      "▁it,": 1730,
      "▁construc": 1731,
      "anye": 1732,
      "ings": 1733,
      "▁ebit": 1734,
      "▁four": 1735,
      "urch": 1736,
      "▁old": 1737,
      "anoonyi": 1738,
      "co": 1739,
      "▁mat": 1740,
      "▁Waliwo": 1741,
      "▁mid": 1742,
      "▁incre": 1743,
      "udo": 1744,
      "▁Yerusaalemi": 1745,
      "▁Moses": 1746,
      "▁behold": 1747,
      "▁okutuuka": 1748,
      "ba.\r\n": 1749,
      "▁temu": 1750,
      "▁On": 1751,
      "dde,": 1752,
      "rif": 1753,
      "taba": 1754,
      "▁gy": 1755,
      "ikol": 1756,
      "▁impro": 1757,
      "▁kitundu.\r\n": 1758,
      "enzi": 1759,
      "ira.\r\n": 1760,
      "▁Then": 1761,
      "okus": 1762,
      "▁its": 1763,
      "▁month": 1764,
      "res": 1765,
      "▁All": 1766,
      "vu.\r\n": 1767,
      "giro": 1768,
      "omuntu": 1769,
      "▁cour": 1770,
      "gere": 1771,
      "▁thir": 1772,
      "▁obul": 1773,
      "▁Ama": 1774,
      "▁face": 1775,
      "▁blood": 1776,
      "▁judg": 1777,
      "▁ta": 1778,
      "era.\r\n": 1779,
      "ami": 1780,
      "▁kibuga": 1781,
      "▁okwa": 1782,
      "▁saw": 1783,
      "▁stand": 1784,
      "ate\r\n": 1785,
      "berye": 1786,
      "wang": 1787,
      "▁ogu": 1788,
      "boobu": 1789,
      "▁kaakano": 1790,
      "ants": 1791,
      "ulojekiti": 1792,
      "boobubuda": 1793,
      "▁bir": 1794,
      "▁My": 1795,
      "amb": 1796,
      "ereberye": 1797,
      "▁part": 1798,
      "▁neither": 1799,
      "pi": 1800,
      "ric": 1801,
      "▁kkumi": 1802,
      "▁fac": 1803,
      "anyisa": 1804,
      "▁star": 1805,
      "▁trans": 1806,
      "▁obulamu": 1807,
      "▁heart": 1808,
      "▁Al": 1809,
      "uni": 1810,
      "▁most": 1811,
      "vuna": 1812,
      "ress": 1813,
      "▁wif": 1814,
      "▁dec": 1815,
      "▁waffe": 1816,
      "▁bit": 1817,
      "▁eng": 1818,
      "▁alina": 1819,
      "▁himself": 1820,
      "▁Dis": 1821,
      "▁don": 1822,
      "▁gave": 1823,
      "kolebwa": 1824,
      "▁ssa": 1825,
      "▁ful": 1826,
      "▁fight": 1827,
      "▁amaaso": 1828,
      "waayo": 1829,
      "alibwa": 1830,
      "▁farm": 1831,
      "oly": 1832,
      "▁gaabwe": 1833,
      "▁follow": 1834,
      "▁bulungi": 1835,
      "gay": 1836,
      "▁long": 1837,
      "ected": 1838,
      "anoonyiboobubuda": 1839,
      "titud": 1840,
      "▁cle": 1841,
      "adi": 1842,
      "ruit": 1843,
      "taano": 1844,
      "lie": 1845,
      "zin": 1846,
      "▁n'am": 1847,
      "sawo": 1848,
      "obul": 1849,
      "▁eff": 1850,
      "▁inv": 1851,
      "▁Kristo": 1852,
      "amaanyi": 1853,
      "ulooni": 1854,
      "▁brother": 1855,
      "▁live": 1856,
      "▁Why": 1857,
      "▁hands": 1858,
      "▁amagezi": 1859,
      "▁sle": 1860,
      "▁walk": 1861,
      "▁adv": 1862,
      "yongera": 1863,
      "wa,": 1864,
      "▁gold": 1865,
      "▁during": 1866,
      "▁You": 1867,
      "▁wick": 1868,
      "▁okusa": 1869,
      "▁inf": 1870,
      "ozi": 1871,
      "fuge": 1872,
      "▁jus": 1873,
      "▁eyo": 1874,
      "buu": 1875,
      "▁spoke": 1876,
      "▁baana": 1877,
      "▁Isa": 1878,
      "aying": 1879,
      "sion": 1880,
      "▁nj": 1881,
      "faan": 1882,
      "▁sac": 1883,
      "▁business": 1884,
      "▁lus": 1885,
      "wogera": 1886,
      "ken": 1887,
      "▁pers": 1888,
      "▁baba": 1889,
      "▁Isiraeri,": 1890,
      "▁resp": 1891,
      "day": 1892,
      "▁tewali": 1893,
      "▁okubeera": 1894,
      "abira": 1895,
      "▁ogwa": 1896,
      "▁poor": 1897,
      "▁midst": 1898,
      "▁kino": 1899,
      "▁Si": 1900,
      "▁fear": 1901,
      "akul": 1902,
      "▁gwange": 1903,
      "onoona": 1904,
      "yingira": 1905,
      "▁naawe": 1906,
      "ished": 1907,
      "edi": 1908,
      "▁olw": 1909,
      "wooza": 1910,
      "▁n'as": 1911,
      "▁back": 1912,
      "▁nti\r\n": 1913,
      "ka,": 1914,
      "▁mwa": 1915,
      "alo.\r\n": 1916,
      "ali,": 1917,
      "▁Se": 1918,
      "tar": 1919,
      "ennyumba": 1920,
      "enty": 1921,
      "ident": 1922,
      "▁kingdom": 1923,
      "futa": 1924,
      "ime": 1925,
      "▁Lord:": 1926,
      "velop": 1927,
      "buulira": 1928,
      "▁requ": 1929,
      "jjo": 1930,
      "▁only": 1931,
      "ition": 1932,
      "▁coron": 1933,
      "▁meet": 1934,
      "inza": 1935,
      "▁soul": 1936,
      "ata": 1937,
      "read": 1938,
      "▁much": 1939,
      "▁look": 1940,
      "▁prom": 1941,
      "fuga": 1942,
      "▁multitud": 1943,
      "▁tra": 1944,
      "ember": 1945,
      "ities.\r\n": 1946,
      "▁road": 1947,
      "eld": 1948,
      "▁develop": 1949,
      "▁words": 1950,
      "▁sacrif": 1951,
      "uku": 1952,
      "▁ever": 1953,
      "▁fl": 1954,
      "ower": 1955,
      "guzi": 1956,
      "avirus": 1957,
      "▁kitaawe": 1958,
      "▁coronavirus": 1959,
      "iragiro": 1960,
      "eme": 1961,
      "undi": 1962,
      "▁char": 1963,
      "▁n'amugamba": 1964,
      "mbula": 1965,
      "▁emis": 1966,
      "▁nnaku": 1967,
      "▁ng'omu": 1968,
      "atyo": 1969,
      "wee": 1970,
      "▁okufuna": 1971,
      "▁project": 1972,
      "yamb": 1973,
      "▁commanded": 1974,
      "▁boogera": 1975,
      "ft": 1976,
      "atta": 1977,
      "as,": 1978,
      "▁zaabu": 1979,
      "uuyi": 1980,
      "buzi": 1981,
      "▁To": 1982,
      "eby": 1983,
      "▁seven": 1984,
      "udaaya": 1985,
      "kolera": 1986,
      "hes": 1987,
      "ined": 1988,
      "zibu": 1989,
      "▁people,": 1990,
      "ittle": 1991,
      "▁egy'": 1992,
      "▁women": 1993,
      "kebwa": 1994,
      "▁eza": 1995,
      "▁Aka": 1996,
      "abye": 1997,
      "ici": 1998,
      "manyi": 1999,
      "▁tab": 2000,
      "▁gwo": 2001,
      "ammwe": 2002,
      "▁sword": 2003,
      "▁okub": 2004,
      "▁eby": 2005,
      "▁byabwe": 2006,
      "nes": 2007,
      "yanga": 2008,
      "▁burn": 2009,
      "oto": 2010,
      "▁omulimu": 2011,
      "▁rem": 2012,
      "▁thee.\r\n": 2013,
      "▁cap": 2014,
      "▁kuba": 2015,
      "til": 2016,
      "▁omukisa": 2017,
      "dde.\r\n": 2018,
      "▁build": 2019,
      "oliisi": 2020,
      "▁Saul": 2021,
      "irizibwa": 2022,
      "▁dead": 2023,
      "▁okusinga": 2024,
      "▁y'e": 2025,
      "▁it.\r\n": 2026,
      "▁This": 2027,
      "▁poss": 2028,
      "mba": 2029,
      "saayi": 2030,
      "▁spirit": 2031,
      "▁art": 2032,
      "▁years": 2033,
      "▁fall": 2034,
      "▁toward": 2035,
      "koo": 2036,
      "▁amazzi": 2037,
      "▁ggulu": 2038,
      "▁cr": 2039,
      "▁nnyo.\r\n": 2040,
      "itongole": 2041,
      "▁gir": 2042,
      "▁yet": 2043,
      "gr": 2044,
      "kana": 2045,
      "▁wabula": 2046,
      "gaana": 2047,
      "▁kin": 2048,
      "selves": 2049,
      "▁both": 2050,
      "▁omukulu": 2051,
      "▁ebiri": 2052,
      "▁Ma": 2053,
      "ko,": 2054,
      "▁emirimu": 2055,
      "▁Katonda,": 2056,
      "zikiriza": 2057,
      "▁me.\r\n": 2058,
      "▁little": 2059,
      "▁ter": 2060,
      "asula": 2061,
      "▁inter": 2062,
      "▁ebir": 2063,
      "▁church": 2064,
      "▁belie": 2065,
      "▁vill": 2066,
      "▁ensimbi": 2067,
      "▁judgment": 2068,
      "▁Sam": 2069,
      "ikibwa": 2070,
      "▁activ": 2071,
      "▁org": 2072,
      "▁justi": 2073,
      "▁ass": 2074,
      "▁ggwanga": 2075,
      "ct": 2076,
      "gaano": 2077,
      "ulwa": 2078,
      "▁Ki": 2079,
      "▁altar": 2080,
      "▁ng'a": 2081,
      "▁host": 2082,
      "▁awamu": 2083,
      "▁pray": 2084,
      "▁dwell": 2085,
      "cer": 2086,
      "▁those": 2087,
      "abit": 2088,
      "alawo": 2089,
      "bi,": 2090,
      "▁bread": 2091,
      "▁faith": 2092,
      "▁When": 2093,
      "▁kind": 2094,
      "▁five": 2095,
      "▁vide": 2096,
      "▁amateeka": 2097,
      "lesh": 2098,
      "tta": 2099,
      "▁kol": 2100,
      "▁Sawulo": 2101,
      "▁oluvannyuma": 2102,
      "▁olwatuuka": 2103,
      "▁use": 2104,
      "▁biri": 2105,
      "mwa": 2106,
      "▁same": 2107,
      "▁cer": 2108,
      "amba": 2109,
      "▁mis": 2110,
      "▁ekis": 2111,
      "eekateeka": 2112,
      "kanisa": 2113,
      "▁mak": 2114,
      "▁flesh": 2115,
      "▁students": 2116,
      "angi": 2117,
      "▁kiri": 2118,
      "▁gr": 2119,
      "▁pur": 2120,
      "unu": 2121,
      "ala,": 2122,
      "▁hospital": 2123,
      "▁lot": 2124,
      "olu": 2125,
      "▁Let": 2126,
      "achers": 2127,
      "▁man,": 2128,
      "eera": 2129,
      "kiiko": 2130,
      "cy": 2131,
      "▁sanc": 2132,
      "ffe.\r\n": 2133,
      "ived": 2134,
      "▁nabo": 2135,
      "▁mwaka": 2136,
      "▁cro": 2137,
      "aza": 2138,
      "▁Katonda.\r\n": 2139,
      "▁erina": 2140,
      "▁sil": 2141,
      "▁k'": 2142,
      "▁kir": 2143,
      "▁gra": 2144,
      "buto": 2145,
      "▁vi": 2146,
      "▁okw'": 2147,
      "ongoofu": 2148,
      "ased": 2149,
      "▁dif": 2150,
      "▁Yako": 2151,
      "ani,": 2152,
      "▁ennyo": 2153,
      "waawo,": 2154,
      "baga": 2155,
      "▁must": 2156,
      "▁alwa": 2157,
      "okwe": 2158,
      "▁drink": 2159,
      "ib": 2160,
      "ereddwa": 2161,
      "kuŋŋa": 2162,
      "▁abaali": 2163,
      "goba": 2164,
      "▁big": 2165,
      "▁night": 2166,
      "kulaakul": 2167,
      "pe": 2168,
      "▁mer": 2169,
      "▁mouth": 2170,
      "▁muganda": 2171,
      "guudo": 2172,
      "ulema": 2173,
      "▁wicked": 2174,
      "'t": 2175,
      "ies": 2176,
      "yammwe": 2177,
      "▁bur": 2178,
      "river": 2179,
      "endiga": 2180,
      "ates": 2181,
      "▁Abayizi": 2182,
      "▁community": 2183,
      "cess": 2184,
      "▁bis": 2185,
      "▁open": 2186,
      "fun": 2187,
      "ases": 2188,
      "▁bag": 2189,
      "▁baganda": 2190,
      "▁ekitiibwa": 2191,
      "▁having": 2192,
      "aus": 2193,
      "▁ask": 2194,
      "▁N'a": 2195,
      "iqu": 2196,
      "yagala": 2197,
      "abb": 2198,
      "▁bagamba": 2199,
      "▁Eri": 2200,
      "▁house,": 2201,
      "▁heaven": 2202,
      "anoonyiboobubudamu": 2203,
      "zinensi": 2204,
      "ner": 2205,
      "ten": 2206,
      "ulo.\r\n": 2207,
      "abal": 2208,
      "▁Many": 2209,
      "eri,": 2210,
      "▁bakabona": 2211,
      "fit": 2212,
      "iisi": 2213,
      "ener": 2214,
      "▁fin": 2215,
      "ma.\r\n": 2216,
      "ly\r\n": 2217,
      "ooka": 2218,
      "▁emirembe": 2219,
      "▁ki?\r\n": 2220,
      "hip": 2221,
      "omero.\r\n": 2222,
      "▁me:": 2223,
      "ief": 2224,
      "teg": 2225,
      "▁nammwe": 2226,
      "iriz": 2227,
      "▁ekiweebwayo": 2228,
      "▁bless": 2229,
      "wanyisa": 2230,
      "jjanj": 2231,
      "badde": 2232,
      "▁mal": 2233,
      "▁fi": 2234,
      "▁fire": 2235,
      "ack": 2236,
      "kuuma": 2237,
      "▁servic": 2238,
      "▁Christ": 2239,
      "wum": 2240,
      "▁okusi": 2241,
      "▁enter": 2242,
      "▁kolona": 2243,
      "▁ke": 2244,
      "▁bes": 2245,
      "▁muga": 2246,
      "▁pub": 2247,
      "jju": 2248,
      "ula.\r\n": 2249,
      "▁def": 2250,
      "▁depar": 2251,
      "ought": 2252,
      "fulu": 2253,
      "tri": 2254,
      "▁n'ob": 2255,
      "ain": 2256,
      "▁sk": 2257,
      "▁want": 2258,
      "rest": 2259,
      "▁amaanyi": 2260,
      "yambi": 2261,
      "▁bange": 2262,
      "ers,": 2263,
      "iris": 2264,
      "igo": 2265,
      "▁poliisi": 2266,
      "▁woman": 2267,
      "cour": 2268,
      "mula": 2269,
      "vudde": 2270,
      "▁going": 2271,
      "onde": 2272,
      "man": 2273,
      "▁twe": 2274,
      "▁pay": 2275,
      "▁soci": 2276,
      "▁dev": 2277,
      "▁n'abaana": 2278,
      "▁Thus": 2279,
      "bonero": 2280,
      "▁Disitulikiti": 2281,
      "andika": 2282,
      "bulamu": 2283,
      "▁viol": 2284,
      "ano.\r\n": 2285,
      "▁kis": 2286,
      "▁young": 2287,
      "▁bod": 2288,
      "▁abiri": 2289,
      "▁omut": 2290,
      "▁ord": 2291,
      "▁life": 2292,
      "ulina": 2293,
      "amas": 2294,
      "▁omusango": 2295,
      "▁Therefore": 2296,
      "▁okugenda": 2297,
      "▁Abalimi": 2298,
      "▁love": 2299,
      "enye": 2300,
      "ites": 2301,
      "▁six": 2302,
      "zed": 2303,
      "▁sm": 2304,
      "▁cut": 2305,
      "▁Minis": 2306,
      "▁ente": 2307,
      "▁Yakobo": 2308,
      "ket": 2309,
      "teeka": 2310,
      "▁omusajja": 2311,
      "▁reign": 2312,
      "▁Omuntu": 2313,
      "▁men,": 2314,
      "▁Egyp": 2315,
      "▁temple": 2316,
      "kyo": 2317,
      "▁sign": 2318,
      "▁Alo": 2319,
      "▁n'eki": 2320,
      "toolo": 2321,
      "▁Poliisi": 2322,
      "▁That": 2323,
      "▁round": 2324,
      "vunaanyizibwa": 2325,
      "▁care": 2326,
      "th,": 2327,
      "reng": 2328,
      "try": 2329,
      "▁gyonna": 2330,
      "ls": 2331,
      "ered": 2332,
      "▁eggwanga": 2333,
      "▁kun": 2334,
      "bufu": 2335,
      "ola.\r\n": 2336,
      "▁ngeri": 2337,
      "▁Phar": 2338,
      "ave": 2339,
      "gwe": 2340,
      "▁mirembe": 2341,
      "▁told": 2342,
      "atuula": 2343,
      "▁always": 2344,
      "▁mulimu": 2345,
      "tion.\r\n": 2346,
      "▁tebalina": 2347,
      "gom": 2348,
      "▁gam": 2349,
      "waabu": 2350,
      "▁Eki": 2351,
      "▁Every": 2352,
      "▁emm": 2353,
      "▁streng": 2354,
      "▁yange": 2355,
      "▁olw'obu": 2356,
      "▁Alooni": 2357,
      "awa": 2358,
      "less": 2359,
      "▁war": 2360,
      "▁Ad": 2361,
      "tukuvu": 2362,
      "amateeka": 2363,
      "▁receive": 2364,
      "ost": 2365,
      "▁emmere": 2366,
      "gn": 2367,
      "▁gonna": 2368,
      "▁pra": 2369,
      "▁omukono": 2370,
      "ly.\r\n": 2371,
      "▁day,": 2372,
      "▁mateeka": 2373,
      "ween": 2374,
      "za,": 2375,
      "ote": 2376,
      "ifa": 2377,
      "ment.\r\n": 2378,
      "▁olw'omu": 2379,
      "▁differ": 2380,
      "isink": 2381,
      "▁hard": 2382,
      "uno": 2383,
      "▁beetaaga": 2384,
      "▁loc": 2385,
      "▁country.\r\n": 2386,
      "▁mountain": 2387,
      "▁opp": 2388,
      "erna": 2389,
      "ourn": 2390,
      "▁become": 2391,
      "iba": 2392,
      "irirwa": 2393,
      "ister": 2394,
      "▁n'ay": 2395,
      "▁Go": 2396,
      "wulire": 2397,
      "▁taberna": 2398,
      "▁ekitundu": 2399,
      "▁n'ag": 2400,
      "▁tek": 2401,
      "▁iniqu": 2402,
      "▁Bann": 2403,
      "uck": 2404,
      "▁world": 2405,
      "▁bwabwe": 2406,
      "ied": 2407,
      "▁sla": 2408,
      "▁sub": 2409,
      "▁find": 2410,
      "▁between": 2411,
      "du": 2412,
      "nya": 2413,
      "▁cur": 2414,
      "▁arrest": 2415,
      "▁ennungi": 2416,
      "▁grow": 2417,
      "▁twenty": 2418,
      "▁biro": 2419,
      "ired": 2420,
      "ffe,": 2421,
      "▁okusobola": 2422,
      "▁voice": 2423,
      "kwata": 2424,
      "zee": 2425,
      "▁ejja": 2426,
      "▁cat": 2427,
      "▁eky'oku": 2428,
      "▁Egypt": 2429,
      "▁light": 2430,
      "ira,": 2431,
      "▁Most": 2432,
      "▁Juda,": 2433,
      "▁improve": 2434,
      "▁towards": 2435,
      "▁sight": 2436,
      "▁fore": 2437,
      "▁pulojekiti": 2438,
      "▁refuge": 2439,
      "kozesebwa": 2440,
      "▁food": 2441,
      "le\r\n": 2442,
      "▁n'abantu": 2443,
      "▁bord": 2444,
      "kolwa": 2445,
      "weru": 2446,
      "▁gener": 2447,
      "▁last": 2448,
      "alagira": 2449,
      "▁spread": 2450,
      "ough": 2451,
      "▁public": 2452,
      "▁sol": 2453,
      "▁fif": 2454,
      "▁lear": 2455,
      "kwa": 2456,
      "▁sti": 2457,
      "▁cam": 2458,
      "dduka": 2459,
      "▁Man": 2460,
      "▁left": 2461,
      "▁delivered": 2462,
      "▁mukama": 2463,
      "ias": 2464,
      "asure": 2465,
      "onoon": 2466,
      "kiika": 2467,
      "komer": 2468,
      "vent": 2469,
      "▁enga": 2470,
      "▁just": 2471,
      "▁underst": 2472,
      "▁ten": 2473,
      "▁gange": 2474,
      "▁regi": 2475,
      "▁ng'ayogera": 2476,
      "▁y'oku": 2477,
      "▁Where": 2478,
      "band": 2479,
      "gana": 2480,
      "▁okufa": 2481,
      "▁ekir": 2482,
      "▁rel": 2483,
      "kadde": 2484,
      "▁kintu": 2485,
      "▁olwa": 2486,
      "▁stre": 2487,
      "indo": 2488,
      "▁seek": 2489,
      "▁dda": 2490,
      "▁div": 2491,
      "ma,": 2492,
      "▁amakumi": 2493,
      "lyango": 2494,
      "▁until": 2495,
      "▁servants": 2496,
      "▁Phil": 2497,
      "were": 2498,
      "yudaaya": 2499,
      "▁tut": 2500,
      "unya": 2501,
      "igiriza": 2502,
      "isibwa": 2503,
      "▁ab'omu": 2504,
      "▁better": 2505,
      "▁Ss": 2506,
      "tive": 2507,
      "▁emiti": 2508,
      "▁leero": 2509,
      "tions": 2510,
      "avu": 2511,
      "inja": 2512,
      "iron": 2513,
      "▁holy": 2514,
      "irizi": 2515,
      "▁Abavubuka": 2516,
      "ubereberye": 2517,
      "▁seed": 2518,
      "uubi": 2519,
      "yigira": 2520,
      "▁abasinga": 2521,
      "yl": 2522,
      "▁Aar": 2523,
      "▁cities": 2524,
      "akola": 2525,
      "▁land,": 2526,
      "wenge": 2527,
      "▁bano": 2528,
      "▁ris": 2529,
      "▁butuukirivu": 2530,
      "kuum": 2531,
      "orrow": 2532,
      "▁camp": 2533,
      "▁tes": 2534,
      "▁hus": 2535,
      "▁fruit": 2536,
      "▁you.\r\n": 2537,
      "▁stood": 2538,
      "▁:": 2539,
      "▁mukazi": 2540,
      "▁musanvu": 2541,
      "▁Af": 2542,
      "▁cent": 2543,
      "▁ple": 2544,
      "ided": 2545,
      "▁gar": 2546,
      "▁beast": 2547,
      "▁env": 2548,
      "ali.\r\n": 2549,
      "▁omukazi": 2550,
      "▁eby'oku": 2551,
      "▁strong": 2552,
      "▁twa": 2553,
      "▁hold": 2554,
      "ision": 2555,
      "ham": 2556,
      "yri": 2557,
      "▁bene": 2558,
      "gagga": 2559,
      "omo": 2560,
      "ents.\r\n": 2561,
      "▁form": 2562,
      "▁obubi": 2563,
      "▁up,": 2564,
      "▁cover": 2565,
      "ed\r\n": 2566,
      "▁Sulema": 2567,
      "gibwa": 2568,
      "▁discip": 2569,
      "▁built": 2570,
      "▁organi": 2571,
      "▁kkubo": 2572,
      "get": 2573,
      "▁bizinensi": 2574,
      "▁bajjajja": 2575,
      "▁proper": 2576,
      "▁minister": 2577,
      "goberera": 2578,
      "▁tabernacle": 2579,
      "ba,": 2580,
      "▁Sol": 2581,
      "fuula": 2582,
      "amawanga": 2583,
      "▁import": 2584,
      "▁multitude": 2585,
      "▁silver": 2586,
      "bwanga": 2587,
      "▁nku": 2588,
      "▁These": 2589,
      "▁read": 2590,
      "▁coven": 2591,
      "▁eyes": 2592,
      "▁country": 2593,
      "▁covenant": 2594,
      "▁best": 2595,
      "▁god": 2596,
      "▁baas": 2597,
      "ility": 2598,
      "▁emikono": 2599,
      "tural": 2600,
      "ointed": 2601,
      "▁advised": 2602,
      "▁sal": 2603,
      "amin": 2604,
      "▁able": 2605,
      "▁n'abagamba": 2606,
      "uuti": 2607,
      "▁Re": 2608,
      "▁abalala": 2609,
      "▁development": 2610,
      "fo": 2611,
      "uwa": 2612,
      "▁sy": 2613,
      "▁lack": 2614,
      "▁Pol": 2615,
      "▁Israel.\r\n": 2616,
      "▁till": 2617,
      "ono.\r\n": 2618,
      "orr": 2619,
      "▁cause": 2620,
      "▁fell": 2621,
      "▁power": 2622,
      "enjawulo": 2623,
      "▁Lev": 2624,
      "▁received": 2625,
      "orts": 2626,
      "▁ce": 2627,
      "buul": 2628,
      "ende": 2629,
      "▁provide": 2630,
      "ating": 2631,
      "▁whole": 2632,
      "ulibwa": 2633,
      "▁Babyl": 2634,
      "▁wis": 2635,
      "▁wit": 2636,
      "abl": 2637,
      "iled": 2638,
      "▁n'ak": 2639,
      "ikiriza": 2640,
      "ects": 2641,
      "▁schools": 2642,
      "yigiriza": 2643,
      "▁V": 2644,
      "▁med": 2645,
      "yog": 2646,
      "▁pati": 2647,
      "zi,": 2648,
      "▁funds": 2649,
      "▁different": 2650,
      "▁husband": 2651,
      "kanya": 2652,
      "▁Ya": 2653,
      "▁Abazadde": 2654,
      "▁Isiraeri.\r\n": 2655,
      "ifaan": 2656,
      "▁bbiri": 2657,
      "▁ange": 2658,
      "▁ston": 2659,
      "ested": 2660,
      "▁eby'omu": 2661,
      "▁est": 2662,
      "▁Ben": 2663,
      "irira.\r\n": 2664,
      "angira": 2665,
      "▁kutu": 2666,
      "ikira": 2667,
      "ron": 2668,
      "▁emir": 2669,
      "▁Babulooni": 2670,
      "▁glory": 2671,
      "▁wife": 2672,
      "yambalo": 2673,
      "firis": 2674,
      "▁fill": 2675,
      "▁bakola": 2676,
      "lamu": 2677,
      "▁Father": 2678,
      "▁dece": 2679,
      "▁Israel:": 2680,
      "▁tax": 2681,
      "ually": 2682,
      "▁add": 2683,
      "▁eye": 2684,
      "yika": 2685,
      "▁Jew": 2686,
      "▁God:": 2687,
      "yinja": 2688,
      "▁dwel": 2689,
      "gulumi": 2690,
      "ricul": 2691,
      "firisuuti": 2692,
      "ima": 2693,
      "yalo": 2694,
      "▁id": 2695,
      "▁enda": 2696,
      "ent\r\n": 2697,
      "▁rec": 2698,
      "▁Par": 2699,
      "atege": 2700,
      "▁things,": 2701,
      "▁eddoboozi": 2702,
      "▁foot": 2703,
      "▁education": 2704,
      "watibwa": 2705,
      "kira": 2706,
      "ga.\r\n": 2707,
      "imo": 2708,
      "▁rema": 2709,
      "▁saying:\r\n": 2710,
      "hen": 2711,
      "▁neigh": 2712,
      "alamu": 2713,
      "▁chief": 2714,
      "edde.\r\n": 2715,
      "▁bulijjo": 2716,
      "▁seen": 2717,
      "▁used": 2718,
      "▁polit": 2719,
      "▁commandment": 2720,
      "olokoka": 2721,
      "koze": 2722,
      "oni,": 2723,
      "▁earth,": 2724,
      "▁Jerusalem,": 2725,
      "oun": 2726,
      "hel": 2727,
      "▁daughter": 2728,
      "habit": 2729,
      "ite,": 2730,
      "ana,": 2731,
      "▁hand,": 2732,
      "▁bitundu": 2733,
      "▁bwange": 2734,
      "▁mana": 2735,
      "▁could": 2736,
      "▁lay": 2737,
      "▁encour": 2738,
      "▁omuddu": 2739,
      "▁okwen": 2740,
      "▁ekibiina": 2741,
      "▁ogw'oku": 2742,
      "iza": 2743,
      "yong": 2744,
      "▁bwonna": 2745,
      "alf": 2746,
      "tic": 2747,
      "▁ekisa": 2748,
      "▁areas": 2749,
      "▁themselves": 2750,
      "▁concer": 2751,
      "▁Fala": 2752,
      "▁Farm": 2753,
      "▁bateekeddwa": 2754,
      "▁prot": 2755,
      "ling": 2756,
      "el,": 2757,
      "▁writt": 2758,
      "ukiiko": 2759,
      "▁Sulemaani": 2760,
      "▁wall": 2761,
      "itala": 2762,
      "▁morn": 2763,
      "▁thee:": 2764,
      "yigiriz": 2765,
      "▁suff": 2766,
      "▁laid": 2767,
      "xt": 2768,
      "▁side": 2769,
      "▁akawuka": 2770,
      "hing": 2771,
      "▁nz": 2772,
      "▁har": 2773,
      "▁Ach": 2774,
      "▁lab": 2775,
      "urity": 2776,
      "eekebwa": 2777,
      "yonjo": 2778,
      "▁deser": 2779,
      "▁priests": 2780,
      "zannyo": 2781,
      "ely": 2782,
      "ceed": 2783,
      "ation,": 2784,
      "anyu": 2785,
      "ness,": 2786,
      "▁Solom": 2787,
      "▁Falaawo": 2788,
      "kera": 2789,
      "▁tal": 2790,
      "▁ttaka": 2791,
      "maze": 2792,
      "▁n'ajja": 2793,
      "▁omwoyo": 2794,
      "▁wange,": 2795,
      "▁ffe": 2796,
      "ulanga": 2797,
      "▁inhabit": 2798,
      "▁bam": 2799,
      "▁not,": 2800,
      "▁Jac": 2801,
      "cum": 2802,
      "▁send": 2803,
      "▁yas": 2804,
      "▁ye,": 2805,
      "bufuzi": 2806,
      "bas": 2807,
      "zid": 2808,
      "▁bar": 2809,
      "▁ani": 2810,
      "▁spoken": 2811,
      "tegeera": 2812,
      "▁Philist": 2813,
      "air": 2814,
      "taaga": 2815,
      "▁nnyingi": 2816,
      "▁field": 2817,
      "an.\r\n": 2818,
      "▁equ": 2819,
      "▁col": 2820,
      "▁works": 2821,
      "▁city,": 2822,
      "▁tro": 2823,
      "▁we,": 2824,
      "isira": 2825,
      "asomero": 2826,
      "▁king,": 2827,
      "▁play": 2828,
      "▁perform": 2829,
      "zidenti": 2830,
      "kugu": 2831,
      "▁kum": 2832,
      "▁n'agenda": 2833,
      "ze.\r\n": 2834,
      "▁Farmers": 2835,
      "▁Jacob": 2836,
      "bee": 2837,
      "eru": 2838,
      "ito": 2839,
      "▁kuli": 2840,
      "ump": 2841,
      "▁yat": 2842,
      "lock": 2843,
      "az": 2844,
      "ane": 2845,
      "▁abayizi": 2846,
      "amazzi": 2847,
      "▁year.\r\n": 2848,
      "ddaaka": 2849,
      "▁lord": 2850,
      "ziyi": 2851,
      "oloc": 2852,
      "▁children.\r\n": 2853,
      "ulezidenti": 2854,
      "▁mugaso": 2855,
      "▁establ": 2856,
      "iny": 2857,
      "onsi": 2858,
      "▁holoc": 2859,
      "dduk": 2860,
      "▁ebirungi": 2861,
      "▁area.\r\n": 2862,
      "▁kimu": 2863,
      "▁kigambo": 2864,
      "▁bw'atyo": 2865,
      "soever": 2866,
      "wandiikibwa": 2867,
      "kwat": 2868,
      "s\r\n": 2869,
      "▁kat": 2870,
      "▁Ani": 2871,
      "abaka": 2872,
      "atukuvu": 2873,
      "▁us,": 2874,
      "▁village": 2875,
      "▁understand": 2876,
      "ced": 2877,
      "▁swe": 2878,
      "▁mind": 2879,
      "edda": 2880,
      "▁be\r\n": 2881,
      "▁Ob": 2882,
      "▁join": 2883,
      "▁serve": 2884,
      "ledge": 2885,
      "▁gavumenti.\r\n": 2886,
      "▁market": 2887,
      "▁support": 2888,
      "yimirira": 2889,
      "▁Oba": 2890,
      "▁oli": 2891,
      "▁while": 2892,
      "abwe.\r\n": 2893,
      "▁n'abo": 2894,
      "kyuka": 2895,
      "▁banna": 2896,
      "▁present": 2897,
      "▁lusozi": 2898,
      "wand": 2899,
      "▁mug": 2900,
      "▁n'Aba": 2901,
      "tiimu": 2902,
      "▁Bas": 2903,
      "erezebwa": 2904,
      "▁Lwa": 2905,
      "▁come,": 2906,
      "▁ebimu": 2907,
      "▁amal": 2908,
      "▁uncle": 2909,
      "enjigiriza": 2910,
      "▁Yeko": 2911,
      "ched": 2912,
      "ererwa": 2913,
      "▁ai": 2914,
      "ate.\r\n": 2915,
      "▁Abi": 2916,
      "▁okuka": 2917,
      "▁okule": 2918,
      "▁army": 2919,
      "de": 2920,
      "biddwa": 2921,
      "▁Samu": 2922,
      "ongo": 2923,
      "▁okusom": 2924,
      "▁ddungu": 2925,
      "▁plant": 2926,
      "▁answered": 2927,
      "▁judge": 2928,
      "▁ffeeza": 2929,
      "▁believe": 2930,
      "hered": 2931,
      "▁egg": 2932,
      "▁Aru": 2933,
      "aliya": 2934,
      "▁team": 2935,
      "▁eyali": 2936,
      "▁turned": 2937,
      "▁written": 2938,
      "yigirizwa": 2939,
      "▁tt": 2940,
      "kus": 2941,
      "▁bagenda": 2942,
      "▁Bec": 2943,
      "ations.\r\n": 2944,
      "▁run": 2945,
      "▁day.\r\n": 2946,
      "fuluma": 2947,
      "owooza": 2948,
      "▁nda": 2949,
      "▁cub": 2950,
      "▁far": 2951,
      "▁okuga": 2952,
      "▁pas": 2953,
      "▁near": 2954,
      "▁enemi": 2955,
      "▁n'addamu": 2956,
      "▁prophet": 2957,
      "▁diseas": 2958,
      "▁full": 2959,
      "anna": 2960,
      "▁oil": 2961,
      "▁wammwe": 2962,
      "▁Bes": 2963,
      "▁person": 2964,
      "wes": 2965,
      "▁bwo": 2966,
      "▁sid": 2967,
      "▁wild": 2968,
      "▁Of": 2969,
      "▁ekibuga": 2970,
      "▁king's": 2971,
      "▁imm": 2972,
      "ifaananyi": 2973,
      "▁tuli": 2974,
      "▁mwana": 2975,
      "abika": 2976,
      "▁be,": 2977,
      "▁ng'ek": 2978,
      "▁mazzi": 2979,
      "▁amawanga": 2980,
      "▁shew": 2981,
      "▁carried": 2982,
      "▁cubit": 2983,
      "eny": 2984,
      "irako": 2985,
      "igg": 2986,
      "▁ebiro": 2987,
      "▁obuta": 2988,
      "▁ddyo": 2989,
      "▁Amal": 2990,
      "▁nsonga": 2991,
      "▁babiri": 2992,
      "oonya": 2993,
      "komerero": 2994,
      "▁Lwaki": 2995,
      "yaga": 2996,
      "▁thus": 2997,
      "▁Kit": 2998,
      "▁omutima": 2999,
      "ekkumi": 3000,
      "riend": 3001,
      "▁vess": 3002,
      "awulo.\r\n": 3003,
      "▁Omwana": 3004,
      "▁Egypt,": 3005,
      "cil": 3006,
      "ear": 3007,
      "gend": 3008,
      "oyo": 3009,
      "per": 3010,
      "uula": 3011,
      "▁book": 3012,
      "▁atu": 3013,
      "ony": 3014,
      "itted": 3015,
      "igi": 3016,
      "▁abakulu": 3017,
      "ative": 3018,
      "▁responsi": 3019,
      "rup": 3020,
      "wani": 3021,
      "erenga": 3022,
      "ulirwa": 3023,
      "▁Ar": 3024,
      "▁caus": 3025,
      "omp": 3026,
      "ziki": 3027,
      "ament": 3028,
      "▁eky": 3029,
      "▁Nze": 3030,
      "▁ye.\r\n": 3031,
      "▁say:": 3032,
      "▁family": 3033,
      "▁cattle": 3034,
      "▁still": 3035,
      "▁Because": 3036,
      "les,": 3037,
      "▁sat": 3038,
      "anga,": 3039,
      "ikola": 3040,
      "▁offici": 3041,
      "eevi": 3042,
      "▁Yus": 3043,
      "▁thoug": 3044,
      "wangu": 3045,
      "abeera": 3046,
      "▁ground": 3047,
      "cc": 3048,
      "gatta": 3049,
      "▁okuyamba": 3050,
      "▁lyo": 3051,
      "▁next": 3052,
      "▁coming": 3053,
      "▁lw'oku": 3054,
      "agi": 3055,
      "▁river": 3056,
      "▁tul": 3057,
      "▁tell": 3058,
      "ited": 3059,
      "▁Eli": 3060,
      "▁issu": 3061,
      "jja.\r\n": 3062,
      "fuuka": 3063,
      "osed": 3064,
      "▁gumu": 3065,
      "fied": 3066,
      "faanana": 3067,
      "▁learn": 3068,
      "gand": 3069,
      "▁bok": 3070,
      "es:": 3071,
      "▁kukola": 3072,
      "▁Kabaka": 3073,
      "▁happ": 3074,
      "isa.\r\n": 3075,
      "▁Ugand": 3076,
      "irwadde": 3077,
      "walibwa": 3078,
      "wongera": 3079,
      "ongoosa": 3080,
      "▁such": 3081,
      "▁Aaron": 3082,
      "▁dwelt": 3083,
      "▁born": 3084,
      "▁singa": 3085,
      "ites,": 3086,
      "ult": 3087,
      "▁che": 3088,
      "▁Ibul": 3089,
      "▁maanyi": 3090,
      "ennyanja": 3091,
      "▁garment": 3092,
      "▁Yusufu": 3093,
      "▁kina": 3094,
      "▁(of": 3095,
      "▁land.\r\n": 3096,
      "▁okukuuma": 3097,
      "▁princes": 3098,
      "▁court": 3099,
      "liro": 3100,
      "▁bifo": 3101,
      "ale,": 3102,
      "▁mi": 3103,
      "oluganda": 3104,
      "▁inst": 3105,
      "imiro": 3106,
      "▁olug": 3107,
      "ity,": 3108,
      "▁cond": 3109,
      "▁omwaka": 3110,
      "▁Ssente": 3111,
      "▁environ": 3112,
      "kutu": 3113,
      "▁hum": 3114,
      "▁okwogera": 3115,
      "▁N'ayogera": 3116,
      "▁angel": 3117,
      "att": 3118,
      "olubereberye": 3119,
      "eech": 3120,
      "eeme": 3121,
      "▁n'azaala": 3122,
      "▁knowledge": 3123,
      "▁died": 3124,
      "▁week": 3125,
      "▁dra": 3126,
      "us,": 3127,
      "ambul": 3128,
      "▁olus": 3129,
      "▁Abakungu": 3130,
      "▁mazima": 3131,
      "▁ate": 3132,
      "▁kings": 3133,
      "▁okutumbula": 3134,
      "wadde.\r\n": 3135,
      "ensimbi": 3136,
      "annyala": 3137,
      "▁benefit": 3138,
      "kut": 3139,
      "▁friend": 3140,
      "emic": 3141,
      "▁olul": 3142,
      "▁emi": 3143,
      "▁school.\r\n": 3144,
      "unuulira": 3145,
      "rew": 3146,
      "▁lest": 3147,
      "omen": 3148,
      "▁whose": 3149,
      "▁w'ek": 3150,
      "▁prepa": 3151,
      "▁okulaba": 3152,
      "▁construction": 3153,
      "▁ssaddaaka": 3154,
      "▁testim": 3155,
      "anira": 3156,
      "▁aro": 3157,
      "kuta": 3158,
      "era,": 3159,
      "▁ngu": 3160,
      "▁amat": 3161,
      "▁Uganda?\r\n": 3162,
      "▁second": 3163,
      "day.\r\n": 3164,
      "gram": 3165,
      "bo.\r\n": 3166,
      "wano": 3167,
      "yit": 3168,
      "▁njo": 3169,
      "▁amu": 3170,
      "▁luuyi": 3171,
      "▁Son": 3172,
      "ukiriza": 3173,
      "▁bw'ana": 3174,
      "▁job": 3175,
      "▁Ens": 3176,
      "▁ez'omu": 3177,
      "▁vessel": 3178,
      "vo": 3179,
      "▁wilt": 3180,
      "yama": 3181,
      "▁Asa": 3182,
      "▁bammwe": 3183,
      "ambu": 3184,
      "▁abaddu": 3185,
      "▁Yos": 3186,
      "▁teg": 3187,
      "abbiiti": 3188,
      "▁encourag": 3189,
      "▁bulamu": 3190,
      "ins": 3191,
      "zizza": 3192,
      "▁baagala": 3193,
      "am,": 3194,
      "▁enkya": 3195,
      "▁Er": 3196,
      "eke": 3197,
      "abbibu": 3198,
      "▁munn": 3199,
      "▁gyabwe": 3200,
      "ka\r\n": 3201,
      "▁gali": 3202,
      "▁die": 3203,
      "▁bakabaka": 3204,
      "▁More": 3205,
      "aders": 3206,
      "▁mawanga": 3207,
      "▁parti": 3208,
      "▁wrath": 3209,
      "▁living": 3210,
      "kooti": 3211,
      "▁slain": 3212,
      "▁arrested": 3213,
      "▁Ibulayimu": 3214,
      "▁At": 3215,
      "▁cre": 3216,
      "▁gone": 3217,
      "▁pa": 3218,
      "ute": 3219,
      "▁Abasomesa": 3220,
      "bya": 3221,
      "▁awali": 3222,
      "ened": 3223,
      "▁cann": 3224,
      "▁okuzimba": 3225,
      "▁Wee": 3226,
      "▁produc": 3227,
      "▁agricul": 3228,
      "otoka": 3229,
      "vum": 3230,
      "onya": 3231,
      "▁inform": 3232,
      "ota": 3233,
      "▁ekiri": 3234,
      "▁ng'o": 3235,
      "▁Abanoonyiboobubudamu": 3236,
      "▁nno": 3237,
      "▁omwo": 3238,
      "fulum": 3239,
      "oony": 3240,
      "▁bannabbi": 3241,
      "▁clean": 3242,
      "▁sacrific": 3243,
      "▁Eriya": 3244,
      "▁cannot": 3245,
      "p\r\n": 3246,
      "ser": 3247,
      "▁dar": 3248,
      "elf": 3249,
      "oud": 3250,
      "▁yal": 3251,
      "▁w'eggye": 3252,
      "▁lyange": 3253,
      "▁increase": 3254,
      "▁certain": 3255,
      "▁societ": 3256,
      "▁Parents": 3257,
      "to.\r\n": 3258,
      "ine,": 3259,
      "en.\r\n": 3260,
      "▁cases": 3261,
      "owed": 3262,
      "▁yamu": 3263,
      "▁Je": 3264,
      "▁program": 3265,
      "ondo": 3266,
      "▁known": 3267,
      "▁posses": 3268,
      "▁justice": 3269,
      "uub": 3270,
      "anci": 3271,
      "▁nkola": 3272,
      "atter": 3273,
      "ge\r\n": 3274,
      "▁Eph": 3275,
      "▁save": 3276,
      "▁olw'e": 3277,
      "▁N'aba": 3278,
      "▁strang": 3279,
      "▁local": 3280,
      "ks": 3281,
      "uti": 3282,
      "▁por": 3283,
      "iridde,": 3284,
      "▁onoo": 3285,
      "▁Abakyala": 3286,
      "▁ziri": 3287,
      "▁omwa": 3288,
      "▁ox": 3289,
      "▁mutima": 3290,
      "▁guli": 3291,
      "unzi": 3292,
      "▁abe": 3293,
      "eter": 3294,
      "▁access": 3295,
      "▁truth": 3296,
      "▁sancti": 3297,
      "▁organiz": 3298,
      "pya": 3299,
      "▁hom": 3300,
      "ayinza": 3301,
      "erezanga": 3302,
      "▁does": 3303,
      "uyi": 3304,
      "▁n'om": 3305,
      "zaalibwa": 3306,
      "▁omubiri": 3307,
      "▁vic": 3308,
      "▁olw'eki": 3309,
      "▁n'abal": 3310,
      "▁group": 3311,
      "▁offered": 3312,
      "▁Phara": 3313,
      "▁important": 3314,
      "▁wisdom": 3315,
      "vanj": 3316,
      "hem": 3317,
      "▁bo,": 3318,
      "▁mm": 3319,
      "▁muk": 3320,
      "▁gun": 3321,
      "olo.\r\n": 3322,
      "▁ins": 3323,
      "▁olut": 3324,
      "▁usually": 3325,
      "ituuka": 3326,
      "▁leader": 3327,
      "▁contin": 3328,
      "ada": 3329,
      "kiriza": 3330,
      "▁sur": 3331,
      "anga.\r\n": 3332,
      "▁ekifo": 3333,
      "ikom": 3334,
      "ateg": 3335,
      "ango.\r\n": 3336,
      "▁drug": 3337,
      "▁brethren,": 3338,
      "▁sacrifice": 3339,
      "▁skill": 3340,
      "vanjuba": 3341,
      "yiti": 3342,
      "in\r\n": 3343,
      "waza": 3344,
      "▁mirimu": 3345,
      "▁eno": 3346,
      "▁Women": 3347,
      "▁ey'omu": 3348,
      "▁countri": 3349,
      "▁bakatonda": 3350,
      "▁lyonna": 3351,
      "▁gathered": 3352,
      "▁gwonna": 3353,
      "▁nnabbi": 3354,
      "▁Which": 3355,
      "▁sheep": 3356,
      "▁needs": 3357,
      "▁passed": 3358,
      "weema": 3359,
      "▁sinn": 3360,
      "▁dro": 3361,
      "ge.\r\n": 3362,
      "▁Bu": 3363,
      "ce\r\n": 3364,
      "▁vis": 3365,
      "▁Do": 3366,
      "wanvu": 3367,
      "▁nnyina": 3368,
      "▁tribe": 3369,
      "wereere": 3370,
      "▁concerning": 3371,
      "inzi": 3372,
      "eem": 3373,
      "▁anci": 3374,
      "vaamu": 3375,
      "essomero": 3376,
      "atuu": 3377,
      "atuma": 3378,
      "▁son,": 3379,
      "eth,": 3380,
      "balirira": 3381,
      "bun": 3382,
      "▁bingi": 3383,
      "▁nte": 3384,
      "▁nations": 3385,
      "int": 3386,
      "anduu": 3387,
      "itule": 3388,
      "▁kkono": 3389,
      "▁gate": 3390,
      "▁bear": 3391,
      "▁enkumi": 3392,
      "▁Edd": 3393,
      "yimu": 3394,
      "taa": 3395,
      "▁ang": 3396,
      "▁era,": 3397,
      "▁jo": 3398,
      "▁n'alyoka": 3399,
      "▁twel": 3400,
      "▁neighbo": 3401,
      "▁Solomon": 3402,
      "▁ago": 3403,
      "al\r\n": 3404,
      "▁sit": 3405,
      "ircum": 3406,
      "kaaga": 3407,
      "saba": 3408,
      "saasa": 3409,
      "cept": 3410,
      "▁chair": 3411,
      "▁kika": 3412,
      "leme": 3413,
      "loy": 3414,
      "▁farmers": 3415,
      "br": 3416,
      "port": 3417,
      "▁corn": 3418,
      "unula": 3419,
      "▁ste": 3420,
      "▁rul": 3421,
      "▁sea": 3422,
      "▁ark": 3423,
      "▁n'ebintu": 3424,
      "▁omuliro": 3425,
      "▁began": 3426,
      "sobola": 3427,
      "▁think": 3428,
      "▁Wa": 3429,
      "▁asatu": 3430,
      "▁okwo": 3431,
      "▁teachers": 3432,
      "ly,": 3433,
      "sozi": 3434,
      "▁Health": 3435,
      "▁kyali": 3436,
      "ector": 3437,
      "▁baabwe.\r\n": 3438,
      "▁engeri": 3439,
      "mal": 3440,
      "with": 3441,
      "▁ve": 3442,
      "kuumi": 3443,
      "▁cand": 3444,
      "▁fool": 3445,
      "▁zo": 3446,
      "▁disp": 3447,
      "▁w'omu": 3448,
      "▁ssenyi": 3449,
      "▁gwabwe": 3450,
      "akawuka": 3451,
      "▁nnyanja": 3452,
      "▁taking": 3453,
      "▁purp": 3454,
      "▁refugees": 3455,
      "wera": 3456,
      "wiri": 3457,
      "▁ot": 3458,
      "▁wano": 3459,
      "ason": 3460,
      "▁n'eri": 3461,
      "eewo": 3462,
      "▁enough": 3463,
      "▁Abasawo": 3464,
      "▁teach": 3465,
      "▁abantu.\r\n": 3466,
      "▁ensonga": 3467,
      "ŋŋamba": 3468,
      "▁obulungi.\r\n": 3469,
      "yisa": 3470,
      "▁mbeera": 3471,
      "tibwa": 3472,
      "geza": 3473,
      "oured": 3474,
      "oberera": 3475,
      "▁Abas": 3476,
      "▁zit": 3477,
      "anya.\r\n": 3478,
      "▁ssabbiiti": 3479,
      "▁by'omu": 3480,
      "ish\r\n": 3481,
      "▁answered:": 3482,
      "▁Olu": 3483,
      "▁killed": 3484,
      "▁kolona.\r\n": 3485,
      "tooloola": 3486,
      "inny": 3487,
      "itula": 3488,
      "▁kkooti": 3489,
      "▁bad": 3490,
      "alam": 3491,
      "▁yakola": 3492,
      "▁Abra": 3493,
      "▁His": 3494,
      "▁bw'ali": 3495,
      "▁leero.\r\n": 3496,
      "▁w'omuntu": 3497,
      "▁bibuga": 3498,
      "▁basa": 3499,
      "▁okulwana": 3500,
      "zimbe": 3501,
      "eetaaga": 3502,
      "▁Ekitongole": 3503,
      "▁master": 3504,
      "kambwe": 3505,
      "▁destroyed": 3506,
      "▁none": 3507,
      "▁ayogera": 3508,
      "ya;": 3509,
      "amala": 3510,
      "ent.\r\n": 3511,
      "bwakabaka": 3512,
      "▁El": 3513,
      "▁No": 3514,
      "ch\r\n": 3515,
      "▁attend": 3516,
      "▁mutwe": 3517,
      "▁lost": 3518,
      "▁activities.\r\n": 3519,
      "▁ssenyiga": 3520,
      "▁Abraham": 3521,
      "cl": 3522,
      "gwan": 3523,
      "gazi": 3524,
      "gaali": 3525,
      "olera": 3526,
      "▁held": 3527,
      "birizibwa": 3528,
      "▁eky'omu": 3529,
      "▁ndiba": 3530,
      "▁Ebyo": 3531,
      "▁ettaka": 3532,
      "▁obwakabaka": 3533,
      "▁corrup": 3534,
      "▁Bw'ati": 3535,
      "▁start": 3536,
      "▁emirundi": 3537,
      "▁nab": 3538,
      "was": 3539,
      "▁fast": 3540,
      "ziddwa": 3541,
      "irize": 3542,
      "▁Nga": 3543,
      "▁chall": 3544,
      "ani.\r\n": 3545,
      "▁basobola": 3546,
      "▁ey'oku": 3547,
      "walira": 3548,
      "▁above": 3549,
      "▁trees": 3550,
      "▁third": 3551,
      "▁possess": 3552,
      "ato": 3553,
      "▁kirungi": 3554,
      "▁cul": 3555,
      "▁town": 3556,
      "▁okuny": 3557,
      "ication": 3558,
      "▁omun": 3559,
      "▁olunaku": 3560,
      "ula\r\n": 3561,
      "ulidde": 3562,
      "ungi.\r\n": 3563,
      "▁kyange": 3564,
      "▁thereof,": 3565,
      "embers": 3566,
      "▁mount": 3567,
      "▁Samwiri": 3568,
      "fe": 3569,
      "mbo": 3570,
      "s?\r\n": 3571,
      "ing\r\n": 3572,
      "zaal": 3573,
      "imbye": 3574,
      "▁omusaayi": 3575,
      "obulamu": 3576,
      "▁ebibuga": 3577,
      "▁main": 3578,
      "isibo": 3579,
      "▁parents": 3580,
      "enjawulo.\r\n": 3581,
      "▁kwabwe": 3582,
      "▁Leaders": 3583,
      "▁sleep": 3584,
      "ared": 3585,
      "julirwa": 3586,
      "zabbibu": 3587,
      "iriranga": 3588,
      "▁Ass": 3589,
      "▁okuli": 3590,
      "▁doth": 3591,
      "▁n'ok": 3592,
      "im,": 3593,
      "▁ekiro": 3594,
      "▁abalina": 3595,
      "ete": 3596,
      "▁Yol": 3597,
      "▁Mukama;": 3598,
      "▁Jos": 3599,
      "▁ssomero": 3600,
      "▁community.\r\n": 3601,
      "▁heaven,": 3602,
      "ball": 3603,
      "▁bintu": 3604,
      "▁byammwe": 3605,
      "▁wind": 3606,
      "▁kif": 3607,
      "ily": 3608,
      "fu.\r\n": 3609,
      "▁go,": 3610,
      "▁counsel": 3611,
      "▁break": 3612,
      "▁ow'e": 3613,
      "kwegay": 3614,
      "▁inhabitants": 3615,
      "▁Arua": 3616,
      "▁victim": 3617,
      "▁kwo": 3618,
      "▁n'ens": 3619,
      "▁baat": 3620,
      "tuuka": 3621,
      "ars": 3622,
      "ayim": 3623,
      "▁Beth": 3624,
      "akyo": 3625,
      "▁obudde": 3626,
      "ender": 3627,
      "agisa": 3628,
      "▁bibiri": 3629,
      "▁district.\r\n": 3630,
      "irusiru": 3631,
      "▁violence": 3632,
      "▁Yoluda": 3633,
      "▁ton": 3634,
      "▁gi": 3635,
      "▁rejo": 3636,
      "▁yaabwe": 3637,
      "waliro.\r\n": 3638,
      "▁security": 3639,
      "mb": 3640,
      "▁bun": 3641,
      "ality": 3642,
      "▁egi": 3643,
      "▁wise": 3644,
      "▁okute": 3645,
      "▁luli": 3646,
      "ingi.\r\n": 3647,
      "▁ekig": 3648,
      "▁omuwendo": 3649,
      "emirembe": 3650,
      "▁reven": 3651,
      "▁nothing": 3652,
      "▁kikumi": 3653,
      "zimbibwa": 3654,
      "▁council": 3655,
      "ebyobulamu": 3656,
      "▁slew": 3657,
      "▁encouraged": 3658,
      "oonyereza": 3659,
      "ava": 3660,
      "sal": 3661,
      "▁myaka": 3662,
      "▁hors": 3663,
      "▁gather": 3664,
      "▁thr": 3665,
      "▁here": 3666,
      "▁Sim": 3667,
      "▁olwo": 3668,
      "ddewo": 3669,
      "▁manner": 3670,
      "ous\r\n": 3671,
      "uthor": 3672,
      "kamp": 3673,
      "▁oper": 3674,
      "▁asked": 3675,
      "▁labour": 3676,
      "▁Yoswa": 3677,
      "▁suc": 3678,
      "isinga": 3679,
      "yamu": 3680,
      "▁hop": 3681,
      "▁Tu": 3682,
      "▁endi": 3683,
      "fudde": 3684,
      "▁ways": 3685,
      "cover": 3686,
      "▁One": 3687,
      "▁kiseera": 3688,
      "alayika": 3689,
      "eeter": 3690,
      "▁Genti": 3691,
      "▁ng'e": 3692,
      "ational": 3693,
      "▁workers": 3694,
      "▁Child": 3695,
      "▁njogera": 3696,
      "ank": 3697,
      "▁eight": 3698,
      "▁mulyango": 3699,
      "▁okuw": 3700,
      "▁pi": 3701,
      "▁bawa": 3702,
      "ereka": 3703,
      "▁yamala": 3704,
      "▁stay": 3705,
      "▁mangu": 3706,
      "▁waters": 3707,
      "▁ogw'omu": 3708,
      "soma": 3709,
      "cus": 3710,
      "ty.\r\n": 3711,
      "wenga": 3712,
      "ining": 3713,
      "eni": 3714,
      "itwe": 3715,
      "ddayo": 3716,
      "▁Eful": 3717,
      "ebb": 3718,
      "▁byali": 3719,
      "▁kamwa": 3720,
      "▁door": 3721,
      "▁time.\r\n": 3722,
      "▁company": 3723,
      "watiddwa": 3724,
      "▁services": 3725,
      "▁idol": 3726,
      "sed": 3727,
      "▁ayinza": 3728,
      "▁sun": 3729,
      "▁Esa": 3730,
      "▁Jord": 3731,
      "▁obuyambi": 3732,
      "▁ebibi": 3733,
      "▁eby'obu": 3734,
      "▁exceed": 3735,
      "▁obutali": 3736,
      "▁appointed": 3737,
      "▁yeeka": 3738,
      "▁crop": 3739,
      "ircumc": 3740,
      "ale.\r\n": 3741,
      "▁emu": 3742,
      "ense": 3743,
      "isango": 3744,
      "ya\r\n": 3745,
      "ar,": 3746,
      "iramu": 3747,
      "▁omuga": 3748,
      "s,\r\n": 3749,
      "▁Her": 3750,
      "▁bigambo": 3751,
      "▁kabaka,": 3752,
      "▁ssomero.\r\n": 3753,
      "▁heart,": 3754,
      "▁carry": 3755,
      "▁officials": 3756,
      "▁twelve": 3757,
      "gala.\r\n": 3758,
      "jo.\r\n": 3759,
      "▁bud": 3760,
      "orted": 3761,
      "▁Ng": 3762,
      "▁byange": 3763,
      "▁byabwe.\r\n": 3764,
      "kolanga": 3765,
      "▁ekyokebwa": 3766,
      "piira": 3767,
      "▁medical": 3768,
      "▁Ephra": 3769,
      "▁sick": 3770,
      "▁free": 3771,
      "▁okujja": 3772,
      "omin": 3773,
      "ural": 3774,
      "ets": 3775,
      "endera": 3776,
      "▁dep": 3777,
      "▁doct": 3778,
      "▁munda": 3779,
      "viirako": 3780,
      "▁akal": 3781,
      "▁Samuel": 3782,
      "▁bore": 3783,
      "erenge": 3784,
      "kuli": 3785,
      "▁ph": 3786,
      "tig": 3787,
      "irizza": 3788,
      "▁Sp": 3789,
      "ekebwa": 3790,
      "▁basi": 3791,
      "▁service": 3792,
      "kulemb": 3793,
      "▁David,": 3794,
      "▁returned": 3795,
      "▁order": 3796,
      "▁dark": 3797,
      "▁yeekaalu": 3798,
      "aul": 3799,
      "alle": 3800,
      "▁sens": 3801,
      "ate,": 3802,
      "▁muwala": 3803,
      "▁mubiri": 3804,
      "▁kig": 3805,
      "▁gul": 3806,
      "▁n'er": 3807,
      "▁Ka": 3808,
      "▁ref": 3809,
      "awulira": 3810,
      "pped": 3811,
      "itukuvu": 3812,
      "▁mwezi": 3813,
      "▁okumala": 3814,
      "wangwa": 3815,
      "▁reigned": 3816,
      "▁thought": 3817,
      "anduuko": 3818,
      "ured": 3819,
      "onoo": 3820,
      "▁pris": 3821,
      "usu": 3822,
      "buvanjuba": 3823,
      "ambi": 3824,
      "▁Say": 3825,
      "ikirira": 3826,
      "▁anim": 3827,
      "fug": 3828,
      "▁prob": 3829,
      "▁byonna,": 3830,
      "▁repro": 3831,
      "▁disitulikiti.\r\n": 3832,
      "▁buk": 3833,
      "▁dem": 3834,
      "▁Jon": 3835,
      "▁amangu": 3836,
      "▁olw'ek": 3837,
      "▁out,": 3838,
      "kulu.\r\n": 3839,
      "▁ez'oku": 3840,
      "▁eddembe": 3841,
      "wandiisi": 3842,
      "wonvu": 3843,
      "▁scri": 3844,
      "▁bina": 3845,
      "ya?\r\n": 3846,
      "▁citi": 3847,
      "ebis": 3848,
      "▁amas": 3849,
      "fa.\r\n": 3850,
      "▁bamugamba": 3851,
      "▁n'ennyumba": 3852,
      "▁weewaawo,": 3853,
      "▁thirty": 3854,
      "▁activities": 3855,
      "abbath": 3856,
      "▁visit": 3857,
      "kampuni": 3858,
      "kal": 3859,
      "wor": 3860,
      "yu": 3861,
      "zizo": 3862,
      "▁beh": 3863,
      "bik": 3864,
      "ekera": 3865,
      "▁yayogera": 3866,
      "▁eky'obu": 3867,
      "▁n'ab'": 3868,
      "▁ensonyi": 3869,
      "▁fathers": 3870,
      "mulug": 3871,
      "▁Christi": 3872,
      "▁obulwadde": 3873,
      "▁Akakiiko": 3874,
      "ret": 3875,
      "▁ebitundu": 3876,
      "be.\r\n": 3877,
      "▁buy": 3878,
      "▁leave": 3879,
      "▁pregn": 3880,
      "woozo": 3881,
      "▁disease": 3882,
      "▁body": 3883,
      "▁strength": 3884,
      "▁exceeding": 3885,
      "▁sus": 3886,
      "▁waliwo": 3887,
      "▁musajja": 3888,
      "▁kiki": 3889,
      "▁dir": 3890,
      "omoo": 3891,
      "ebintu": 3892,
      "▁Jose": 3893,
      "▁rise": 3894,
      "tions.\r\n": 3895,
      "▁places": 3896,
      "vestig": 3897,
      "ariot": 3898,
      "▁filled": 3899,
      "▁Children": 3900,
      "▁Joseph": 3901,
      "bereberye": 3902,
      "indi": 3903,
      "al.\r\n": 3904,
      "▁wo,": 3905,
      "ene.\r\n": 3906,
      "▁mmere": 3907,
      "▁fat": 3908,
      "▁pul": 3909,
      "▁kubeera": 3910,
      "▁Abasajja": 3911,
      "ation\r\n": 3912,
      "ters": 3913,
      "watali": 3914,
      "balaasi": 3915,
      "▁Joh": 3916,
      "void": 3917,
      "▁challeng": 3918,
      "▁problem": 3919,
      "kko": 3920,
      "▁tali": 3921,
      "inda": 3922,
      "▁sister": 3923,
      "waamu": 3924,
      "▁ono": 3925,
      "▁it:": 3926,
      "▁rich": 3927,
      "▁nsi,": 3928,
      "▁adm": 3929,
      "▁seeing": 3930,
      "▁sanctu": 3931,
      "mp": 3932,
      "▁sell": 3933,
      "▁fle": 3934,
      "goye": 3935,
      "anyusa": 3936,
      "amagezi": 3937,
      "▁okuteeka": 3938,
      "▁aliba": 3939,
      "▁earth.\r\n": 3940,
      "▁president": 3941,
      "▁officers": 3942,
      "benj": 3943,
      "▁sta": 3944,
      "irenga": 3945,
      "on\r\n": 3946,
      "▁kujja": 3947,
      "eeb": 3948,
      "▁ebweru": 3949,
      "▁waabwe": 3950,
      "▁obukumi": 3951,
      "atu.\r\n": 3952,
      "▁contr": 3953,
      "▁ennume": 3954,
      "▁inde": 3955,
      "▁obusungu": 3956,
      "▁fulf": 3957,
      "▁ggwanga.\r\n": 3958,
      "funye": 3959,
      "▁Police": 3960,
      "bes": 3961,
      "anula": 3962,
      "▁wiv": 3963,
      "▁members": 3964,
      "ester": 3965,
      "▁okuvu": 3966,
      "asira": 3967,
      "ils": 3968,
      "▁reg": 3969,
      "taka.\r\n": 3970,
      "▁amafuta": 3971,
      "agenda": 3972,
      "ance.\r\n": 3973,
      "meka": 3974,
      "▁transport": 3975,
      "▁Ng'": 3976,
      "zze": 3977,
      "anwa": 3978,
      "▁kati": 3979,
      "▁okudda": 3980,
      "▁Mus": 3981,
      "▁Ess": 3982,
      "emn": 3983,
      "▁Bala": 3984,
      "▁n'abaka": 3985,
      "▁kas": 3986,
      "athan": 3987,
      "▁measure": 3988,
      "▁Amasomero": 3989,
      "▁abato": 3990,
      "ivers": 3991,
      "ikolwa": 3992,
      "wangula": 3993,
      "▁meeting": 3994,
      "kulaakulana": 3995,
      "▁fifty": 3996,
      "▁suffer": 3997,
      "yitibwa": 3998,
      "fuka": 3999,
      "ans.\r\n": 4000,
      "▁east": 4001,
      "ga,": 4002,
      "▁kwange": 4003,
      "▁never": 4004,
      "▁oluk": 4005,
      "▁Ggwe": 4006,
      "▁Mukama:": 4007,
      "▁sound": 4008,
      "▁sex": 4009,
      "▁her,": 4010,
      "▁men.\r\n": 4011,
      "abantu.\r\n": 4012,
      "▁zonna.\r\n": 4013,
      "▁Mowaabu": 4014,
      "▁ak'": 4015,
      "▁ministry": 4016,
      "ayingira": 4017,
      "annyalaze": 4018,
      "▁Efulayimu": 4019,
      "▁bino": 4020,
      "al,": 4021,
      "▁sl": 4022,
      "▁sabbath": 4023,
      "▁home": 4024,
      "weth": 4025,
      "abirira": 4026,
      "iri.\r\n": 4027,
      "enth": 4028,
      "ch,": 4029,
      "oso": 4030,
      "▁south": 4031,
      "▁leav": 4032,
      "▁father,": 4033,
      "▁feed": 4034,
      "▁clot": 4035,
      "▁mukaaga": 4036,
      "buuza": 4037,
      "tegeeza": 4038,
      "!\r\n": 4039,
      "bbi": 4040,
      "born": 4041,
      "eka": 4042,
      "zo.\r\n": 4043,
      "▁biseera": 4044,
      "zaana": 4045,
      "▁abavubuka": 4046,
      "aki": 4047,
      "▁Peeter": 4048,
      "▁Abo": 4049,
      "▁vine": 4050,
      "anyuka": 4051,
      "olog": 4052,
      "▁hour": 4053,
      "▁b'omu": 4054,
      "▁ey'e": 4055,
      "▁z'oku": 4056,
      "▁Misiri,": 4057,
      "jjanjabi": 4058,
      "▁kept": 4059,
      "jjudde": 4060,
      "▁Benyam": 4061,
      "▁troub": 4062,
      "▁ajja": 4063,
      "▁wond": 4064,
      "ba\r\n": 4065,
      "▁okula": 4066,
      "▁okukuba": 4067,
      "▁linnya": 4068,
      "▁bea": 4069,
      "▁Take": 4070,
      "▁Kan": 4071,
      "▁Sama": 4072,
      "▁forty": 4073,
      "ad,": 4074,
      "▁red": 4075,
      "ows": 4076,
      "kiya": 4077,
      "▁batyo": 4078,
      "▁knew": 4079,
      "aph": 4080,
      "▁whatsoever": 4081,
      "▁nsalo": 4082,
      "▁Bw'atyo": 4083,
      "▁don't": 4084,
      "▁endagaano": 4085,
      "▁wilder": 4086,
      "▁wood": 4087,
      "▁pit": 4088,
      "ille": 4089,
      "irizanga": 4090,
      "ayuganda": 4091,
      "▁ekik": 4092,
      "▁omuwala": 4093,
      "akol": 4094,
      "jjinja": 4095,
      "▁why": 4096,
      "▁Ga": 4097,
      "▁chariot": 4098,
      "vail": 4099,
      "▁meat": 4100,
      "uluku": 4101,
      "▁okulya": 4102,
      "▁offering": 4103,
      "▁ag'omu": 4104,
      "ambulira": 4105,
      "▁invol": 4106,
      "wale": 4107,
      "▁author": 4108,
      "▁sector": 4109,
      "▁kik": 4110,
      "▁fee": 4111,
      "▁feet": 4112,
      "weereddwa": 4113,
      "▁kuk": 4114,
      "tud": 4115,
      "▁Benj": 4116,
      "▁Youth": 4117,
      "▁ngalo": 4118,
      "▁teya": 4119,
      "▁dist": 4120,
      "▁prevent": 4121,
      "▁Okus": 4122,
      "▁work.\r\n": 4123,
      "▁daughters": 4124,
      "▁ddaala": 4125,
      "▁particip": 4126,
      "▁Benjamin": 4127,
      "ces,": 4128,
      "wol": 4129,
      "aniranga": 4130,
      "▁we.\r\n": 4131,
      "onye": 4132,
      "weza": 4133,
      "▁ddi": 4134,
      "ab,": 4135,
      "ddi": 4136,
      "bikka": 4137,
      "ente.\r\n": 4138,
      "igwa": 4139,
      "ettaka": 4140,
      "sa.\r\n": 4141,
      "▁within": 4142,
      "ggwaawo": 4143,
      "▁ebikumi": 4144,
      "▁magezi": 4145,
      "ity\r\n": 4146,
      "▁bubi": 4147,
      "▁accoun": 4148,
      "paign": 4149,
      "▁weema": 4150,
      "oba": 4151,
      "anu": 4152,
      "ans,": 4153,
      "▁sek": 4154,
      "esimbye": 4155,
      "▁okufu": 4156,
      "▁dri": 4157,
      "lebr": 4158,
      "▁you:": 4159,
      "▁Pulojekiti": 4160,
      "▁bw'oku": 4161,
      "▁okwewala": 4162,
      "▁adore": 4163,
      "eetera": 4164,
      "▁depart": 4165,
      "▁celebr": 4166,
      "▁Amalwaliro": 4167,
      "▁neighbour": 4168,
      "wenda": 4169,
      "▁treat": 4170,
      "▁tree": 4171,
      "ists": 4172,
      "▁baamu": 4173,
      "▁Tulina": 4174,
      "ulamu.\r\n": 4175,
      "▁Com": 4176,
      "▁days.\r\n": 4177,
      "zimb": 4178,
      "▁lock": 4179,
      "▁begot": 4180,
      "▁burnt": 4181,
      "▁engage": 4182,
      "▁political": 4183,
      "ai": 4184,
      "bat": 4185,
      "gano": 4186,
      "gerera": 4187,
      "▁fur": 4188,
      "▁bel": 4189,
      "▁Stud": 4190,
      "▁Paul": 4191,
      "ekibuga": 4192,
      "▁abalwadde": 4193,
      "gayirira": 4194,
      "faananyi": 4195,
      "▁services.\r\n": 4196,
      "▁Pharao": 4197,
      "sebwa": 4198,
      "singa": 4199,
      "▁bba": 4200,
      "enn": 4201,
      "andemic": 4202,
      "▁mmu": 4203,
      "▁musango": 4204,
      "▁kufuna": 4205,
      "irimu.\r\n": 4206,
      "amanyi": 4207,
      "ice,": 4208,
      "▁ekin": 4209,
      "si,": 4210,
      "▁yalina": 4211,
      "▁tewa": 4212,
      "▁obwe": 4213,
      "▁thyself": 4214,
      "▁ey'okus": 4215,
      "▁Chana": 4216,
      "▁n'eby'": 4217,
      "▁okumanya": 4218,
      "▁rain": 4219,
      "▁Moses,": 4220,
      "▁consid": 4221,
      "▁Tewali": 4222,
      "▁affected": 4223,
      "▁disciples": 4224,
      "▁Jews": 4225,
      "▁Philistines": 4226,
      "ziyiza": 4227,
      "▁sensiti": 4228,
      "kanga": 4229,
      "over": 4230,
      "▁obe": 4231,
      "ism": 4232,
      "▁kid": 4233,
      "abya": 4234,
      "▁enkola": 4235,
      "▁Syri": 4236,
      "▁emb": 4237,
      "obus": 4238,
      "goyi": 4239,
      "▁this,": 4240,
      "▁gw'aba": 4241,
      "▁ab'e": 4242,
      "▁eddagala": 4243,
      "▁life.\r\n": 4244,
      "▁akat": 4245,
      "▁n'amaanyi": 4246,
      "azi": 4247,
      "ves,": 4248,
      "▁awatali": 4249,
      "mu;": 4250,
      "onjo": 4251,
      "▁kwonna": 4252,
      "▁flock": 4253,
      "▁pandemic": 4254,
      "▁ekkubo": 4255,
      "igala": 4256,
      "▁abawala": 4257,
      "jjo.\r\n": 4258,
      "vu,": 4259,
      "▁ones": 4260,
      "gue": 4261,
      "▁Heb": 4262,
      "▁n'abasajja": 4263,
      "▁endwadde": 4264,
      "▁broken": 4265,
      "emiya": 4266,
      "▁lifted": 4267,
      "▁families": 4268,
      "▁gold,": 4269,
      "▁After": 4270,
      "▁manage": 4271,
      "atuuze": 4272,
      "bre": 4273,
      "▁bom": 4274,
      "▁bbu": 4275,
      "▁birina": 4276,
      "▁avoid": 4277,
      "iririza": 4278,
      "irire": 4279,
      "iteeka": 4280,
      "ka;": 4281,
      "▁mwen": 4282,
      "▁cas": 4283,
      "▁okuzi": 4284,
      "▁n'edd": 4285,
      "▁necess": 4286,
      "▁Kamp": 4287,
      "▁By": 4288,
      "▁embi": 4289,
      "▁embeera": 4290,
      "▁ebikolwa": 4291,
      "▁spo": 4292,
      "▁spr": 4293,
      "▁Omuwendo": 4294,
      "kunga": 4295,
      "▁post": 4296,
      "▁Temu": 4297,
      "▁beginn": 4298,
      "▁ezimu": 4299,
      "ediat": 4300,
      "▁roads": 4301,
      "▁remain": 4302,
      "l\r\n": 4303,
      "nyo": 4304,
      "ual": 4305,
      "▁hy": 4306,
      "▁pill": 4307,
      "▁inher": 4308,
      "▁obuyinza": 4309,
      "▁Abayudaaya": 4310,
      "▁maka": 4311,
      "okola": 4312,
      "▁Omukulembeze": 4313,
      "▁sea,": 4314,
      "▁by'oku": 4315,
      "▁place,": 4316,
      "▁struck": 4317,
      "▁Olw'": 4318,
      "▁youths": 4319,
      "▁facil": 4320,
      "▁mercy": 4321,
      "Omu": 4322,
      "ban": 4323,
      "biriza": 4324,
      "▁batu": 4325,
      "▁kisa": 4326,
      "▁gyo": 4327,
      "▁okukom": 4328,
      "▁okukolebwa": 4329,
      "omwe": 4330,
      "bwa.\r\n": 4331,
      "jjira": 4332,
      "▁cometh": 4333,
      "▁bw'ati": 4334,
      "annyini": 4335,
      "▁bantu.\r\n": 4336,
      "▁started": 4337,
      "zikiza": 4338,
      "▁dang": 4339,
      "▁n'ensi": 4340,
      "▁heal": 4341,
      "leet": 4342,
      "▁omug": 4343,
      "▁n'aka": 4344,
      "vuzi": 4345,
      "▁Pawulo": 4346,
      "▁kijja": 4347,
      "▁v.": 4348,
      "udo.\r\n": 4349,
      "▁battle": 4350,
      "▁gy'ali": 4351,
      "▁lyabwe": 4352,
      "▁Jeremi": 4353,
      "▁ow'oku": 4354,
      "▁Yuda,": 4355,
      "▁together,": 4356,
      "▁gammwe": 4357,
      "isinkaniranga": 4358,
      "▁society.\r\n": 4359,
      "fic": 4360,
      "vest": 4361,
      "▁age": 4362,
      "▁lin": 4363,
      "▁due": 4364,
      "dden": 4365,
      "▁Kita": 4366,
      "▁okusasula": 4367,
      "▁omwenge": 4368,
      "engeri": 4369,
      "▁masomero": 4370,
      "▁contri": 4371,
      "▁prince": 4372,
      "ressed": 4373,
      "▁region.\r\n": 4374,
      "▁bokka": 4375,
      "tor": 4376,
      "▁test": 4377,
      "▁ataano": 4378,
      "ddo": 4379,
      "▁abakazi": 4380,
      "tern": 4381,
      "▁stop": 4382,
      "▁vot": 4383,
      "▁yalagira": 4384,
      "▁Un": 4385,
      "▁us.\r\n": 4386,
      "▁bound": 4387,
      "▁few": 4388,
      "▁mmwe,": 4389,
      "▁enjuyi": 4390,
      "▁gaabwe.\r\n": 4391,
      "▁followed": 4392,
      "venth": 4393,
      "▁Josue": 4394,
      "▁susp": 4395,
      "osoever": 4396,
      "sp": 4397,
      "▁aku": 4398,
      "▁sing": 4399,
      "▁malayika": 4400,
      "▁Educ": 4401,
      "▁Kya": 4402,
      "▁abee": 4403,
      "▁omusa": 4404,
      "▁Our": 4405,
      "▁okwongera": 4406,
      "ekibiina": 4407,
      "▁n'ebyalo": 4408,
      "▁desp": 4409,
      "▁mbagamba": 4410,
      "▁crim": 4411,
      "▁villag": 4412,
      "ji": 4413,
      "mbi": 4414,
      "zira": 4415,
      "▁bbanga": 4416,
      "▁abi": 4417,
      "ont": 4418,
      "ice.\r\n": 4419,
      "▁Et": 4420,
      "▁Sh": 4421,
      "▁fors": 4422,
      "▁yaba": 4423,
      "obya": 4424,
      "▁obukulu": 4425,
      "▁Holy": 4426,
      "ature": 4427,
      "▁ndiku": 4428,
      "▁down,": 4429,
      "▁Jerusalem.\r\n": 4430,
      "▁money.\r\n": 4431,
      "▁house.\r\n": 4432,
      "gulaamu": 4433,
      "▁national": 4434,
      "ambuza": 4435,
      "▁candid": 4436,
      "esimbyewo": 4437,
      "a\r\n": 4438,
      "▁ap": 4439,
      "▁ewa": 4440,
      "▁sto": 4441,
      "▁half": 4442,
      "▁okukolera": 4443,
      "leeta": 4444,
      "aliiko": 4445,
      "▁Okul": 4446,
      "siga": 4447,
      "guza": 4448,
      "▁byalo": 4449,
      "▁ng'aba": 4450,
      "ggo": 4451,
      "▁ebifo": 4452,
      "▁ram": 4453,
      "▁N'amu": 4454,
      "▁kitu": 4455,
      "▁ssente.\r\n": 4456,
      "uubuzi": 4457,
      "▁Amm": 4458,
      "▁years.\r\n": 4459,
      "▁didst": 4460,
      "▁wherein": 4461,
      "▁Yerusaalemi,": 4462,
      "▁lives": 4463,
      "▁Yowaabu": 4464,
      "▁ennyuma": 4465,
      "▁remember": 4466,
      "imooni": 4467,
      "▁joy": 4468,
      "▁contribu": 4469,
      "ger": 4470,
      "ence,": 4471,
      "yaw": 4472,
      "▁kkanisa": 4473,
      "▁gif": 4474,
      "▁top": 4475,
      "asing": 4476,
      "le,": 4477,
      "▁Neb": 4478,
      "ulizi": 4479,
      "▁obutuukirivu": 4480,
      "uke": 4481,
      "ukirira": 4482,
      "▁amayinja": 4483,
      "▁journ": 4484,
      "ddwa.\r\n": 4485,
      "▁committed": 4486,
      "kyali": 4487,
      "kyusa": 4488,
      "ances": 4489,
      "▁bakita": 4490,
      "fumb": 4491,
      "ebyenjigiriza": 4492,
      "▁ng'agamba": 4493,
      "▁grace": 4494,
      "▁protect": 4495,
      "▁responsib": 4496,
      "▁testimony": 4497,
      "erengeta": 4498,
      "▁ey'okusisinkaniranga": 4499,
      "byo": 4500,
      "com": 4501,
      "ces.\r\n": 4502,
      "fy": 4503,
      "h\r\n": 4504,
      "kala": 4505,
      "then": 4506,
      "▁tet": 4507,
      "▁Ai": 4508,
      "▁okuj": 4509,
      "▁lik": 4510,
      "▁int": 4511,
      "▁ng'ak": 4512,
      "▁ng'oku": 4513,
      "▁bw'aba": 4514,
      "atu,": 4515,
      "▁role": 4516,
      "▁kityo": 4517,
      "▁ezit": 4518,
      "▁children,": 4519,
      "▁okwetooloola": 4520,
      "▁okutandika": 4521,
      "wandiika": 4522,
      "▁cloud": 4523,
      "▁desol": 4524,
      "▁Christ,": 4525,
      "timba": 4526,
      "▁houses": 4527,
      "▁kindred": 4528,
      "▁diseases.\r\n": 4529,
      "▁agricultural": 4530,
      "▁inherit": 4531,
      "n't": 4532,
      "wann": 4533,
      "▁ata": 4534,
      "ine.\r\n": 4535,
      "yard": 4536,
      "▁lamb": 4537,
      "used": 4538,
      "uka.\r\n": 4539,
      "rie": 4540,
      "vaayo": 4541,
      "▁N'omu": 4542,
      "▁her:": 4543,
      "▁brid": 4544,
      "▁empe": 4545,
      "▁ow'omu": 4546,
      "fiira": 4547,
      "▁marri": 4548,
      "▁emisango": 4549,
      "abbali": 4550,
      "▁departed": 4551,
      "▁endiga": 4552,
      "af": 4553,
      "▁bala": 4554,
      "▁Az": 4555,
      "▁dre": 4556,
      "oli,": 4557,
      "yezi": 4558,
      "abba": 4559,
      "▁baal": 4560,
      "imibwa": 4561,
      "ala\r\n": 4562,
      "▁shut": 4563,
      "▁Kee": 4564,
      "▁Sar": 4565,
      "▁is,": 4566,
      "ere.\r\n": 4567,
      "▁La": 4568,
      "anyukira": 4569,
      "abeeranga": 4570,
      "▁financi": 4571,
      "▁border": 4572,
      "▁n'akat": 4573,
      "▁Assyri": 4574,
      "▁Peetero": 4575,
      "down": 4576,
      "eggwanga": 4577,
      "hi": 4578,
      "iz": 4579,
      "jects": 4580,
      "ireeta": 4581,
      "▁Ak": 4582,
      "▁Ttiimu": 4583,
      "▁omusanvu": 4584,
      "▁Gala": 4585,
      "▁waffe,": 4586,
      "nyina": 4587,
      "gambye": 4588,
      "ggwa": 4589,
      "▁kibiina": 4590,
      "▁van": 4591,
      "▁teacher": 4592,
      "▁obun": 4593,
      "ireya": 4594,
      "▁Thy": 4595,
      "▁away,": 4596,
      "▁accident": 4597,
      "ortun": 4598,
      "▁n'oyo": 4599,
      "▁hospital.\r\n": 4600,
      "▁blessed": 4601,
      "▁beseech": 4602,
      "▁Manass": 4603,
      "kwegayiridde,": 4604,
      "aust": 4605,
      "▁bungi": 4606,
      "▁mourn": 4607,
      "▁mabbali": 4608,
      "▁okukozesa": 4609,
      "ddira": 4610,
      "▁Mal": 4611,
      "▁ekkumi": 4612,
      "emba": 4613,
      "raid": 4614,
      "▁not.\r\n": 4615,
      "▁naffe": 4616,
      "▁trad": 4617,
      "▁plan": 4618,
      "sujja": 4619,
      "ayagala": 4620,
      "mmwe,": 4621,
      "▁Yoka": 4622,
      "▁Mazima": 4623,
      "▁emmeeme": 4624,
      "▁Babylon": 4625,
      "▁John": 4626,
      "yen": 4627,
      "muli": 4628,
      "▁tol": 4629,
      "▁kug": 4630,
      "usibwa": 4631,
      "▁be.\r\n": 4632,
      "tip": 4633,
      "iri,": 4634,
      "▁ekintu": 4635,
      "jje": 4636,
      "▁Gal": 4637,
      "ekk": 4638,
      "▁vac": 4639,
      "▁goat": 4640,
      "▁rural": 4641,
      "seera": 4642,
      "▁acqu": 4643,
      "▁early": 4644,
      "▁perish": 4645,
      "▁zaabwe.\r\n": 4646,
      "▁invest": 4647,
      "▁requested": 4648,
      "wummula": 4649,
      "▁campaign": 4650,
      "▁environment": 4651,
      "▁piec": 4652,
      "kris": 4653,
      "uch": 4654,
      "▁wali": 4655,
      "▁kitiibwa": 4656,
      "▁investig": 4657,
      "▁Okwe": 4658,
      "▁Omus": 4659,
      "kibwa": 4660,
      "aleka": 4661,
      "▁n'okul": 4662,
      "kungula": 4663,
      "▁ggwe,": 4664,
      "wonye": 4665,
      "ture.\r\n": 4666,
      "ennyini": 4667,
      "▁bbugwe": 4668,
      "now": 4669,
      "ze,": 4670,
      "▁siri": 4671,
      "ire.\r\n": 4672,
      "reed": 4673,
      "abiriza": 4674,
      "▁Mak": 4675,
      "ayi,": 4676,
      "idents": 4677,
      "▁abayigirizwa": 4678,
      "▁ebyambalo": 4679,
      "▁rev": 4680,
      "ekitundu": 4681,
      "endeeza": 4682,
      "▁virus": 4683,
      "▁sour": 4684,
      "▁sons,": 4685,
      "▁way,": 4686,
      "▁Yeremiya": 4687,
      "▁zonna,": 4688,
      "ness\r\n": 4689,
      "▁Teachers": 4690,
      "▁Omwoyo": 4691,
      "▁n'olw'": 4692,
      "▁month,": 4693,
      "▁birth": 4694,
      "▁iniquity": 4695,
      "duce": 4696,
      "▁holocaust": 4697,
      "▁prepared": 4698,
      "▁chairman": 4699,
      "▁lockdown": 4700,
      "gedde": 4701,
      "ound": 4702,
      "▁etaano": 4703,
      "▁sitt": 4704,
      "ateek": 4705,
      "▁lug": 4706,
      "abangu": 4707,
      "ims": 4708,
      "erek": 4709,
      "stem": 4710,
      "rac": 4711,
      "saako": 4712,
      "ective": 4713,
      "ulogulaamu": 4714,
      "▁gw'oku": 4715,
      "▁okubaawo": 4716,
      "ondera": 4717,
      "▁ensolo": 4718,
      "umiikiriza": 4719,
      "baluwa": 4720,
      "ŋŋaano": 4721,
      "▁officer": 4722,
      "▁Minisitule": 4723,
      "▁okwenyigira": 4724,
      "se,": 4725,
      "yoni": 4726,
      "▁bow": 4727,
      "irm": 4728,
      "wasa": 4729,
      "ulumi": 4730,
      "▁lul": 4731,
      "▁bafu": 4732,
      "ent,": 4733,
      "▁abomin": 4734,
      "▁yekka": 4735,
      "onour": 4736,
      "sekabaka": 4737,
      "▁cost": 4738,
      "biri,": 4739,
      "▁n'ebyo": 4740,
      "▁provided": 4741,
      "▁girls": 4742,
      "tribu": 4743,
      "▁poliisi.\r\n": 4744,
      "▁small": 4745,
      "▁collec": 4746,
      "▁immediat": 4747,
      "▁vessels": 4748,
      "men": 4749,
      "wedde.\r\n": 4750,
      "yimba": 4751,
      "kuuba": 4752,
      "▁gyammwe": 4753,
      "▁ekifaananyi": 4754,
      "▁omukambwe": 4755,
      "▁Nn": 4756,
      "▁emig": 4757,
      "▁bata": 4758,
      "▁batya": 4759,
      "▁fail": 4760,
      "▁omulundi": 4761,
      "▁afflic": 4762,
      "▁kyoto": 4763,
      "▁bakuŋŋa": 4764,
      "▁making": 4765,
      "▁Afric": 4766,
      "▁morning": 4767,
      "▁establish": 4768,
      "▁register": 4769,
      "▁tuna": 4770,
      "kuza": 4771,
      "▁sorrow": 4772,
      "iso": 4773,
      "▁mad": 4774,
      "▁beat": 4775,
      "ar\r\n": 4776,
      "▁Eze": 4777,
      "▁ebyali": 4778,
      "▁asinga": 4779,
      "▁ebibiina": 4780,
      "▁ebibala": 4781,
      "irwa.\r\n": 4782,
      "▁government.\r\n": 4783,
      "▁fathers,": 4784,
      "▁compla": 4785,
      "▁raise": 4786,
      "▁sword,": 4787,
      "ness.\r\n": 4788,
      "▁cerem": 4789,
      "▁witness": 4790,
      "▁ntebe": 4791,
      "gwo": 4792,
      "▁eld": 4793,
      "▁hid": 4794,
      "we.\r\n": 4795,
      "▁Mas": 4796,
      "ve\r\n": 4797,
      "▁ekikol": 4798,
      "ides": 4799,
      "▁ebiragiro": 4800,
      "▁Yon": 4801,
      "▁vir": 4802,
      "▁people:": 4803,
      "▁trump": 4804,
      "▁father's": 4805,
      "▁ekitala": 4806,
      "▁tutya": 4807,
      "▁vineyard": 4808,
      "sy": 4809,
      "▁ille": 4810,
      "▁cal": 4811,
      "▁creat": 4812,
      "▁fu": 4813,
      "▁gosp": 4814,
      "▁okufuga": 4815,
      "aso.\r\n": 4816,
      "ziga": 4817,
      "▁bawala": 4818,
      "▁wait": 4819,
      "vu\r\n": 4820,
      "▁yester": 4821,
      "▁w'aba": 4822,
      "▁ogut": 4823,
      "▁mulongoofu": 4824,
      "▁okwet": 4825,
      "▁kno": 4826,
      "▁common": 4827,
      "▁ab'oluganda": 4828,
      "▁endala": 4829,
      "▁comple": 4830,
      "▁Yerusaalemi.\r\n": 4831,
      "▁consum": 4832,
      "wanika": 4833,
      "▁Essomero": 4834,
      "ds": 4835,
      "ies.\r\n": 4836,
      "ery": 4837,
      "▁cried": 4838,
      "▁pulezidenti": 4839,
      "ziika": 4840,
      "▁net": 4841,
      "imala": 4842,
      "▁ekiseera": 4843,
      "▁omula": 4844,
      "ement": 4845,
      "▁Nor": 4846,
      "▁area": 4847,
      "ekero": 4848,
      "vuganya": 4849,
      "nywa": 4850,
      "▁vali": 4851,
      "▁mangi": 4852,
      "▁zir": 4853,
      "▁att": 4854,
      "▁zaali": 4855,
      "▁kye.\r\n": 4856,
      "fa,": 4857,
      "yingiza": 4858,
      "▁plann": 4859,
      "▁ett": 4860,
      "fiisi": 4861,
      "▁assemb": 4862,
      "▁Government": 4863,
      "▁forest": 4864,
      "▁region": 4865,
      "▁system": 4866,
      "orrh": 4867,
      "ategeera": 4868,
      "▁hope": 4869,
      "▁Students": 4870,
      "abyabufuzi": 4871,
      "break": 4872,
      "zing": 4873,
      "▁omwe": 4874,
      "▁ntu": 4875,
      "▁nak": 4876,
      "ini.\r\n": 4877,
      "▁wine": 4878,
      "wam": 4879,
      "▁okukkiriza": 4880,
      "▁pun": 4881,
      "▁n'emp": 4882,
      "imirira": 4883,
      "▁Ed": 4884,
      "ana\r\n": 4885,
      "umwa": 4886,
      "▁forgi": 4887,
      "▁kiba": 4888,
      "▁naye,": 4889,
      "erous": 4890,
      "▁bonna,": 4891,
      "▁multip": 4892,
      "akamaze": 4893,
      "▁afraid": 4894,
      "▁okugoberera": 4895,
      "▁perf": 4896,
      "▁income": 4897,
      "▁appear": 4898,
      "▁kulonda": 4899,
      "▁death.\r\n": 4900,
      "▁captiv": 4901,
      "▁Levites": 4902,
      "▁football": 4903,
      "▁Ezech": 4904,
      "lict": 4905,
      "’e": 4906,
      "▁ign": 4907,
      "▁akola": 4908,
      "▁mb": 4909,
      "▁hol": 4910,
      "▁fish": 4911,
      "▁got": 4912,
      "▁okuta": 4913,
      "unn": 4914,
      "irii": 4915,
      "▁n'akola": 4916,
      "gambe": 4917,
      "abadde": 4918,
      "▁vari": 4919,
      "▁wors": 4920,
      "▁y'omu": 4921,
      "▁hearing": 4922,
      "▁n'okus": 4923,
      "▁n'ekitundu": 4924,
      "▁Isaaka": 4925,
      "wandu": 4926,
      "▁nguudo": 4927,
      "▁Keezee": 4928,
      "Om": 4929,
      "juba": 4930,
      "ved.\r\n": 4931,
      "▁ast": 4932,
      "▁each": 4933,
      "▁wi": 4934,
      "isobola": 4935,
      "▁muwendo": 4936,
      "▁hill": 4937,
      "▁Kye": 4938,
      "oofiisi": 4939,
      "▁one,": 4940,
      "▁yaku": 4941,
      "▁Peter": 4942,
      "ter\r\n": 4943,
      "▁valle": 4944,
      "▁zino": 4945,
      "▁Dd": 4946,
      "▁olw'ebi": 4947,
      "amu.\r\n": 4948,
      "▁doing": 4949,
      "▁say,": 4950,
      "▁gwe,": 4951,
      "▁ensure": 4952,
      "▁times": 4953,
      "▁Ebitongole": 4954,
      "▁water.\r\n": 4955,
      "▁destruc": 4956,
      "▁sin,": 4957,
      "▁prophets": 4958,
      "▁ebisinga": 4959,
      "▁rising": 4960,
      "▁Weewaawo,": 4961,
      "▁indeed": 4962,
      "bus": 4963,
      "yava": 4964,
      "▁fled": 4965,
      "olola": 4966,
      "emyaka": 4967,
      "oose": 4968,
      "taagisa": 4969,
      "▁obuweereza": 4970,
      "▁chos": 4971,
      "vaako": 4972,
      "ted.\r\n": 4973,
      "ential": 4974,
      "▁okweyongera": 4975,
      "▁working": 4976,
      "▁ennyo.\r\n": 4977,
      "▁immun": 4978,
      "▁others": 4979,
      "▁ekyoto": 4980,
      "▁therefore,": 4981,
      "▁hosts": 4982,
      "▁paid": 4983,
      "▁ancients": 4984,
      "▁Sayu": 4985,
      "▁eky'obutta": 4986,
      "▁Samari": 4987,
      "▁bakitaabwe": 4988,
      "d,": 4989,
      "iya": 4990,
      "▁tuk": 4991,
      "hes,": 4992,
      "en\r\n": 4993,
      "▁mess": 4994,
      "▁pe": 4995,
      "▁neg": 4996,
      "eri.\r\n": 4997,
      "ebitundu": 4998,
      "▁ng'ama": 4999,
      "▁vain": 5000,
      "▁spec": 5001,
      "▁ekibi": 5002,
      "▁separ": 5003,
      "▁seventh": 5004,
      "▁byonna.\r\n": 5005,
      "▁eyes,": 5006,
      "▁esc": 5007,
      "▁quar": 5008,
      "▁hospitals": 5009,
      "▁flood": 5010,
      "▁established": 5011,
      "▁cubits": 5012,
      "▁possession": 5013,
      "ebbulooni": 5014,
      "lu": 5015,
      "pro": 5016,
      "▁ur": 5017,
      "▁yi": 5018,
      "kasi": 5019,
      "▁mwan": 5020,
      "▁past": 5021,
      "▁inn": 5022,
      "▁enzi": 5023,
      "▁forn": 5024,
      "▁abakulembeze": 5025,
      "▁ebbanga": 5026,
      "▁ng'ebi": 5027,
      "▁thou,": 5028,
      "▁obungi": 5029,
      "▁govern": 5030,
      "▁dost": 5031,
      "tric": 5032,
      "iriraanye": 5033,
      "▁sev": 5034,
      "▁kabaka.\r\n": 5035,
      "kungaana": 5036,
      "ŋŋam": 5037,
      "▁pover": 5038,
      "▁omusolo": 5039,
      "▁okwes": 5040,
      "▁holocaus": 5041,
      "wasuli": 5042,
      "fugee": 5043,
      "ologoma": 5044,
      "▁Jeremias": 5045,
      "▁financial": 5046,
      "go.\r\n": 5047,
      "ved,": 5048,
      "wung": 5049,
      "▁babeera": 5050,
      "ire,": 5051,
      "▁kyogera": 5052,
      "omwana": 5053,
      "amal": 5054,
      "▁ann": 5055,
      "▁distribu": 5056,
      "▁Omutukuvu": 5057,
      "ise\r\n": 5058,
      "▁ey'obu": 5059,
      "▁akabonero": 5060,
      "▁words,": 5061,
      "▁n'omukono": 5062,
      "asaani": 5063,
      "▁failed": 5064,
      "▁time,": 5065,
      "▁result": 5066,
      "▁edda": 5067,
      "wonya": 5068,
      "▁Abalwadde": 5069,
      "embe,": 5070,
      "▁report": 5071,
      "ble\r\n": 5072,
      "▁yonna.\r\n": 5073,
      "▁bakubirizibwa": 5074,
      "▁increased": 5075,
      "▁building": 5076,
      "▁Wherefore": 5077,
      "▁stret": 5078,
      "▁nze,": 5079,
      "▁Yekoya": 5080,
      "iggya": 5081,
      "▁Kitange": 5082,
      "▁Ssentebe": 5083,
      "omwezi": 5084,
      "oye": 5085,
      "wona": 5086,
      "▁ut": 5087,
      "ene,": 5088,
      "▁mikono": 5089,
      "ors.\r\n": 5090,
      "▁okuweebwa": 5091,
      "ary,": 5092,
      "▁Muk": 5093,
      "▁bwe.\r\n": 5094,
      "▁yalaba": 5095,
      "ments": 5096,
      "▁days,": 5097,
      "▁hearken": 5098,
      "▁nsi.\r\n": 5099,
      "▁gy'oli": 5100,
      "▁Ebola": 5101,
      "▁baliba": 5102,
      "suub": 5103,
      "▁law,": 5104,
      "▁name,": 5105,
      "▁thereof.\r\n": 5106,
      "obulimba": 5107,
      "▁opportun": 5108,
      "▁desert": 5109,
      "▁unclean": 5110,
      "▁skills": 5111,
      "▁Yoludaani": 5112,
      "▁band": 5113,
      "▁sought": 5114,
      "▁wid": 5115,
      "▁kwali": 5116,
      "▁Are": 5117,
      "▁Ali": 5118,
      "or,": 5119,
      "▁okuyingira": 5120,
      "▁bamala": 5121,
      "▁Mut": 5122,
      "▁enjo": 5123,
      "▁Bal": 5124,
      "▁reward": 5125,
      "▁emiga": 5126,
      "▁embaga": 5127,
      "zezza": 5128,
      "▁With": 5129,
      "ath,": 5130,
      "▁profit": 5131,
      "anyulwa": 5132,
      "ached": 5133,
      "▁also,": 5134,
      "▁b'em": 5135,
      "▁kyalo": 5136,
      "▁move": 5137,
      "▁bank": 5138,
      "asaana": 5139,
      "▁anaabanga": 5140,
      "ence\r\n": 5141,
      "▁club": 5142,
      "yonjo.\r\n": 5143,
      "▁life,": 5144,
      "able.\r\n": 5145,
      "▁obusika": 5146,
      "▁nations,": 5147,
      "▁Behold,": 5148,
      "▁promised": 5149,
      "icians": 5150,
      "gulumivu": 5151,
      "▁pass,": 5152,
      "▁challenges": 5153,
      "▁fulfill": 5154,
      "land": 5155,
      "wonoona": 5156,
      "erc": 5157,
      "in,": 5158,
      "ini,": 5159,
      "▁led": 5160,
      "▁lub": 5161,
      "▁n'alaba": 5162,
      "▁in,": 5163,
      "buka.\r\n": 5164,
      "▁Bi": 5165,
      "▁abag": 5166,
      "▁hair": 5167,
      "aniya": 5168,
      "awanga": 5169,
      "iro,": 5170,
      "▁whether": 5171,
      "kulira": 5172,
      "oth,": 5173,
      "ance,": 5174,
      "▁deli": 5175,
      "oboam": 5176,
      "iruyi": 5177,
      "▁walked": 5178,
      "fugees": 5179,
      "▁captain": 5180,
      "▁girl": 5181,
      "▁omutwe": 5182,
      "▁Refugees": 5183,
      "▁valiant": 5184,
      "hood": 5185,
      "▁bri": 5186,
      "▁ele": 5187,
      "ga\r\n": 5188,
      "▁guno": 5189,
      "▁kukolebwa": 5190,
      "za\r\n": 5191,
      "kosa": 5192,
      "▁Sal": 5193,
      "vers": 5194,
      "ekyo": 5195,
      "▁him.": 5196,
      "▁Jud": 5197,
      "▁stone": 5198,
      "▁mag": 5199,
      "▁zirina": 5200,
      "▁nnimiro": 5201,
      "▁ky'oku": 5202,
      "kkirizibwa": 5203,
      "▁omulungi": 5204,
      "able\r\n": 5205,
      "ards": 5206,
      "obulenzi": 5207,
      "▁effeeza": 5208,
      "▁dead,": 5209,
      "gomba": 5210,
      "▁silver,": 5211,
      "▁ebirowoozo": 5212,
      "▁Ugandans": 5213,
      "eeberezebwa": 5214,
      "bel": 5215,
      "hol": 5216,
      "mbe": 5217,
      "twala": 5218,
      "▁bo.\r\n": 5219,
      "▁nzi": 5220,
      "▁s.": 5221,
      "▁sold": 5222,
      "▁circumc": 5223,
      "▁n'ess": 5224,
      "iraba": 5225,
      "umira": 5226,
      "▁Bar": 5227,
      "ad.\r\n": 5228,
      "yima": 5229,
      "saawo": 5230,
      "ikka": 5231,
      "▁not:": 5232,
      "ekika": 5233,
      "ode": 5234,
      "▁bw'ot": 5235,
      "▁myself": 5236,
      "▁ekimu": 5237,
      "▁Isiraeri:": 5238,
      "tion,": 5239,
      "▁okulwanyisa": 5240,
      "bulamu.\r\n": 5241,
      "▁by'obu": 5242,
      "▁feast": 5243,
      "▁omulala": 5244,
      "▁compani": 5245,
      "▁Emp": 5246,
      "▁Ekitundu": 5247,
      "▁okwonoona": 5248,
      "▁diseases": 5249,
      "▁okwagala": 5250,
      "▁social": 5251,
      "work": 5252,
      "ked": 5253,
      "kale": 5254,
      "wuu": 5255,
      "zesa": 5256,
      "▁eggulu": 5257,
      "wagala": 5258,
      "▁kal": 5259,
      "▁today.\r\n": 5260,
      "▁okuz": 5261,
      "▁lie": 5262,
      "▁da": 5263,
      "▁n'okwe": 5264,
      "▁enk": 5265,
      "▁ekye": 5266,
      "▁Kam": 5267,
      "▁Kiki": 5268,
      "▁Singa": 5269,
      "gizi": 5270,
      "▁people's": 5271,
      "▁kyabwe": 5272,
      "▁hand.\r\n": 5273,
      "faayo": 5274,
      "▁ky'omu": 5275,
      "▁Baal": 5276,
      "▁fire,": 5277,
      "▁priest,": 5278,
      "ukiika": 5279,
      "▁place.\r\n": 5280,
      "▁ggulu,": 5281,
      "▁buried": 5282,
      "▁sekeri": 5283,
      "yond": 5284,
      "▁ttiimu": 5285,
      "▁bukiika": 5286,
      "▁eggye": 5287,
      "▁mob": 5288,
      "▁mmeka": 5289,
      "▁ge,": 5290,
      "▁grie": 5291,
      "▁pow": 5292,
      "▁inj": 5293,
      "abat": 5294,
      "▁engoye": 5295,
      "▁ekif": 5296,
      "▁abaa": 5297,
      "▁Yee": 5298,
      "chn": 5299,
      "ant\r\n": 5300,
      "▁sports": 5301,
      "▁Omul": 5302,
      "▁Omusajja": 5303,
      "▁ezo": 5304,
      "▁gw'omu": 5305,
      "▁scatter": 5306,
      "▁provok": 5307,
      "▁pursu": 5308,
      "▁covered": 5309,
      "▁ready": 5310,
      "▁causes": 5311,
      "fulumya": 5312,
      "▁Benyamini": 5313,
      "▁Youths": 5314,
      "▁account": 5315,
      "Abal": 5316,
      "ey": 5317,
      "udde": 5318,
      "umul": 5319,
      "anta": 5320,
      "▁bwali": 5321,
      "▁bange,": 5322,
      "als.\r\n": 5323,
      "on:": 5324,
      "gab": 5325,
      "gaba": 5326,
      "▁gwali": 5327,
      "imanya": 5328,
      "iriddwa": 5329,
      "▁Or": 5330,
      "ified": 5331,
      "▁saving": 5332,
      "▁ki?": 5333,
      "▁zange": 5334,
      "teen": 5335,
      "anyufu": 5336,
      "▁kitabo": 5337,
      "annya": 5338,
      "oni.\r\n": 5339,
      "▁exc": 5340,
      "ereza.\r\n": 5341,
      "▁nsimbi": 5342,
      "fiirwa": 5343,
      "▁appro": 5344,
      "▁yeeba": 5345,
      "yimiridde": 5346,
      "▁indign": 5347,
      "▁ebitali": 5348,
      "▁Kristo,": 5349,
      "▁remo": 5350,
      "▁prac": 5351,
      "▁n'ayita": 5352,
      "▁areas.\r\n": 5353,
      "▁human": 5354,
      "▁flee": 5355,
      "benje": 5356,
      "▁Keezeekiya": 5357,
      "??": 5358,
      "misiri": 5359,
      "vation": 5360,
      "ves.\r\n": 5361,
      "erali": 5362,
      "▁self": 5363,
      "▁fr": 5364,
      "▁fav": 5365,
      "▁okutegeera": 5366,
      "▁n'atuma": 5367,
      "ma\r\n": 5368,
      "tice": 5369,
      "amasa": 5370,
      "icles": 5371,
      "▁abangi": 5372,
      "▁Bwasuli": 5373,
      "▁abaas": 5374,
      "▁abakozi": 5375,
      "▁ebye": 5376,
      "ondebwa": 5377,
      "▁kyen": 5378,
      "abuulira": 5379,
      "▁trust": 5380,
      "ence.\r\n": 5381,
      "▁north": 5382,
      "▁class": 5383,
      "▁Jesus,": 5384,
      "▁n'emirembe": 5385,
      "▁quick": 5386,
      "usiisira": 5387,
      "▁n'olu": 5388,
      "▁bulungi.\r\n": 5389,
      "▁ebirala": 5390,
      "▁faithful": 5391,
      "isinkana": 5392,
      "▁enemies": 5393,
      "▁olulituuka": 5394,
      "▁information": 5395,
      "inziira": 5396,
      "▁angry": 5397,
      "▁Education": 5398,
      "▁messeng": 5399,
      "▁delivery": 5400,
      "host": 5401,
      "yonoon": 5402,
      "▁ri": 5403,
      "▁tas": 5404,
      "anzi": 5405,
      "▁bon": 5406,
      "it\r\n": 5407,
      "▁cry": 5408,
      "▁galina": 5409,
      "▁lim": 5410,
      "▁lut": 5411,
      "▁driver": 5412,
      "une": 5413,
      "▁Bama": 5414,
      "▁abakungu": 5415,
      "jjukira": 5416,
      "beere": 5417,
      "aba.\r\n": 5418,
      "▁prof": 5419,
      "▁naye.\r\n": 5420,
      "endagaano": 5421,
      "tion\r\n": 5422,
      "▁ext": 5423,
      "zimbira": 5424,
      "▁rob": 5425,
      "▁Ro": 5426,
      "komawo": 5427,
      "▁abalabe": 5428,
      "ine\r\n": 5429,
      "▁firstborn": 5430,
      "iness.\r\n": 5431,
      "▁charge": 5432,
      "kuŋŋaan": 5433,
      "jjanjab": 5434,
      "▁involved": 5435,
      "▁dream": 5436,
      "▁vacc": 5437,
      "▁immediately": 5438,
      "▁trumpet": 5439,
      "kuusa": 5440,
      "alomu": 5441,
      "▁weep": 5442,
      "enze": 5443,
      "▁mumu": 5444,
      "▁pen": 5445,
      "▁beyond": 5446,
      "imi.\r\n": 5447,
      "▁ship": 5448,
      "room": 5449,
      "▁refugee": 5450,
      "▁alloc": 5451,
      "oss": 5452,
      "▁Pulezidenti": 5453,
      "est,": 5454,
      "▁batera": 5455,
      "werali": 5456,
      "▁committ": 5457,
      "▁Res": 5458,
      "▁drun": 5459,
      "▁wife,": 5460,
      "▁ever.\r\n": 5461,
      "▁merc": 5462,
      "▁Polit": 5463,
      "▁kutumbula": 5464,
      "yongedde": 5465,
      "indika": 5466,
      "▁Yonasaani": 5467,
      "▁escap": 5468,
      "con": 5469,
      "een": 5470,
      "last": 5471,
      "tali": 5472,
      "▁eta": 5473,
      "▁honour": 5474,
      "yoo": 5475,
      "zaala.\r\n": 5476,
      "▁Ta": 5477,
      "umiriza": 5478,
      "ebera": 5479,
      "▁Abafirisuuti": 5480,
      "▁ric": 5481,
      "▁weak": 5482,
      "▁erya": 5483,
      "▁her.\r\n": 5484,
      "▁things.\r\n": 5485,
      "▁exam": 5486,
      "▁exec": 5487,
      "▁ensalo": 5488,
      "▁empya": 5489,
      "▁strange": 5490,
      "▁law.\r\n": 5491,
      "▁heads": 5492,
      "▁quality": 5493,
      "▁thence": 5494,
      "esezza": 5495,
      "▁electric": 5496,
      "▁project.\r\n": 5497,
      "taago": 5498,
      "▁throne": 5499,
      "▁wiiki": 5500,
      "mira": 5501,
      "obwakabaka": 5502,
      "po": 5503,
      "pul": 5504,
      "▁tus": 5505,
      "▁tem": 5506,
      "▁woofiisi": 5507,
      "ising": 5508,
      "▁often": 5509,
      "▁less": 5510,
      "▁bafuna": 5511,
      "▁Ko": 5512,
      "▁St": 5513,
      "ereki": 5514,
      "▁abaami": 5515,
      "▁Abakozi": 5516,
      "▁change": 5517,
      "▁Abusa": 5518,
      "▁atali": 5519,
      "▁CO": 5520,
      "amaaso": 5521,
      "▁y'obu": 5522,
      "▁okulonda": 5523,
      "▁gw'endiga": 5524,
      "▁ddwaliro": 5525,
      "▁parts": 5526,
      "▁blind": 5527,
      "ustom": 5528,
      "▁baabwe,": 5529,
      "▁Jerusalem:": 5530,
      "kulaakulanya": 5531,
      "▁Bannabyabufuzi": 5532,
      "▁sweet": 5533,
      "▁Ugandan": 5534,
      "▁budget": 5535,
      "▁Jonathan": 5536,
      "kuubagano": 5537,
      "▁gospel": 5538,
      "▁utter": 5539,
      "▁Abusaalomu": 5540,
      "▁tug": 5541,
      "▁taught": 5542,
      "▁sure": 5543,
      "▁wala": 5544,
      "yawo": 5545,
      "▁Ag": 5546,
      "▁Aga": 5547,
      "▁okuyita": 5548,
      "▁liri": 5549,
      "▁belo": 5550,
      "▁bava": 5551,
      "▁Mug": 5552,
      "▁abakyala": 5553,
      "eriod": 5554,
      "ract": 5555,
      "▁ng'ol": 5556,
      "▁stra": 5557,
      "▁step": 5558,
      "▁level": 5559,
      "▁press": 5560,
      "▁preach": 5561,
      "▁gwe.\r\n": 5562,
      "aps": 5563,
      "▁kwammwe": 5564,
      "komera": 5565,
      "▁abalimi": 5566,
      "ance\r\n": 5567,
      "▁wherewith": 5568,
      "eared": 5569,
      "▁okuwaayo": 5570,
      "▁decla": 5571,
      "▁strengthen": 5572,
      "amateeka.\r\n": 5573,
      "uubiza": 5574,
      "ID": 5575,
      "fal": 5576,
      "ges": 5577,
      "gulu": 5578,
      "ial": 5579,
      "my": 5580,
      "pher": 5581,
      "pya.\r\n": 5582,
      "▁balaba": 5583,
      "▁bwereere": 5584,
      "▁mwoyo": 5585,
      "▁muti": 5586,
      "▁too": 5587,
      "▁okuweereza": 5588,
      "▁low": 5589,
      "▁kubaawo": 5590,
      "ability": 5591,
      "▁Mmwe": 5592,
      "▁show": 5593,
      "▁Es": 5594,
      "ekitiibwa": 5595,
      "▁ng'eki": 5596,
      "▁okusoma": 5597,
      "ace,": 5598,
      "▁party": 5599,
      "▁n'omuliro": 5600,
      "▁breast": 5601,
      "▁others.\r\n": 5602,
      "ansi.\r\n": 5603,
      "▁Abaleevi": 5604,
      "▁death,": 5605,
      "▁everlast": 5606,
      "▁Babylon,": 5607,
      "▁N'abagamba": 5608,
      "▁Ephraim": 5609,
      "▁Spirit": 5610,
      "▁n'eddoboozi": 5611,
      "wungee": 5612,
      "jee": 5613,
      "kka.\r\n": 5614,
      "▁bik": 5615,
      "▁nkomerero": 5616,
      "▁ayagala": 5617,
      "iss": 5618,
      "▁kuwa": 5619,
      "amwandu": 5620,
      "ently": 5621,
      "▁wabaawo": 5622,
      "abas": 5623,
      "▁yeetaaga": 5624,
      "▁ng'em": 5625,
      "▁ebiweebwayo": 5626,
      "▁projects": 5627,
      "▁Con": 5628,
      "▁Ent": 5629,
      "▁zijja": 5630,
      "▁servants,": 5631,
      "aries": 5632,
      "▁names": 5633,
      "▁essanduuko": 5634,
      "zannyi": 5635,
      "▁N'agamba": 5636,
      "▁entered": 5637,
      "▁beasts": 5638,
      "▁kumpi": 5639,
      "▁issues": 5640,
      "▁omwami": 5641,
      "▁beginning": 5642,
      "▁Yokaana": 5643,
      "VID": 5644,
      "a:": 5645,
      "▁talina": 5646,
      "anisa": 5647,
      "▁owa": 5648,
      "ated.\r\n": 5649,
      "kaay": 5650,
      "▁hig": 5651,
      "▁toil": 5652,
      "▁period": 5653,
      "imwa": 5654,
      "alag": 5655,
      "otor": 5656,
      "iding": 5657,
      "▁alone": 5658,
      "▁Nd": 5659,
      "▁kaabu": 5660,
      "▁kiwonvu": 5661,
      "▁bw'at": 5662,
      "▁bibiina": 5663,
      "wala.\r\n": 5664,
      "▁ssatu": 5665,
      "▁bwabwe.\r\n": 5666,
      "biri.\r\n": 5667,
      "▁gw'ens": 5668,
      "▁accomp": 5669,
      "▁employ": 5670,
      "▁watch": 5671,
      "bulwa": 5672,
      "▁giving": 5673,
      "zikirira": 5674,
      "▁answering,": 5675,
      "▁Joab": 5676,
      "▁kitaawo": 5677,
      "▁Isaac": 5678,
      "▁respect": 5679,
      "▁flesh,": 5680,
      "kuŋŋaanya": 5681,
      "▁Egypti": 5682,
      "▁general": 5683,
      "▁street": 5684,
      "▁former": 5685,
      "yogerera": 5686,
      "utiful": 5687,
      "gezaako": 5688,
      "▁COVID": 5689,
      "..\r\n": 5690,
      "k\r\n": 5691,
      "motoka": 5692,
      "▁occ": 5693,
      "▁buna": 5694,
      "▁aleme": 5695,
      "kusa": 5696,
      "▁horn": 5697,
      "▁guna": 5698,
      "▁okuwulira": 5699,
      "▁luk": 5700,
      "ingi,": 5701,
      "omi": 5702,
      "▁baayo": 5703,
      "▁sho": 5704,
      "▁enguudo": 5705,
      "▁Nabu": 5706,
      "▁abakadde": 5707,
      "▁emitala": 5708,
      "▁Abawala": 5709,
      "isaayo": 5710,
      "▁zammwe": 5711,
      "yambuka": 5712,
      "▁became": 5713,
      "ck\r\n": 5714,
      "rise,": 5715,
      "▁Ensi": 5716,
      "▁loved": 5717,
      "▁strike": 5718,
      "▁tebali": 5719,
      "▁appeared": 5720,
      "▁water,": 5721,
      "okusatu": 5722,
      "▁gird": 5723,
      "▁ensimbi.\r\n": 5724,
      "▁n'agolokoka": 5725,
      "▁home.\r\n": 5726,
      "kulembera": 5727,
      "onjoola": 5728,
      "▁bombi": 5729,
      "ches": 5730,
      "u.\r\n": 5731,
      "▁ill": 5732,
      "ankana": 5733,
      "hes.\r\n": 5734,
      "▁air": 5735,
      "ator": 5736,
      "ena": 5737,
      "kasa": 5738,
      "▁fal": 5739,
      "▁giri": 5740,
      "▁go.\r\n": 5741,
      "▁lat": 5742,
      "▁den": 5743,
      "▁deb": 5744,
      "▁n'ayingira": 5745,
      "abul": 5746,
      "aring": 5747,
      "▁Ekk": 5748,
      "▁Bo": 5749,
      "▁Ndi": 5750,
      "▁Yak": 5751,
      "ekit": 5752,
      "▁obuba": 5753,
      "▁ng'ali": 5754,
      "go,": 5755,
      "▁bulijjo.\r\n": 5756,
      "▁bwakabaka": 5757,
      "▁okulongoosa": 5758,
      "▁Enguudo": 5759,
      "▁guid": 5760,
      "emizabbibu": 5761,
      "▁appre": 5762,
      "▁treasure": 5763,
      "▁another.\r\n": 5764,
      "▁promote": 5765,
      "▁training": 5766,
      "kutte": 5767,
      "gwanjuba": 5768,
      "▁perfect": 5769,
      "▁ignor": 5770,
      "▁yield": 5771,
      "ging": 5772,
      "zenga": 5773,
      "▁ŋŋ": 5774,
      "oned": 5775,
      "ission": 5776,
      "▁mir": 5777,
      "▁okuggya": 5778,
      "▁lukiiko": 5779,
      "▁dom": 5780,
      "ziba": 5781,
      "▁beget": 5782,
      "buuka": 5783,
      "ot\r\n": 5784,
      "yiga": 5785,
      "race": 5786,
      "▁whosoever": 5787,
      "ition.\r\n": 5788,
      "fu,": 5789,
      "▁Absal": 5790,
      "▁nnya": 5791,
      "▁From": 5792,
      "▁Isiraeri;": 5793,
      "ensonga": 5794,
      "▁Yerobo": 5795,
      "▁priests,": 5796,
      "▁ekitali": 5797,
      "▁Olina": 5798,
      "▁students.\r\n": 5799,
      "▁obw'omu": 5800,
      "▁transg": 5801,
      "▁equip": 5802,
      "▁Oluvannyuma": 5803,
      "▁authority": 5804,
      "▁illegal": 5805,
      "▁Ezechias": 5806,
      "▁Absalom": 5807,
      "▁Yerobowaamu": 5808,
      "be,": 5809,
      "▁bed": 5810,
      "ise,": 5811,
      "▁pain": 5812,
      "omera": 5813,
      "mary": 5814,
      "▁Mes": 5815,
      "eev": 5816,
      "▁Kobo": 5817,
      "▁Bless": 5818,
      "▁Not": 5819,
      "▁rele": 5820,
      "▁Gaba": 5821,
      "gi,": 5822,
      "▁wast": 5823,
      "▁Abat": 5824,
      "▁techn": 5825,
      "▁obuli": 5826,
      "▁obwen": 5827,
      "▁Omukulu": 5828,
      "▁N'oku": 5829,
      "▁bonna.\r\n": 5830,
      "▁okutuukiriza": 5831,
      "▁n'omutima": 5832,
      "▁schools.\r\n": 5833,
      "▁leaders.\r\n": 5834,
      "bulimi": 5835,
      "▁delay": 5836,
      "▁wound": 5837,
      "▁raised": 5838,
      "bonya": 5839,
      "▁Ebibiina": 5840,
      "▁mothers": 5841,
      "buuzo": 5842,
      "▁devour": 5843,
      "▁draw": 5844,
      "ekemu": 5845,
      "▁Gentiles": 5846,
      "▁ir": 5847,
      "ern": 5848,
      "gas": 5849,
      "wa\r\n": 5850,
      "▁hang": 5851,
      "esiga": 5852,
      "▁okuzu": 5853,
      "zaali": 5854,
      "imenya": 5855,
      "eeyi": 5856,
      "▁omulamu": 5857,
      "gi.\r\n": 5858,
      "opul": 5859,
      "fuufu": 5860,
      "▁ng'alina": 5861,
      "▁bw'en": 5862,
      "▁obl": 5863,
      "liament": 5864,
      "▁eziri": 5865,
      "▁office": 5866,
      "thern": 5867,
      "▁rose": 5868,
      "▁olubuto": 5869,
      "▁seem": 5870,
      "▁sins": 5871,
      "▁opened": 5872,
      "▁Manase": 5873,
      "▁guno.\r\n": 5874,
      "▁Esawu": 5875,
      "mulugunya": 5876,
      "▁beautiful": 5877,
      "▁sensitized": 5878,
      "▁mwenna": 5879,
      "▁n'akatono": 5880,
      "ts.\r\n": 5881,
      "▁:\r\n": 5882,
      "▁bum": 5883,
      "erve": 5884,
      "▁avail": 5885,
      "▁w’e": 5886,
      "atera": 5887,
      "▁mulamu": 5888,
      "▁n'et": 5889,
      "▁baak": 5890,
      "iraanwa": 5891,
      "uty": 5892,
      "ambo": 5893,
      "▁ekirungi": 5894,
      "▁School": 5895,
      "si.\r\n": 5896,
      "beerenga": 5897,
      "▁embalaasi": 5898,
      "eben": 5899,
      "▁bw'em": 5900,
      "▁bw'onoo": 5901,
      "▁obser": 5902,
      "▁eruuyi": 5903,
      "▁worth": 5904,
      "▁kye,": 5905,
      "▁yourselves": 5906,
      "▁nsiko": 5907,
      "▁okutta": 5908,
      "eddwa.\r\n": 5909,
      "▁years,": 5910,
      "▁ez'enjawulo": 5911,
      "▁compet": 5912,
      "▁scar": 5913,
      "▁mighty": 5914,
      "tabaaza": 5915,
      "▁himself,": 5916,
      "▁okusaba": 5917,
      "▁refugees.\r\n": 5918,
      "▁borders": 5919,
      "▁Chanaan": 5920,
      "▁Bamaama": 5921,
      "ring": 5922,
      "umu": 5923,
      "wom": 5924,
      "▁ttaano": 5925,
      "an\r\n": 5926,
      "▁ought": 5927,
      "irya": 5928,
      "ise.\r\n": 5929,
      "▁mingi": 5930,
      "▁murd": 5931,
      "▁Ada": 5932,
      "▁fig": 5933,
      "▁gut": 5934,
      "▁kuzimba": 5935,
      "▁bakozesa": 5936,
      "ety": 5937,
      "▁ebira": 5938,
      "jjula": 5939,
      "▁embuto": 5940,
      "▁allowed": 5941,
      "▁obubaka": 5942,
      "▁chang": 5943,
      "ukka": 5944,
      "isa,": 5945,
      "isizza": 5946,
      "▁king:": 5947,
      "▁kitange": 5948,
      "▁unc": 5949,
      "▁byakyo": 5950,
      "▁rock": 5951,
      "▁empeera": 5952,
      "ensi.\r\n": 5953,
      "▁lukumi": 5954,
      "itege": 5955,
      "Abafirisuuti": 5956,
      "▁okwol": 5957,
      "▁ery'omu": 5958,
      "▁fighting": 5959,
      "▁devil": 5960,
      "ambuliranga": 5961,
      "abanguko": 5962,
      "falisaayo": 5963,
      "ia,": 5964,
      "ned": 5965,
      "wanyi": 5966,
      "heth": 5967,
      "gard": 5968,
      "▁okuwe": 5969,
      "▁okubi": 5970,
      "oll": 5971,
      "untu": 5972,
      "▁Edom": 5973,
      "umibwa": 5974,
      "▁Bet": 5975,
      "▁Sid": 5976,
      "▁Lib": 5977,
      "jjuki": 5978,
      "saasira": 5979,
      "bega": 5980,
      "▁Gireya": 5981,
      "▁themsel": 5982,
      "▁conce": 5983,
      "se\r\n": 5984,
      "▁baleme": 5985,
      "▁outbreak": 5986,
      "amazima": 5987,
      "▁away.\r\n": 5988,
      "cked": 5989,
      "▁Eng": 5990,
      "▁ab'amaanyi": 5991,
      "▁kw'omu": 5992,
      "▁abatalina": 5993,
      "▁obutonde": 5994,
      "▁esatu": 5995,
      "▁another,": 5996,
      "▁tribes": 5997,
      "▁voice,": 5998,
      "anoonyiboobubudamu.\r\n": 5999,
      "▁infec": 6000,
      "▁burd": 6001,
      "▁patients": 6002,
      "▁responsible": 6003,
      "▁sanctified": 6004,
      "▁control": 6005,
      "▁spoil": 6006,
      "▁Ekkanisa": 6007,
      "here": 6008,
      "▁eas": 6009,
      "▁miti": 6010,
      "▁musaayi": 6011,
      "▁case": 6012,
      "▁fought": 6013,
      "▁n'obul": 6014,
      "olebwa": 6015,
      "ilee": 6016,
      "lement": 6017,
      "▁See": 6018,
      "▁Sod": 6019,
      "▁recover": 6020,
      "taavu": 6021,
      "▁waaliwo": 6022,
      "▁there,": 6023,
      "soomoo": 6024,
      "▁Ca": 6025,
      "umba.\r\n": 6026,
      "eeke": 6027,
      "▁word,": 6028,
      "▁kw'aba": 6029,
      "▁priv": 6030,
      "▁desire": 6031,
      "▁nteekateeka": 6032,
      "▁ery'oku": 6033,
      "▁engalo": 6034,
      "▁farming": 6035,
      "edia": 6036,
      "▁looked": 6037,
      "▁night.\r\n": 6038,
      "▁malwaliro": 6039,
      "▁Everyone": 6040,
      "ddukanya": 6041,
      "▁joined": 6042,
      "▁Christians": 6043,
      "▁wives": 6044,
      "▁Northern": 6045,
      "▁valley": 6046,
      "▁seventy": 6047,
      "fruit": 6048,
      "tya": 6049,
      "u,": 6050,
      "▁sim": 6051,
      "one.\r\n": 6052,
      "at,": 6053,
      "▁mw'": 6054,
      "▁katonda": 6055,
      "▁Ah": 6056,
      "▁okugg": 6057,
      "▁pulogulaamu": 6058,
      "▁instruc": 6059,
      "▁baz": 6060,
      "buto.\r\n": 6061,
      "uted": 6062,
      "▁Kkampuni": 6063,
      "▁abund": 6064,
      "umb": 6065,
      "▁Oyo": 6066,
      "▁Loc": 6067,
      "▁abaab": 6068,
      "ina.\r\n": 6069,
      "beeranga": 6070,
      "▁Give": 6071,
      "▁them.": 6072,
      "uliddwa": 6073,
      "▁stri": 6074,
      "▁gard": 6075,
      "▁man.\r\n": 6076,
      "▁manif": 6077,
      "▁okusala": 6078,
      "▁kyava": 6079,
      "ologi": 6080,
      "ted,": 6081,
      "uma.\r\n": 6082,
      "▁nnyo,": 6083,
      "▁End": 6084,
      "▁Chal": 6085,
      "▁z'omu": 6086,
      "kyawa": 6087,
      "kka,": 6088,
      "▁Dawudi,": 6089,
      "kula.\r\n": 6090,
      "▁n'enny": 6091,
      "▁face,": 6092,
      "▁Akabu": 6093,
      "▁Minisita": 6094,
      "▁Ministry": 6095,
      "▁temple,": 6096,
      "▁world,": 6097,
      "▁Egypt.\r\n": 6098,
      "▁environment.\r\n": 6099,
      "▁continu": 6100,
      "▁ow'eggye": 6101,
      "▁citiz": 6102,
      "▁omwezi": 6103,
      "▁peace,": 6104,
      "bisi": 6105,
      "ffu": 6106,
      "haps": 6107,
      "manya": 6108,
      "s.": 6109,
      "▁torr": 6110,
      "▁nkwegayiridde,": 6111,
      "andik": 6112,
      "▁hur": 6113,
      "yo;": 6114,
      "▁okuki": 6115,
      "▁loo": 6116,
      "▁lip": 6117,
      "▁pot": 6118,
      "▁baffe": 6119,
      "ddirira": 6120,
      "▁Mul": 6121,
      "irivu": 6122,
      "beerera": 6123,
      "ekkanisa": 6124,
      "ebwe": 6125,
      "▁balya": 6126,
      "ulokozi": 6127,
      "▁y'aba": 6128,
      "▁Hear": 6129,
      "kolim": 6130,
      "▁ebyo,": 6131,
      "▁lunaku.\r\n": 6132,
      "▁n'ekitala": 6133,
      "▁helps": 6134,
      "▁education.\r\n": 6135,
      "▁altar,": 6136,
      "▁night,": 6137,
      "▁Ekigambo": 6138,
      "▁Father,": 6139,
      "▁organization": 6140,
      "▁staff": 6141,
      "▁candidates": 6142,
      "▁responsibility": 6143,
      "▁Blessed": 6144,
      "galira": 6145,
      "les.\r\n": 6146,
      "▁talk": 6147,
      "▁bbun": 6148,
      "▁ed": 6149,
      "onge": 6150,
      "ons,": 6151,
      "itta": 6152,
      "▁mutu": 6153,
      "asi,": 6154,
      "▁baddu": 6155,
      "▁neck": 6156,
      "arge": 6157,
      "▁Me": 6158,
      "ents,": 6159,
      "▁ekyali": 6160,
      "▁alyoke": 6161,
      "▁Bat": 6162,
      "akom": 6163,
      "jjuk": 6164,
      "▁Ged": 6165,
      "▁Genda": 6166,
      "▁yagamba": 6167,
      "ch.\r\n": 6168,
      "ebwanga": 6169,
      "▁obuggya": 6170,
      "▁atya": 6171,
      "▁ogus": 6172,
      "▁b'ebi": 6173,
      "▁gwammwe": 6174,
      "▁n'abat": 6175,
      "▁Amoni": 6176,
      "▁greater": 6177,
      "tained": 6178,
      "▁servant,": 6179,
      "▁settle": 6180,
      "itional": 6181,
      "▁crime": 6182,
      "▁bread,": 6183,
      "▁pulojekiti.\r\n": 6184,
      "▁stones": 6185,
      "▁arose": 6186,
      "ias,": 6187,
      "tors": 6188,
      "wesi": 6189,
      "▁tulina": 6190,
      "alirwa": 6191,
      "▁wine,": 6192,
      "ency": 6193,
      "▁hung": 6194,
      "or\r\n": 6195,
      "asp": 6196,
      "▁pp": 6197,
      "▁bakazi": 6198,
      "buyaga": 6199,
      "bugwanjuba": 6200,
      "▁Twa": 6201,
      "eeko": 6202,
      "amanya": 6203,
      "▁enem": 6204,
      "ayita": 6205,
      "icts": 6206,
      "▁Kal": 6207,
      "▁forward": 6208,
      "▁reason": 6209,
      "▁emik": 6210,
      "ific": 6211,
      "▁saf": 6212,
      "guudo.\r\n": 6213,
      "▁kaseera": 6214,
      "anidde": 6215,
      "▁stat": 6216,
      "▁ebifaananyi": 6217,
      "▁maj": 6218,
      "▁process": 6219,
      "anyiza": 6220,
      "▁Nebuka": 6221,
      "▁Neither": 6222,
      "▁muliro": 6223,
      "▁served": 6224,
      "ful\r\n": 6225,
      "wanguzi": 6226,
      "▁Rub": 6227,
      "iew": 6228,
      "▁etteeka": 6229,
      "▁okukwata": 6230,
      "▁Moab": 6231,
      "fumbo": 6232,
      "▁old,": 6233,
      "▁blood,": 6234,
      "▁Ekibiina": 6235,
      "▁soldi": 6236,
      "▁Elias": 6237,
      "ondoola": 6238,
      "▁countries.\r\n": 6239,
      "jij": 6240,
      "▁apost": 6241,
      "▁Nebukadd": 6242,
      "mbala": 6243,
      "most": 6244,
      "rat": 6245,
      "▁,": 6246,
      "▁bita": 6247,
      "ino.\r\n": 6248,
      "eness": 6249,
      "enfuna": 6250,
      "kaasa": 6251,
      "▁kirina": 6252,
      "▁lwange": 6253,
      "▁n'ente": 6254,
      "▁baweebwa": 6255,
      "zaalira": 6256,
      "▁ekkanisa": 6257,
      "▁Kale,": 6258,
      "uka\r\n": 6259,
      "▁Ok": 6260,
      "ifi": 6261,
      "▁Abakulu": 6262,
      "▁Abatuuze": 6263,
      "▁ebika": 6264,
      "▁maaso.\r\n": 6265,
      "essomero.\r\n": 6266,
      "▁goeth": 6267,
      "▁speech": 6268,
      "mizannyo": 6269,
      "wala,": 6270,
      "▁mulyoke": 6271,
      "▁Okun": 6272,
      "cious": 6273,
      "▁Enkola": 6274,
      "▁akamwa": 6275,
      "yingi": 6276,
      "▁n'ekyo": 6277,
      "▁Moyo": 6278,
      "▁It's": 6279,
      "▁n'atwala": 6280,
      "▁restore": 6281,
      "▁standing": 6282,
      "▁term": 6283,
      "▁harvest": 6284,
      "▁Jacob,": 6285,
      "▁drop": 6286,
      "▁foolish": 6287,
      "▁bridge": 6288,
      "▁various": 6289,
      "conom": 6290,
      "ia": 6291,
      "ogoyi": 6292,
      "pers": 6293,
      "wola": 6294,
      "▁bikolwa": 6295,
      "▁mit": 6296,
      "▁gano": 6297,
      "▁touc": 6298,
      "▁okuy": 6299,
      "▁okubal": 6300,
      "oloo": 6301,
      "ab'": 6302,
      "▁baag": 6303,
      "▁Ker": 6304,
      "▁Go,": 6305,
      "▁Ghost": 6306,
      "▁yaffe": 6307,
      "chod": 6308,
      "▁gaayo": 6309,
      "▁rather": 6310,
      "▁nno,": 6311,
      "▁balyoke": 6312,
      "amu,": 6313,
      "▁okussa": 6314,
      "▁mean": 6315,
      "▁kyeyava": 6316,
      "▁hands,": 6317,
      "▁eby'enjawulo": 6318,
      "▁examin": 6319,
      "▁Ebintu": 6320,
      "▁ebyokebwa": 6321,
      "onyiwa": 6322,
      "▁ludda": 6323,
      "▁olw'okus": 6324,
      "▁since": 6325,
      "▁Christ.\r\n": 6326,
      "▁okunoonya": 6327,
      "olokoka,": 6328,
      "▁confound": 6329,
      "▁matter": 6330,
      "▁crown": 6331,
      "▁religi": 6332,
      "▁prepare": 6333,
      "▁demand": 6334,
      "▁participate": 6335,
      "▁planning": 6336,
      "▁chosen": 6337,
      "bonyaab": 6338,
      "19": 6339,
      "bali": 6340,
      "ne": 6341,
      "rast": 6342,
      "wedde": 6343,
      "▁table": 6344,
      "▁batuula": 6345,
      "aliriza": 6346,
      "alabika": 6347,
      "▁hind": 6348,
      "or.\r\n": 6349,
      "▁cher": 6350,
      "▁fer": 6351,
      "▁touch": 6352,
      "asi.\r\n": 6353,
      "▁pour": 6354,
      "▁n'emi": 6355,
      "▁kuna": 6356,
      "ye,": 6357,
      "abona": 6358,
      "ziya": 6359,
      "▁baalaba": 6360,
      "ary.\r\n": 6361,
      "ira\r\n": 6362,
      "ayi.\r\n": 6363,
      "▁ekitukuvu": 6364,
      "▁abatuula": 6365,
      "et\r\n": 6366,
      "siza": 6367,
      "itions": 6368,
      "▁bw'omu": 6369,
      "▁weight": 6370,
      "▁okusimba": 6371,
      "▁day:": 6372,
      "▁n'abas": 6373,
      "▁n'abakulu": 6374,
      "▁ebyokul": 6375,
      "▁Josa": 6376,
      "▁funds.\r\n": 6377,
      "wube": 6378,
      "▁brother,": 6379,
      "▁required": 6380,
      "▁bisatu": 6381,
      "▁Pharise": 6382,
      "▁okusomesa": 6383,
      "saasaanya": 6384,
      "▁w'omuntu,": 6385,
      "gwanira": 6386,
      "▁Nabuchod": 6387,
      "▁Nabuchodon": 6388,
      "▁.": 6389,
      "▁bond": 6390,
      "er:": 6391,
      "onzi": 6392,
      "at\r\n": 6393,
      "baza": 6394,
      "wagizi": 6395,
      "▁kumu": 6396,
      "ye.\r\n": 6397,
      "▁baab": 6398,
      "▁baaku": 6399,
      "il\r\n": 6400,
      "imereki": 6401,
      "▁Men": 6402,
      "▁Ele": 6403,
      "koba": 6404,
      "emikono": 6405,
      "▁Bak": 6406,
      "▁n'awa": 6407,
      "▁n'ava": 6408,
      "akkiriza": 6409,
      "vuga": 6410,
      "▁yak": 6411,
      "thi": 6412,
      "guzi.\r\n": 6413,
      "▁ebizibu": 6414,
      "▁tez": 6415,
      "atuulanga": 6416,
      "▁discus": 6417,
      "▁king.\r\n": 6418,
      "ulu.\r\n": 6419,
      "▁mutyo": 6420,
      "▁Okut": 6421,
      "▁shepher": 6422,
      "▁agenda": 6423,
      "▁earth:": 6424,
      "▁write": 6425,
      "▁temuli": 6426,
      "▁looking": 6427,
      "▁n'ayimirira": 6428,
      "▁disease.\r\n": 6429,
      "▁victims": 6430,
      "▁redeem": 6431,
      "▁obey": 6432,
      "▁N'amugamba": 6433,
      "▁Nabuchodonos": 6434,
      "ND": 6435,
      "uza": 6436,
      "anti": 6437,
      "▁bought": 6438,
      "alyanga": 6439,
      "▁econom": 6440,
      "iriri": 6441,
      "▁mil": 6442,
      "▁calf": 6443,
      "▁gus": 6444,
      "▁dou": 6445,
      "▁n'Omu": 6446,
      "alay": 6447,
      "▁ekiragiro": 6448,
      "▁abuse": 6449,
      "ereze": 6450,
      "safa": 6451,
      "vuun": 6452,
      "rias": 6453,
      "▁obukugu": 6454,
      "▁ebigere": 6455,
      "anyizza": 6456,
      "avi": 6457,
      "▁olw'omwezi": 6458,
      "▁atta": 6459,
      "▁balyoka": 6460,
      "anyanga": 6461,
      "▁kyaffe": 6462,
      "▁oguli": 6463,
      "▁bassekabaka": 6464,
      "▁hands.\r\n": 6465,
      "▁thing,": 6466,
      "▁again,": 6467,
      "jaguza": 6468,
      "▁ddembe": 6469,
      "▁thee.": 6470,
      "▁commit": 6471,
      "▁ez'e": 6472,
      "▁districts": 6473,
      "wandiiko": 6474,
      "▁answered,": 6475,
      "areth": 6476,
      "▁repres": 6477,
      "▁waggulu.\r\n": 6478,
      "▁decision": 6479,
      "▁praise": 6480,
      "▁bizinensi.\r\n": 6481,
      "▁side,": 6482,
      "▁drugs": 6483,
      "▁clothed": 6484,
      "▁belong": 6485,
      "▁Edomu": 6486,
      "kaayana": 6487,
      "ebenke": 6488,
      "▁Chalde": 6489,
      "rastruc": 6490,
      "fort": 6491,
      "yeri": 6492,
      "yiro": 6493,
      "yonoona": 6494,
      "▁batuuka": 6495,
      "▁som": 6496,
      "▁met": 6497,
      "▁mos": 6498,
      "▁member": 6499,
      "▁muba": 6500,
      "▁lwo": 6501,
      "▁dil": 6502,
      "unyi": 6503,
      "maama": 6504,
      "▁bap": 6505,
      "tuusa": 6506,
      "iraamu": 6507,
      "bur": 6508,
      "▁Madi": 6509,
      "▁Oli": 6510,
      "▁ret": 6511,
      "sibwa": 6512,
      "sizza": 6513,
      "▁embuzi": 6514,
      "▁obukiika": 6515,
      "▁obugagga": 6516,
      "▁ng'en": 6517,
      "▁ng'enda": 6518,
      "▁Ab'": 6519,
      "endekebwa": 6520,
      "▁makubo": 6521,
      "▁conduc": 6522,
      "▁olw'em": 6523,
      "▁w'essomero": 6524,
      "▁meas": 6525,
      "▁accept": 6526,
      "waddeyo": 6527,
      "▁ky'o": 6528,
      "▁business.\r\n": 6529,
      "▁named": 6530,
      "▁firstfruit": 6531,
      "ambula.\r\n": 6532,
      "▁Misiri.\r\n": 6533,
      "▁kiriba": 6534,
      "▁n'ekiweebwayo": 6535,
      "▁Bannayuganda": 6536,
      "zeewo": 6537,
      "▁generation": 6538,
      "▁gods,": 6539,
      "▁Levites,": 6540,
      "▁countries": 6541,
      "▁success": 6542,
      "▁Jordan": 6543,
      "▁Shall": 6544,
      "▁inheritance": 6545,
      "▁innoc": 6546,
      "▁committee": 6547,
      "▁everlasting": 6548,
      "▁Josaph": 6549,
      "anit": 6550,
      "gasa": 6551,
      "▁mbi": 6552,
      "▁ko": 6553,
      "▁AND": 6554,
      "weerezanga": 6555,
      "▁okubu": 6556,
      "▁kusi": 6557,
      "yee": 6558,
      "▁baawulira": 6559,
      "tiisa": 6560,
      "imin": 6561,
      "▁Mwana": 6562,
      "ally.\r\n": 6563,
      "▁abasomesa": 6564,
      "sible": 6565,
      "ekka": 6566,
      "▁embi.\r\n": 6567,
      "▁bwe,": 6568,
      "vuuna": 6569,
      "eby'": 6570,
      "fugira": 6571,
      "▁ng'emp": 6572,
      "osition": 6573,
      "▁stor": 6574,
      "▁Dda": 6575,
      "▁amasomero": 6576,
      "iriza.\r\n": 6577,
      "▁season": 6578,
      "eeker": 6579,
      "irema": 6580,
      "lemenga": 6581,
      "▁b'e": 6582,
      "▁greatly": 6583,
      "imba.\r\n": 6584,
      "▁fire.\r\n": 6585,
      "▁n'amaaso": 6586,
      "ebyobufuzi": 6587,
      "oint": 6588,
      "▁secret": 6589,
      "fumita": 6590,
      "gober": 6591,
      "▁election": 6592,
      "▁elections": 6593,
      "▁mwaka.\r\n": 6594,
      "▁flour": 6595,
      "▁organ": 6596,
      "▁mouth,": 6597,
      "▁ekitiibwa.\r\n": 6598,
      "▁defil": 6599,
      "▁mountains": 6600,
      "▁property.\r\n": 6601,
      "▁condemn": 6602,
      "▁Jez": 6603,
      "▁rejoice": 6604,
      "▁crops": 6605,
      "▁consider": 6606,
      "▁hygi": 6607,
      "▁aston": 6608,
      "▁mwannyina": 6609,
      "▁emigaati": 6610,
      "safaati": 6611,
      "ead": 6612,
      "▁ttaka.\r\n": 6613,
      "▁bug": 6614,
      "▁nin": 6615,
      "enya.\r\n": 6616,
      "wa;": 6617,
      "▁hither": 6618,
      "essa": 6619,
      "▁cup": 6620,
      "▁fine": 6621,
      "▁flow": 6622,
      "▁gange,": 6623,
      "▁leng": 6624,
      "asulwa": 6625,
      "▁p.": 6626,
      "▁kuyamba": 6627,
      "tum": 6628,
      "ili": 6629,
      "leg": 6630,
      "aliza": 6631,
      "rought": 6632,
      "▁Seme": 6633,
      "▁Leb": 6634,
      "▁ebbaluwa": 6635,
      "akwa": 6636,
      "▁emit": 6637,
      "▁obujjanjabi": 6638,
      "▁Hel": 6639,
      "▁vol": 6640,
      "▁Dany": 6641,
      "▁amaka": 6642,
      "▁conver": 6643,
      "▁bijja": 6644,
      "▁(for": 6645,
      "▁bye,": 6646,
      "▁ensigo": 6647,
      "enjuba": 6648,
      "▁blasp": 6649,
      "▁adul": 6650,
      "▁perhaps": 6651,
      "▁head,": 6652,
      "▁bulabe": 6653,
      "▁enjala": 6654,
      "▁ogujja.\r\n": 6655,
      "▁kaakano,": 6656,
      "▁bitter": 6657,
      "▁intern": 6658,
      "▁interp": 6659,
      "azar": 6660,
      "▁malari": 6661,
      "▁emmotoka": 6662,
      "▁olw'obukiika": 6663,
      "▁came,": 6664,
      "▁gods": 6665,
      "▁Yekosafaati": 6666,
      "▁enemies,": 6667,
      "▁kinaabanga": 6668,
      "▁basajja": 6669,
      "▁animals": 6670,
      "▁oneself": 6671,
      "▁Kampala": 6672,
      "▁Sayuuni": 6673,
      "▁accompl": 6674,
      "-19": 6675,
      "cent": 6676,
      "▁nta": 6677,
      "ines,": 6678,
      "▁wo.\r\n": 6679,
      "enkana": 6680,
      "▁motor": 6681,
      "▁custom": 6682,
      "▁ge.\r\n": 6683,
      "▁kukozesa": 6684,
      "buwangwa": 6685,
      "▁Mwe": 6686,
      "▁Obul": 6687,
      "▁regard": 6688,
      "ce.\r\n": 6689,
      "▁anointed": 6690,
      "▁wash": 6691,
      "▁comfort": 6692,
      "▁Pre": 6693,
      "▁man's": 6694,
      "onoone": 6695,
      "▁amangi": 6696,
      "▁least": 6697,
      "▁lepro": 6698,
      "▁erit": 6699,
      "▁eryo": 6700,
      "▁ezzadde": 6701,
      "▁n'abaddu": 6702,
      "▁ddwaliro.\r\n": 6703,
      "▁mayst": 6704,
      "▁egya": 6705,
      "ite\r\n": 6706,
      "▁judged": 6707,
      "▁headte": 6708,
      "▁trees.\r\n": 6709,
      "▁mpaka": 6710,
      "▁ntyo": 6711,
      "▁enteekateeka": 6712,
      "▁materi": 6713,
      "▁charged": 6714,
      "▁interest": 6715,
      "▁bigere": 6716,
      "ondeere": 6717,
      "beeyi": 6718,
      "▁Eddwaliro": 6719,
      "▁behind": 6720,
      "▁knoweth": 6721,
      "awangayo": 6722,
      "▁favour": 6723,
      "kuŋŋaaniro": 6724,
      "joo": 6725,
      "▁nsozi": 6726,
      "▁aw": 6727,
      "▁wrought": 6728,
      "andise": 6729,
      "▁mwo": 6730,
      "▁kkampuni": 6731,
      "▁okuzza": 6732,
      "▁n'alagira": 6733,
      "unga": 6734,
      "uni,": 6735,
      "ingo": 6736,
      "abibwa": 6737,
      "ott": 6738,
      "▁enkuba": 6739,
      "idence": 6740,
      "▁omuk": 6741,
      "emenga": 6742,
      "ukawo": 6743,
      "igenda": 6744,
      "▁abasawo": 6745,
      "th.\r\n": 6746,
      "gugu": 6747,
      "▁obubonero": 6748,
      "▁obuwanvu": 6749,
      "▁Per": 6750,
      "▁Pro": 6751,
      "▁okwan": 6752,
      "▁amag": 6753,
      "iving": 6754,
      "▁(p": 6755,
      "▁bwayo": 6756,
      "kole": 6757,
      "zibwa.\r\n": 6758,
      "ebigere": 6759,
      "▁Amorrh": 6760,
      "▁akawungee": 6761,
      "inistr": 6762,
      "licts": 6763,
      "▁month.\r\n": 6764,
      "▁done,": 6765,
      "▁zaabu,": 6766,
      "▁burning": 6767,
      "▁justice,": 6768,
      "wummu": 6769,
      "▁twetaaga": 6770,
      "▁learning": 6771,
      "yogedde": 6772,
      "▁week.\r\n": 6773,
      "▁around": 6774,
      "▁create": 6775,
      "▁doctor": 6776,
      "▁prison": 6777,
      "▁cities,": 6778,
      "▁wonder": 6779,
      "▁Nebbi": 6780,
      "▁lockdown.\r\n": 6781,
      "▁sitting": 6782,
      "▁virg": 6783,
      "▁yesterday.\r\n": 6784,
      "▁destruction": 6785,
      "▁indignation": 6786,
      "▁mosqu": 6787,
      "-f": 6788,
      "by": 6789,
      "kkono": 6790,
      "mit": 6791,
      "sig": 6792,
      "▁tenth": 6793,
      "▁birungi": 6794,
      "▁s.\r\n": 6795,
      "atiro": 6796,
      "▁male": 6797,
      "▁fil": 6798,
      "▁poured": 6799,
      "▁n'endiga": 6800,
      "olus": 6801,
      "▁kuku": 6802,
      "▁kukkiriza": 6803,
      "▁kukuuma": 6804,
      "yembe": 6805,
      "▁bayingira": 6806,
      "▁baamala": 6807,
      "▁Kirungi": 6808,
      "▁omubi": 6809,
      "▁Seta": 6810,
      "aken": 6811,
      "▁olina": 6812,
      "▁whil": 6813,
      "▁Yas": 6814,
      "▁ng'as": 6815,
      "▁up.\r\n": 6816,
      "▁okusooka": 6817,
      "▁zaayo": 6818,
      "▁means": 6819,
      "▁(f": 6820,
      "▁Okuzimba": 6821,
      "▁branc": 6822,
      "▁ey'en": 6823,
      "▁parliament": 6824,
      "▁emplo": 6825,
      "▁primary": 6826,
      "▁nsonyi": 6827,
      "▁womb": 6828,
      "▁speaking": 6829,
      "ferred": 6830,
      "▁gates": 6831,
      "zannyo.\r\n": 6832,
      "▁improved": 6833,
      "▁njagala": 6834,
      "▁ekisinga": 6835,
      "▁Yakobo,": 6836,
      "▁ekitundu.\r\n": 6837,
      "▁divided": 6838,
      "▁please": 6839,
      "▁olw'ekibi": 6840,
      "yimusa": 6841,
      "▁okuteesa": 6842,
      "▁marriage": 6843,
      "▁created": 6844,
      "Abaleevi": 6845,
      "▁Road": 6846,
      "▁Local": 6847,
      "▁represent": 6848,
      "agamba": 6849,
      "line": 6850,
      "▁bany": 6851,
      "inze": 6852,
      "mum": 6853,
      "enzi.\r\n": 6854,
      "▁matu": 6855,
      "▁okuna": 6856,
      "▁okutegeeza": 6857,
      "olf": 6858,
      "ings.\r\n": 6859,
      "zi\r\n": 6860,
      "amber": 6861,
      "ge,": 6862,
      "▁Their": 6863,
      "▁omusujja": 6864,
      "emor": 6865,
      "▁ntikko": 6866,
      "▁Wo": 6867,
      "ended": 6868,
      "▁bw'o": 6869,
      "amag": 6870,
      "agal": 6871,
      "anya\r\n": 6872,
      "▁ogwo": 6873,
      "birizza": 6874,
      "▁b'endiga": 6875,
      "▁police.\r\n": 6876,
      "suuli": 6877,
      "▁Jeroboam": 6878,
      "▁bajjajj": 6879,
      "▁munna": 6880,
      "▁Emirimu": 6881,
      "▁wrong": 6882,
      "ongoosebwa": 6883,
      "▁ly'omu": 6884,
      "▁consec": 6885,
      "▁nju": 6886,
      "▁naawe,": 6887,
      "▁kino,": 6888,
      "▁church.\r\n": 6889,
      "▁subst": 6890,
      "▁subject": 6891,
      "▁remained": 6892,
      "▁sides": 6893,
      "▁purpos": 6894,
      "▁maintain": 6895,
      "▁revenue": 6896,
      "▁pulayim": 6897,
      "▁sanctuary,": 6898,
      "▁ceremoni": 6899,
      "banja": 6900,
      "ction": 6901,
      "eweema": 6902,
      "gol": 6903,
      "ibe": 6904,
      "jum": 6905,
      "▁?\r\n": 6906,
      "▁nk": 6907,
      "mu:": 6908,
      "mus": 6909,
      "aloo": 6910,
      "▁eyo.\r\n": 6911,
      "atambula": 6912,
      "re,": 6913,
      "▁min": 6914,
      "uliranga": 6915,
      "▁harm": 6916,
      "▁Akazi": 6917,
      "yoom": 6918,
      "▁okutaba": 6919,
      "▁okubuulira": 6920,
      "ased.\r\n": 6921,
      "▁popul": 6922,
      "▁n'atuula": 6923,
      "abala": 6924,
      "zibe": 6925,
      "▁beek": 6926,
      "arch": 6927,
      "bu,": 6928,
      "angako": 6929,
      "▁omuli": 6930,
      "▁emirimu.\r\n": 6931,
      "obwann": 6932,
      "▁Lord.": 6933,
      "▁washed": 6934,
      "▁itself": 6935,
      "▁asobola": 6936,
      "▁chur": 6937,
      "laim": 6938,
      "▁yatu": 6939,
      "▁Dani": 6940,
      "▁sepul": 6941,
      "alo,": 6942,
      "▁y'ebyenjigiriza": 6943,
      "▁okwetaba": 6944,
      "▁Ennaku": 6945,
      "▁root": 6946,
      "ako.\r\n": 6947,
      "▁ab'oku": 6948,
      "▁n'omul": 6949,
      "▁strik": 6950,
      "▁ways,": 6951,
      "▁g'omu": 6952,
      "▁n'ekit": 6953,
      "▁mwekka": 6954,
      "▁together.\r\n": 6955,
      "▁thereof:": 6956,
      "obozi": 6957,
      "▁reported": 6958,
      "▁n'ebibuga": 6959,
      "▁n'enn": 6960,
      "▁evil,": 6961,
      "galala": 6962,
      "▁essomero": 6963,
      "▁fourth": 6964,
      "▁done.\r\n": 6965,
      "▁entebe": 6966,
      "▁gyonna.\r\n": 6967,
      "▁prophets,": 6968,
      "▁munne": 6969,
      "▁kifuba": 6970,
      "kaludaaya": 6971,
      "▁Musl": 6972,
      "▁management": 6973,
      "▁pieces": 6974,
      "▁urged": 6975,
      "▁COVID-19": 6976,
      "eevi,": 6977,
      "▁tee": 6978,
      "isu": 6979,
      "▁mist": 6980,
      "▁mum": 6981,
      "▁fre": 6982,
      "▁fem": 6983,
      "▁gre": 6984,
      "▁gender": 6985,
      "▁lose": 6986,
      "▁kufa": 6987,
      "▁beet": 6988,
      "▁abs": 6989,
      "▁abana": 6990,
      "▁omutuukirivu": 6991,
      "▁omubereberye": 6992,
      "▁Nange": 6993,
      "▁n'aŋŋamba": 6994,
      "▁waffe.\r\n": 6995,
      "▁Abavuzi": 6996,
      "ukana": 6997,
      "▁bw'al": 6998,
      "▁yennyini": 6999,
      "▁ebikozesebwa": 7000,
      "▁amakubo": 7001,
      "▁eriba": 7002,
      "▁ekika": 7003,
      "anyuk": 7004,
      "agana": 7005,
      "▁N'akola": 7006,
      "▁ennyo,": 7007,
      "ikiddwa": 7008,
      "▁lib": 7009,
      "▁subur": 7010,
      "yitako": 7011,
      "▁Obut": 7012,
      "▁die.\r\n": 7013,
      "▁leadership": 7014,
      "tendekero": 7015,
      "zuuki": 7016,
      "▁gyange": 7017,
      "▁gwange,": 7018,
      "▁believed": 7019,
      "▁Samaliya": 7020,
      "tegee": 7021,
      "▁tongu": 7022,
      "▁vanill": 7023,
      "▁drunk": 7024,
      "▁false": 7025,
      "▁Batabani": 7026,
      "▁suburb": 7027,
      "ray": 7028,
      "vv": 7029,
      "zinga": 7030,
      "▁tit": 7031,
      "▁teri": 7032,
      "▁tuba": 7033,
      "▁eweema": 7034,
      "▁sna": 7035,
      "gaati": 7036,
      "▁lit": 7037,
      "▁kugenda": 7038,
      "yeenye": 7039,
      "tuufu": 7040,
      "bumba": 7041,
      "▁Tim": 7042,
      "▁Mun": 7043,
      "▁Mar": 7044,
      "amed": 7045,
      "bebwa": 7046,
      "vu;": 7047,
      "▁yawulira": 7048,
      "ify": 7049,
      "opi": 7050,
      "chie": 7051,
      "gumu": 7052,
      "▁byalo.\r\n": 7053,
      "▁obuvunaanyizibwa": 7054,
      "▁Hospit": 7055,
      "▁vision": 7056,
      "ests": 7057,
      "▁De": 7058,
      "▁amanyi": 7059,
      "ateesa": 7060,
      "▁Can": 7061,
      "▁Omukazi": 7062,
      "▁acts": 7063,
      "angirira": 7064,
      "▁ddyo,": 7065,
      "▁okutwala": 7066,
      "▁board": 7067,
      "▁ez'enjawulo.\r\n": 7068,
      "▁ndimu": 7069,
      "▁ears": 7070,
      "▁z'aba": 7071,
      "▁gujja": 7072,
      "▁resist": 7073,
      "suula": 7074,
      "▁Musa,": 7075,
      "▁kulwanyisa": 7076,
      "tures": 7077,
      "▁ebisolo": 7078,
      "▁golden": 7079,
      "imele": 7080,
      "itions.\r\n": 7081,
      "▁Saul,": 7082,
      "▁village.\r\n": 7083,
      "▁eggulo.\r\n": 7084,
      "▁programs": 7085,
      "ategeeza": 7086,
      "▁disput": 7087,
      "▁Tuyinza": 7088,
      "▁Jordan,": 7089,
      "▁akaleeta": 7090,
      "▁feet,": 7091,
      "▁necessary": 7092,
      "▁cherub": 7093,
      "vuunama": 7094,
      "come": 7095,
      "meeme": 7096,
      "zit": 7097,
      "’s": 7098,
      "▁bill": 7099,
      "in.\r\n": 7100,
      "kubanga": 7101,
      "isiraeri": 7102,
      "▁Acc": 7103,
      "▁purch": 7104,
      "irika": 7105,
      "▁enku": 7106,
      "aliya,": 7107,
      "ko\r\n": 7108,
      "▁Sed": 7109,
      "▁Sina": 7110,
      "▁reso": 7111,
      "▁white": 7112,
      "ekirwadde": 7113,
      "▁saved": 7114,
      "▁Abakazi": 7115,
      "▁chamber": 7116,
      "ggalo.\r\n": 7117,
      "▁tetu": 7118,
      "▁maid": 7119,
      "▁olw'ob": 7120,
      "▁olw'ok": 7121,
      "▁nnali": 7122,
      "▁buyinza": 7123,
      "▁lef": 7124,
      "ethod": 7125,
      "▁kite": 7126,
      "▁butali": 7127,
      "zibwa,": 7128,
      "▁bras": 7129,
      "▁eky'e": 7130,
      "ide\r\n": 7131,
      "▁empagi": 7132,
      "duced": 7133,
      "▁implement": 7134,
      "▁lubuto": 7135,
      "▁eteekeddwa": 7136,
      "▁David:": 7137,
      "▁lift": 7138,
      "▁expected": 7139,
      "futa,": 7140,
      "▁Bulijjo": 7141,
      "▁wife.\r\n": 7142,
      "▁effort": 7143,
      "▁okusaasaana": 7144,
      "▁okw'omu": 7145,
      "buulirira": 7146,
      "▁okuleeta": 7147,
      "▁ttale": 7148,
      "▁ndaba": 7149,
      "usuuli": 7150,
      "▁n'abakazi": 7151,
      "akolanga": 7152,
      "onyezebwa": 7153,
      "▁facilities": 7154,
      "▁obubaane": 7155,
      "▁Nabuchodonosor": 7156,
      "binja": 7157,
      "ion": 7158,
      "kye": 7159,
      "kwatibwa": 7160,
      "▁tteeka": 7161,
      "▁ejjinja": 7162,
      "▁wants": 7163,
      "irembe,": 7164,
      "▁mill": 7165,
      "▁mpa": 7166,
      "▁method": 7167,
      "▁Arise,": 7168,
      "▁git": 7169,
      "▁tour": 7170,
      "▁okuv": 7171,
      "▁okuko": 7172,
      "ase,": 7173,
      "▁dust": 7174,
      "imera": 7175,
      "▁short": 7176,
      "▁enguzi": 7177,
      "▁enkulaakulana": 7178,
      "idential": 7179,
      "▁Kino": 7180,
      "▁abeera": 7181,
      "emiti": 7182,
      "▁ababaka": 7183,
      "▁rebu": 7184,
      "ooper": 7185,
      "giddwa": 7186,
      "obole": 7187,
      "▁there.\r\n": 7188,
      "wangayo": 7189,
      "▁me.": 7190,
      "▁byaffe": 7191,
      "▁bika": 7192,
      "irwa,": 7193,
      "▁by'aba": 7194,
      "▁okwegatta": 7195,
      "▁b'abantu": 7196,
      "wenzi": 7197,
      "▁knowest": 7198,
      "ensive": 7199,
      "▁more.\r\n": 7200,
      "ustri": 7201,
      "▁forth,": 7202,
      "▁n'amagezi": 7203,
      "▁presence": 7204,
      "▁die,": 7205,
      "▁affect": 7206,
      "▁ag'oku": 7207,
      "▁Amazzi": 7208,
      "▁businesses.\r\n": 7209,
      "▁signs": 7210,
      "bufuzi.\r\n": 7211,
      "▁ennungi.\r\n": 7212,
      "kwasa": 7213,
      "▁happen": 7214,
      "▁doctors": 7215,
      "▁okuteekawo": 7216,
      "yawula": 7217,
      "▁Galaad": 7218,
      "▁widow": 7219,
      "▁savings": 7220,
      "▁electricity": 7221,
      "▁appreci": 7222,
      "▁dilig": 7223,
      "▁sepulch": 7224,
      "cles": 7225,
      "gan": 7226,
      "ggibwa": 7227,
      "▁os": 7228,
      "▁blem": 7229,
      "▁buno": 7230,
      "▁win": 7231,
      "▁musa": 7232,
      "ession": 7233,
      "▁kiro": 7234,
      "▁okuzaala": 7235,
      "▁lamp": 7236,
      "tuula": 7237,
      "▁hen": 7238,
      "gem": 7239,
      "ko;": 7240,
      "▁abro": 7241,
      "▁abatu": 7242,
      "umya": 7243,
      "str": 7244,
      "ekik": 7245,
      "vubuka.\r\n": 7246,
      "▁once": 7247,
      "▁safe": 7248,
      "▁all,": 7249,
      "▁Abakris": 7250,
      "▁ng'obu": 7251,
      "▁const": 7252,
      "▁soon": 7253,
      "▁wear": 7254,
      "▁seas": 7255,
      "▁je": 7256,
      "▁basic": 7257,
      "▁b'en": 7258,
      "akamal": 7259,
      "ekiweebwayo": 7260,
      "▁moved": 7261,
      "▁Ebis": 7262,
      "ingiza": 7263,
      "▁ekitone": 7264,
      "▁omusana": 7265,
      "▁kusobola": 7266,
      "▁getting": 7267,
      "▁families.\r\n": 7268,
      "▁peace.\r\n": 7269,
      "▁constructed": 7270,
      "▁egy'omu": 7271,
      "▁faith,": 7272,
      "▁grass": 7273,
      "peak": 7274,
      "▁Adjum": 7275,
      "▁mateeka.\r\n": 7276,
      "▁iniquity,": 7277,
      "▁performance": 7278,
      "erubi": 7279,
      "gendereza": 7280,
      "▁testimon": 7281,
      "▁Erisa": 7282,
      "▁possessi": 7283,
      "▁groups": 7284,
      "▁celebrate": 7285,
      "▁source": 7286,
      "cher": 7287,
      "ewo": 7288,
      "gano.\r\n": 7289,
      "w\r\n": 7290,
      "zeddwa": 7291,
      "▁t.": 7292,
      "▁bban": 7293,
      "erinnya": 7294,
      "ints": 7295,
      "▁swo": 7296,
      "▁wedd": 7297,
      "iring": 7298,
      "onnyo": 7299,
      "ba;": 7300,
      "estic": 7301,
      "▁kk": 7302,
      "▁fis": 7303,
      "▁bayita": 7304,
      "imanyi": 7305,
      "▁ekina": 7306,
      "▁abanoonyiboobubudamu": 7307,
      "▁omuggo": 7308,
      "oop": 7309,
      "ula;": 7310,
      "ikip": 7311,
      "cep": 7312,
      "▁yaakamaze": 7313,
      "▁Wat": 7314,
      "itive": 7315,
      "▁all.\r\n": 7316,
      "▁Katonda:": 7317,
      "▁disc": 7318,
      "▁buck": 7319,
      "▁out.\r\n": 7320,
      "oney": 7321,
      "▁zaffe": 7322,
      "▁agamu": 7323,
      "cial": 7324,
      "▁about,": 7325,
      "▁g'abantu": 7326,
      "▁letter": 7327,
      "▁obutak": 7328,
      "▁city.\r\n": 7329,
      "▁mbaga": 7330,
      "▁mother,": 7331,
      "▁ebisale": 7332,
      "▁construct": 7333,
      "▁increasing": 7334,
      "▁kibuga,": 7335,
      "▁longer": 7336,
      "▁slept": 7337,
      "▁infrastruc": 7338,
      "▁kisenge": 7339,
      "▁running": 7340,
      "▁basiisira": 7341,
      "▁reproach": 7342,
      "▁Ettaka": 7343,
      "ateekera": 7344,
      "▁forgive": 7345,
      "▁bamalayika": 7346,
      "▁messengers": 7347,
      "▁guidel": 7348,
      "galiraaya": 7349,
      "▁Josaphat": 7350,
      "▁mosquito": 7351,
      "mumirembe": 7352,
      "▁consecr": 7353,
      "▁resour": 7354,
      "hop": 7355,
      "l,": 7356,
      "och": 7357,
      "uuka": 7358,
      "▁nate,": 7359,
      "erobo": 7360,
      "▁wel": 7361,
      "▁mwali": 7362,
      "▁Abe": 7363,
      "▁okubala": 7364,
      "▁lying": 7365,
      "▁lirina": 7366,
      "▁deep": 7367,
      "oles": 7368,
      "abik": 7369,
      "mawulire": 7370,
      "▁Twe": 7371,
      "▁he,": 7372,
      "▁hell": 7373,
      "▁ekirina": 7374,
      "▁Any": 7375,
      "▁alis": 7376,
      "▁National": 7377,
      "▁n'afuluma": 7378,
      "yizi.\r\n": 7379,
      "el.\r\n": 7380,
      "ddeyo": 7381,
      "thing": 7382,
      "▁kawum": 7383,
      "▁ng'al": 7384,
      "▁erimu": 7385,
      "aving": 7386,
      "okolo": 7387,
      "▁okusalawo": 7388,
      "kimu": 7389,
      "▁doc": 7390,
      "amayinja": 7391,
      "yambi.\r\n": 7392,
      "▁kyeba": 7393,
      "▁off,": 7394,
      "▁eby'ek": 7395,
      "▁ddene": 7396,
      "▁noise": 7397,
      "fully": 7398,
      "ishop": 7399,
      "oth\r\n": 7400,
      "▁Zi": 7401,
      "▁n'amus": 7402,
      "ieves": 7403,
      "▁eddungi": 7404,
      "▁n'ekitiibwa": 7405,
      "▁Lewube": 7406,
      "▁eat,": 7407,
      "▁okunyi": 7408,
      "▁tree,": 7409,
      "▁married": 7410,
      "▁experi": 7411,
      "▁kutandika": 7412,
      "▁prophet,": 7413,
      "▁zaabwe,": 7414,
      "▁Ebifo": 7415,
      "▁kusasula": 7416,
      "▁confirm": 7417,
      "cohol": 7418,
      "▁influ": 7419,
      "▁heaven.\r\n": 7420,
      "▁organized": 7421,
      "▁medic": 7422,
      "▁patients.\r\n": 7423,
      "▁deceased": 7424,
      "▁morning,": 7425,
      "▁Achab": 7426,
      "eekebwawo": 7427,
      "▁otya": 7428,
      "▁rejoic": 7429,
      "bikkako": 7430,
      "▁omulamu,": 7431,
      "▁multipli": 7432,
      "▁adulter": 7433,
      "▁headteacher": 7434,
      "geeza": 7435,
      "ious": 7436,
      "puli": 7437,
      "right": 7438,
      "yuma": 7439,
      "yimbi": 7440,
      "yango": 7441,
      "▁babuulira": 7442,
      "▁achie": 7443,
      "▁ejj": 7444,
      "▁ssi": 7445,
      "▁situ": 7446,
      "irwanga": 7447,
      "atya": 7448,
[...]
